{
  "kalk@@": 64218, 
  "zielgerichteten": 72818, 
  "ebet@@": 54975, 
  "Szczecin": 28118, 
  "Hohen": 52637, 
  "Paare": 60823, 
  "Pronk": 28700, 
  "woods": 6431, 
  "üppige": 65170, 
  "hanging": 10185, 
  "woody": 11316, 
  "nieder": 58558, 
  "毓@@": 77116, 
  "localized": 22747, 
  "sation": 21863, 
  "EU-US": 17492, 
  "canes": 45471, 
  "Moreira": 36700, 
  "gefäl@@": 69878, 
  "stät@@": 48559, 
  "gab": 45560, 
  "originality": 18970, 
  "Sam@@": 7068, 
  "ei@@": 5734, 
  "Kol@@": 9623, 
  "Offers": 20549, 
  "Western": 1360, 
  "藤@@": 69077, 
  "ʃ": 59597, 
  "Euro": 3195, 
  "Gepäck": 62756, 
  "Gest@@": 45008, 
  "ellation": 32465, 
  "co-operation": 6290, 
  "umsetzung": 58917, 
  "citrus": 21275, 
  "Valle": 13863, 
  "Schre@@": 49130, 
  "Blade": 38295, 
  "Infektion@@": 65173, 
  "lings": 25429, 
  "stipulate": 18930, 
  "appropriation": 14016, 
  "athed@@": 31708, 
  "Fax-": 74384, 
  "politician": 9151, 
  "Seller": 11708, 
  "bringing": 2181, 
  "showroom": 26585, 
  "MSN": 16359, 
  "wooded": 19877, 
  "Gärtner": 49131, 
  "streck@@": 65175, 
  "wooden": 4314, 
  "Miert": 25979, 
  "Heroes": 29053, 
  "Sack": 54976, 
  "GA@@": 18350, 
  "trieb@@": 69906, 
  "gleichzeitige": 65176, 
  "verbandes": 56463, 
  "hinder@@": 54977, 
  "south-west": 21478, 
  "Kompromiss@@": 69871, 
  "Signaturen": 62428, 
  "Betriebe": 58561, 
  "non-violent": 26791, 
  "ная": 45119, 
  "aufwirft": 69872, 
  "inevitably": 6031, 
  "Plut@@": 46935, 
  "weiterentwickeln": 69873, 
  "27.": 52414, 
  "überra@@": 58519, 
  "feasibility": 11302, 
  "271": 36456, 
  "272": 33319, 
  "273": 33079, 
  "274": 38917, 
  "275": 28582, 
  "watch@@": 12164, 
  "sustaining": 15938, 
  "278": 41738, 
  "279": 37989, 
  "СЂ": 51586, 
  "Schlim@@": 69874, 
  "關@@": 62250, 
  "icht-@@": 69875, 
  "abundantly": 17326, 
  "solvent": 22407, 
  "errors": 3612, 
  "dialogs": 26792, 
  "minimize": 11587, 
  "DiskRecovery": 42847, 
  "niederländische": 69876, 
  "cooking": 5411, 
  "Sebastián": 38445, 
  "distingu@@": 41739, 
  "Schlösser": 57393, 
  "Jungfern@@": 49132, 
  "Hamilton": 24807, 
  "Beschäftigung": 57537, 
  "designing": 7542, 
  "linge": 50624, 
  "ylen": 55689, 
  "succumb": 31709, 
  "shocks": 10789, 
  "widget": 23494, 
  "Shr@@": 33698, 
  "Cosmo@@": 32054, 
  "affiliates": 13134, 
  "Umzug": 57394, 
  "ching": 6153, 
  "china": 28339, 
  "grooves": 33308, 
  "Xy@@": 42294, 
  "affiliated": 10962, 
  "theless": 34606, 
  "employability": 21727, 
  "健@@": 65177, 
  "kids": 5884, 
  "Certific@@": 39713, 
  "Fotok@@": 62251, 
  "Muro": 37529, 
  "Lordaeron": 40804, 
  "climbed": 22820, 
  "ERGY": 43561, 
  "controversy": 9876, 
  "Kommentaren": 70395, 
  "ueber": 54979, 
  "Männern": 58562, 
  "geschuldet": 62253, 
  "ERGO": 38918, 
  "Isler": 35771, 
  "Isles": 29423, 
  "Mangel": 57395, 
  "Stand": 22341, 
  "stery": 28820, 
  "golden": 5644, 
  "Dexter": 39422, 
  "SPS": 39323, 
  "projection": 13817, 
  "anheben": 69879, 
  "Harvey": 35529, 
  "sters": 11049, 
  "wr@@": 19114, 
  "ätzt": 70182, 
  "Was@@": 28458, 
  "esthouse": 69880, 
  "Körper@@": 53294, 
  "stern": 33699, 
  "ticket": 2930, 
  "Küst@@": 57396, 
  "genommenen": 69881, 
  "wo@@": 7285, 
  "interpre@@": 31007, 
  "Integrität": 62286, 
  "KTOR": 60113, 
  "insecurity": 9132, 
  "42": 4575, 
  "唐@@": 65190, 
  "Karadzic": 35922, 
  "CFSP": 8959, 
  "Vorbehaltsware": 58563, 
  "ity@@": 19115, 
  "music": 739, 
  "therefore": 139, 
  "distortions": 9276, 
  "Self-@@": 22054, 
  "180@@": 27920, 
  "tening": 11764, 
  "hinzu@@": 62255, 
  "mosa@@": 48560, 
  "populations": 4810, 
  "Antidiskriminierungs@@": 69883, 
  "UNITA": 40208, 
  "Clients": 21068, 
  "Deutschland": 10287, 
  "sage@@": 33448, 
  "gün@@": 53820, 
  "pflanzung": 69884, 
  "SPA": 11945, 
  "diplomas": 18377, 
  "verschwenden": 69886, 
  "gencies": 25772, 
  "volum@@": 24723, 
  "St-@@": 28343, 
  "intake": 11379, 
  "morally": 15376, 
  "locked": 7817, 
  "tic-@@": 20982, 
  "locken": 60114, 
  "Kärnten": 46936, 
  "Sainjon": 41740, 
  "locker": 42149, 
  "Ricci@@": 53821, 
  "Colombia": 7342, 
  "interaction": 5810, 
  "Gef@@": 51402, 
  "simpel": 55690, 
  "radicalisation": 30882, 
  "Bavarian": 9372, 
  "Rei@@": 11362, 
  "Le": 3234, 
  "wang": 34607, 
  "wand": 30092, 
  "La": 1916, 
  "unjust": 15047, 
  "reduc@@": 26793, 
  "ín@@": 31736, 
  "wann": 47899, 
  "Li": 22889, 
  "titanium": 23261, 
  "ABAP": 14525, 
  "Lu": 43943, 
  "sterben": 57397, 
  "Ls": 30479, 
  "want": 162, 
  "prinzipi@@": 69891, 
  "absolute": 2861, 
  "LG": 20105, 
  "LD": 45120, 
  "LE": 7601, 
  "LB": 41945, 
  "LC": 31710, 
  "LA": 8932, 
  "glet@@": 45710, 
  "LO": 39565, 
  "travel": 996, 
  "Zweig": 38129, 
  "米@@": 66770, 
  "Jetzt": 57398, 
  "LV": 21619, 
  "LT": 7549, 
  "playback": 13684, 
  "LR": 32467, 
  "LS": 30739, 
  "LP": 28701, 
  "squab@@": 32781, 
  "-off": 20056, 
  "Falcon": 33449, 
  "晏@@": 73171, 
  "Untergrund@@": 69893, 
  "事": 66832, 
  "LY": 25876, 
  "ता@@": 27210, 
  "Berufsk@@": 56465, 
  "flamm@@": 35092, 
  "erlebnisreichen": 65178, 
  "L.": 15769, 
  "assimilated": 31579, 
  "Verf@@": 58565, 
  "wrong": 1608, 
  "recht": 29645, 
  "L2": 41741, 
  "L3": 38920, 
  "L1": 36192, 
  "sentencing": 32782, 
  "zzanine": 31580, 
  "Städ@@": 48931, 
  "promotion": 2194, 
  "CFO": 30093, 
  "Reduzierung": 65180, 
  "hlt": 58644, 
  "murder@@": 54363, 
  "occasions": 3104, 
  "elnden": 65181, 
  "beide": 50188, 
  "Stereo@@": 53822, 
  "та": 29661, 
  "LehrerInnen": 69896, 
  "18th": 5547, 
  "Brel@@": 42325, 
  "Navigator": 30611, 
  "CFR": 34390, 
  "CFP": 11020, 
  "Fokus": 58567, 
  "Willy": 34280, 
  "Nachbarschaft": 60159, 
  "onc@@": 33700, 
  "sätz@@": 69897, 
  "Produktpalette": 69571, 
  "fremde": 51403, 
  "swa@@": 21122, 
  "Sánchez": 28024, 
  "welcomed": 3503, 
  "verbindlich": 69898, 
  "ortiment": 65182, 
  "assing": 19878, 
  "controllable": 32918, 
  "Willi": 40592, 
  "Entwicklungs@@": 48218, 
  "vorangegangene": 74544, 
  "Wash@@": 43607, 
  "rewarded": 11096, 
  "activating": 14443, 
  "Schwester@@": 57389, 
  "朗": 69900, 
  "welcomes": 3706, 
  "Hip": 43697, 
  "木": 58569, 
  "His": 8960, 
  "Hit": 40214, 
  "本": 58560, 
  "fit": 2737, 
  "Schroeder": 34868, 
  "fix": 5145, 
  "striking": 5939, 
  "inar": 46937, 
  "inas": 25666, 
  "ergonom@@": 33193, 
  "kaz@@": 41550, 
  "kam@@": 22748, 
  "fic": 15281, 
  "inal": 22134, 
  "fia": 47388, 
  "fig": 24391, 
  "fik": 48561, 
  "fin": 20365, 
  "Him": 17671, 
  "Hin": 43698, 
  "tik-@@": 58570, 
  "Lak@@": 19116, 
  "zucker": 41551, 
  "blades": 18434, 
  "songwriter": 25362, 
  "ussel@@": 49333, 
  "antum": 50517, 
  "vouchers": 17709, 
  "top-quality": 16108, 
  "Indones@@": 46201, 
  "Mai": 17548, 
  "effects": 962, 
  "Flä@@": 62256, 
  "AD-@@": 44759, 
  "2x@@": 37676, 
  "sixteen": 18469, 
  "saddened": 32628, 
  "customer-oriented": 32468, 
  "bure@@": 33194, 
  "Pik@@": 45472, 
  "endemic": 16866, 
  "korro@@": 65185, 
  "Viking": 27291, 
  "Bundeswehr": 37385, 
  "crackdown": 28183, 
  "Bé@@": 22119, 
  "component": 3180, 
  "Unterhaltung": 54980, 
  "arrow": 12611, 
  "Lan": 43833, 
  "burial": 17847, 
  "telescope": 17633, 
  "Drop@@": 51096, 
  "Gründe": 57399, 
  "allah": 39079, 
  "osis": 12844, 
  "parasites": 28340, 
  "allas": 46938, 
  "391": 43145, 
  "390": 25359, 
  "Verlauf@@": 69904, 
  "melting": 14335, 
  "wäl@@": 62259, 
  "embro@@": 35923, 
  "Quot@@": 35095, 
  "stabilised": 29295, 
  "schung": 60116, 
  "halbe": 57400, 
  "Ombudsman": 3872, 
  "Haute-@@": 39246, 
  "ädern": 69907, 
  "freeze": 11139, 
  "乗@@": 62260, 
  "erbringt": 60996, 
  "encourage": 1526, 
  "branch": 4642, 
  "adapt": 3623, 
  "ль@@": 13950, 
  "size": 1076, 
  "aktuellen": 46772, 
  "stamping": 20057, 
  "Ip@@": 34869, 
  "anonymously": 28173, 
  "MEDIA": 19418, 
  "IE@@": 21620, 
  "Eto@@": 49313, 
  "Passwor@@": 51717, 
  "strata": 26693, 
  "Schwarz": 38101, 
  "Reut@@": 39879, 
  "sheet": 4265, 
  "estimate": 7059, 
  "mirrored": 23238, 
  "gameplay": 19021, 
  "universally": 13317, 
  "chlorine": 28459, 
  "aktuelles": 69912, 
  "dwind@@": 45121, 
  "auszudrücken": 70120, 
  "Nigel": 41163, 
  "Aufenthaltsraum": 65186, 
  "dortigen": 62261, 
  "Gob@@": 23670, 
  "obersten": 75639, 
  "commented": 11837, 
  "ministries": 15431, 
  "disturbed": 16702, 
  "Ländern": 50256, 
  "competed": 32469, 
  "Lande@@": 62262, 
  "2.4@@": 44655, 
  "Niger": 20462, 
  "chronic": 8326, 
  "mischungen": 70137, 
  "breed": 11166, 
  "bör@@": 69915, 
  "Anwender@@": 60119, 
  "tchen": 51912, 
  "tann@@": 26261, 
  "Traveller": 28119, 
  "-Spe@@": 46482, 
  "uren": 25976, 
  "giftigen": 69916, 
  "lubri@@": 45228, 
  "bl@@": 4567, 
  "žá@@": 41552, 
  "endlich": 47551, 
  "illa@@": 39682, 
  "olds": 16077, 
  "spokes@@": 23529, 
  "renovated": 3171, 
  "service": 219, 
  "Simulationen": 69917, 
  "ocity": 45473, 
  "e-oriented": 24220, 
  "Downloadbereich": 65188, 
  "needed": 618, 
  "comp@@": 5304, 
  "master": 3370, 
  "teen": 30583, 
  "보@@": 67973, 
  "Vertrauens@@": 65191, 
  "genesis": 33195, 
  "Aristo@@": 52415, 
  "Studiengänge": 69918, 
  "PvP": 19610, 
  "rewards": 10047, 
  "Ca": 20933, 
  "telec@@": 41553, 
  "unbestreitbar": 69919, 
  "乾@@": 72121, 
  "verweigern": 58571, 
  "kapitel": 69920, 
  "Agadir": 40407, 
  "hochrangiger": 69084, 
  "Oracle": 11123, 
  "sea-@@": 11604, 
  "magnific@@": 16803, 
  "clean-@@": 29169, 
  "positively": 7528, 
  "ledig@@": 77908, 
  "270": 17526, 
  "ehood": 54982, 
  "ACK@@": 31275, 
  "SPAM": 41554, 
  "Maril@@": 38296, 
  "ferien": 69921, 
  "Catalunya": 12604, 
  "idly": 27211, 
  "thri@@": 13825, 
  "install@@": 16157, 
  "serhö@@": 65194, 
  "idle": 17634, 
  "Città": 36310, 
  "SPAR": 32922, 
  "IB": 17173, 
  "feeling": 2545, 
  "best-@@": 11709, 
  "Schweizerischen": 62265, 
  "müh@@": 49334, 
  "Poggio": 42516, 
  "6819": 30333, 
  "bells": 20035, 
  "276": 36061, 
  "aufträge": 69922, 
  "Chicago": 9710, 
  "redesigned": 19051, 
  "Genfer": 69510, 
  "277": 41742, 
  "6815": 37530, 
  "spectrum": 4553, 
  "Rekord@@": 60122, 
  "Є@@": 69923, 
  "solemn@@": 48219, 
  "Č@@": 15824, 
  "З@@": 45601, 
  "miniatur@@": 37990, 
  "dozen": 10502, 
  "scrap@@": 28224, 
  "affairs": 2541, 
  "Ruf@@": 49754, 
  "wholesome": 28025, 
  "sitio": 26159, 
  "Fontaine": 13996, 
  "Agre@@": 46479, 
  "Jiabao": 40806, 
  "cholester@@": 51603, 
  "Component": 32923, 
  "invali@@": 19019, 
  "Dial@@": 45229, 
  "trust@@": 21733, 
  "y-@@": 2123, 
  "exchan@@": 17875, 
  "jahres@@": 56467, 
  "They": 11667, 
  "ist-@@": 25464, 
  "simp@@": 36575, 
  "begab@@": 69924, 
  "Erlernen": 69925, 
  "Ortschaft": 74621, 
  "shipments": 11327, 
  "DEM@@": 36062, 
  "ful@@": 20058, 
  "committing": 11466, 
  "Seit": 58572, 
  "echnik": 47229, 
  "Hor@@": 7983, 
  "limitless": 28935, 
  "diminishing": 17289, 
  "cinematic": 32470, 
  "eliminates": 15536, 
  "metrics": 26473, 
  "venti@@": 29687, 
  "door-@@": 29962, 
  "mouth": 5395, 
  "forwarded": 9922, 
  "Pandora": 31008, 
  "bedrohte": 60124, 
  "delegate": 17199, 
  "two-@@": 4082, 
  "lahs": 38908, 
  "wind-@@": 34153, 
  "Mahler": 35924, 
  "Hoo@@": 18885, 
  "singer": 8029, 
  "abgeschlossene": 65091, 
  "auseinander@@": 69927, 
  "HER@@": 22618, 
  "Moo@@": 33701, 
  "besagt": 65198, 
  "Kons@@": 62268, 
  "Teilnahme@@": 65199, 
  "tech": 9024, 
  "tilien": 62269, 
  "Avat@@": 50006, 
  "yl@@": 9101, 
  "ɾ": 74400, 
  "non-EU": 13841, 
  "Mor@@": 4078, 
  "schafter": 65200, 
  "saying": 1231, 
  "Züge": 58573, 
  "thiness": 45834, 
  "abel@@": 45602, 
  "ヒ@@": 65201, 
  "Buchar@@": 53295, 
  "Par@@": 4376, 
  "मि@@": 28821, 
  "berühmten": 54983, 
  "Smo@@": 23459, 
  "Markt": 25583, 
  "メ@@": 56468, 
  "antly": 15250, 
  "Cunha": 21551, 
  "Marks": 22749, 
  "A5-00@@": 10963, 
  "tempted": 13330, 
  "cheaply": 19514, 
  "schaften": 57401, 
  "eingestellt": 55834, 
  "Resources": 15310, 
  "CHTING": 40947, 
  "Pomm@@": 45603, 
  "clicked": 21864, 
  "Vla@@": 30642, 
  "excavator": 32783, 
  "レ@@": 54984, 
  "kerns": 69933, 
  "Reisen": 45711, 
  "rics": 23067, 
  "João": 40397, 
  "than": 100, 
  "Creutzfeld@@": 60127, 
  "rico": 39880, 
  "LIVE": 30741, 
  "höchste": 54985, 
  "rick": 20272, 
  "rich": 1333, 
  "Geste": 64986, 
  "वि@@": 12538, 
  "rice": 8053, 
  "Milosev@@": 58574, 
  "Tarifverträge": 69934, 
  "rica": 39080, 
  "nebenan": 62271, 
  "plate": 6201, 
  "Berufsbildung": 58575, 
  "а@@": 10064, 
  "dream@@": 31854, 
  "Pöt@@": 62272, 
  "千@@": 69935, 
  "Vok@@": 50257, 
  "Tricks": 45009, 
  "Rati@@": 45604, 
  "SUPER": 32320, 
  "öffentlichen": 46773, 
  "iate": 33702, 
  "förderte": 77062, 
  "resilient": 26534, 
  "öffentlicher": 60128, 
  "öffentliches": 70283, 
  "altogether": 7143, 
  "-Rei@@": 50788, 
  "bevorzugt": 60535, 
  "XLSTAT": 19695, 
  "platz": 11710, 
  "vill@@": 39135, 
  "PVC-@@": 49342, 
  "gen-@@": 22947, 
  "boarder": 37531, 
  "Riu": 37532, 
  "patch": 7060, 
  "Rio": 6689, 
  "bod@@": 21022, 
  "launch": 2728, 
  "ara-@@": 48932, 
  "電@@": 57403, 
  "gehe": 60827, 
  "Investitions@@": 56470, 
  "kodi@@": 54986, 
  "extrem@@": 28895, 
  "Höhepunkte": 65203, 
  "Roo@@": 30205, 
  "Zuck@@": 60129, 
  "Frustration": 69937, 
  "clarified": 8044, 
  "sensitivity": 6378, 
  "point-@@": 25167, 
  "zahlen": 50258, 
  "Chron@@": 28225, 
  "acienda": 49517, 
  "etic": 11711, 
  "Anderson": 27804, 
  "Jahres@@": 53823, 
  "profoundly": 12678, 
  "osity": 19314, 
  "Gründer": 62273, 
  ".it": 22408, 
  "clarifies": 21803, 
  "iry": 42517, 
  "ALTEN@@": 48823, 
  "lots": 3461, 
  "vereint": 62274, 
  "irr": 54987, 
  "irs": 14584, 
  "Annotator": 30480, 
  "Escrow": 40406, 
  "iri": 41946, 
  "Vollstreckung": 65204, 
  "ousing": 40409, 
  "rumor@@": 41947, 
  "markedly": 18452, 
  "offering": 1256, 
  "retro@@": 9447, 
  "ations": 1516, 
  "ira": 16366, 
  "charger": 19994, 
  "auffallend": 60130, 
  "ire": 6033, 
  "Advanced": 10013, 
  "Buff@@": 26825, 
  "Work@@": 19168, 
  "Ausflug": 58576, 
  "Konditor@@": 49719, 
  "extend": 2255, 
  "nature": 614, 
  "ask": 406, 
  "Robustheit": 60132, 
  "superficial": 17317, 
  "Schauspieler": 57404, 
  "extent": 1334, 
  "butions": 45328, 
  "Shel@@": 19958, 
  "Gewalttaten": 72043, 
  "vorstellungen": 69941, 
  "tyranny": 20518, 
  "firm@@": 30612, 
  "PHARE": 12938, 
  "start-ups": 26417, 
  "zes@@": 37533, 
  "heating": 3132, 
  "fruity": 20741, 
  "Laura": 24896, 
  "welche": 40210, 
  "sublime": 31745, 
  "Neuchâtel": 36461, 
  "Straß@@": 56471, 
  "Forschungen": 55692, 
  "jack": 20716, 
  "eradicate": 11224, 
  "esis": 12866, 
  "Argum@@": 51720, 
  "Apartment": 10742, 
  "ppets": 35925, 
  "bloggers": 29515, 
  "Mp@@": 42989, 
  "seu@@": 60133, 
  "Government": 798, 
  "igkeiten": 56918, 
  "Dokumentations@@": 69942, 
  "esia": 18510, 
  "Lin@@": 6930, 
  "4.2": 15427, 
  "esie": 52417, 
  "DIM@@": 45958, 
  "surname": 24834, 
  "blonde": 37678, 
  "organisational": 9327, 
  "Ō@@": 69943, 
  "fra": 41555, 
  "Mitspieler": 60134, 
  "Vertretungen": 62455, 
  "union": 2070, 
  "Harrachov": 41004, 
  "fri": 60135, 
  "remained": 3599, 
  "kasten": 55693, 
  ".": 5, 
  "Leverkusen": 43541, 
  "much": 172, 
  "unior": 69944, 
  "mamm@@": 43563, 
  "監@@": 65207, 
  "fry": 29170, 
  "tallest": 29811, 
  "trock@@": 60136, 
  "Poseidon": 41164, 
  "Kunststoff@@": 50008, 
  "funds": 676, 
  "Arnaud": 42518, 
  "guil@@": 24724, 
  "Tutsis": 37829, 
  "haft@@": 51721, 
  "tibility": 23393, 
  "TO@@": 8668, 
  "Consensus": 21552, 
  "fahrenden": 69945, 
  "TZ@@": 30481, 
  "paradig@@": 33320, 
  "Auktion@@": 69946, 
  "doubts": 4542, 
  "Durão": 42687, 
  "PhD": 20800, 
  "spin": 15311, 
  "skilfully": 27602, 
  "coo@@": 48393, 
  "Wiersma": 34391, 
  "TDI": 27510, 
  "Auszahlung": 58615, 
  "eido@@": 36283, 
  "all&apos;@@": 23326, 
  "Flach@@": 45010, 
  "MY@@": 29049, 
  "Ÿ@@": 65483, 
  "Law": 3888, 
  "professionally": 10515, 
  "employ": 7357, 
  "Vorreiter": 65208, 
  "reunion": 29610, 
  "k": 1420, 
  "ť@@": 44435, 
  "umsteigen": 65209, 
  "真@@": 69950, 
  "vorschrift": 69951, 
  "Vorjahres@@": 56472, 
  "deste": 51101, 
  "canoeing": 23530, 
  "desto": 52852, 
  "conditioned": 8646, 
  "Hirsch@@": 37123, 
  "Zwischenstopp": 69952, 
  "eighteen": 16519, 
  "Trinken": 65210, 
  "Cala": 9617, 
  "rutschen": 65212, 
  "conditioner": 25668, 
  "Tourism@@": 53825, 
  "空@@": 62279, 
  "komponiert": 53826, 
  "memorial": 13896, 
  "寶@@": 62906, 
  "Verurteilungen": 70378, 
  "zah@@": 36576, 
  "Thailands": 74600, 
  "strengere": 69954, 
  "feind@@": 69955, 
  "devo@@": 37124, 
  "democracies": 6456, 
  "kick-@@": 29648, 
  "inboxx": 42132, 
  "split": 5195, 
  "Zusammenlegung": 69956, 
  "@@": 69957, 
  "lipp@@": 62280, 
  "relinqu@@": 30022, 
  "junge": 48562, 
  "tensive": 48933, 
  "boiled": 22342, 
  "effortlessly": 26898, 
  "inadvertently": 30202, 
  "Patong": 42656, 
  "Erwachsene": 55000, 
  "桶": 70431, 
  "ary-@@": 18971, 
  "Rech@@": 44780, 
  "amer@@": 27412, 
  "M.@@": 14234, 
  "exerted": 15374, 
  "Reyn@@": 34610, 
  "Tak@@": 11608, 
  "Harley": 41878, 
  "cost-effectiveness": 28120, 
  "judgement": 9538, 
  "Hostal": 19782, 
  "EBA": 38298, 
  "koch": 58579, 
  "venant": 54364, 
  "ität@@": 69960, 
  "Modul": 50518, 
  "深@@": 60137, 
  "Wod@@": 54395, 
  "academic": 4983, 
  "verschiedenste": 65214, 
  "academia": 29812, 
  "mittragen": 69961, 
  "Modus": 52419, 
  "inc@@": 4455, 
  "dk@@": 47724, 
  "corporate": 2041, 
  "plaque": 31711, 
  "-Restaurant": 46349, 
  "fallenden": 65215, 
  "Populismus": 70449, 
  "Rapid": 21925, 
  "zurzeit": 52420, 
  "Noval@@": 47552, 
  "roll@@": 10394, 
  "stream@@": 34742, 
  "FL@@": 13148, 
  "treibenden": 65216, 
  "favours": 13151, 
  "deal@@": 26474, 
  "Core-@@": 47666, 
  "mum@@": 36988, 
  "airbag": 24151, 
  "weltberühmten": 69981, 
  "loo@@": 11953, 
  "fonds": 47211, 
  "portrayed": 15048, 
  "dialec@@": 26996, 
  "Happy": 19988, 
  "hah": 34034, 
  "hai": 21355, 
  "polis@@": 35200, 
  "hak": 41948, 
  "hal": 36838, 
  "ham": 7415, 
  "han": 13187, 
  "endum": 56475, 
  "Oscar": 16741, 
  "Sec@@": 9741, 
  "had": 136, 
  "advancement": 13763, 
  "itu@@": 33395, 
  "hay": 23750, 
  "Baghdad": 14040, 
  "beloved": 14141, 
  "jäger": 54043, 
  "Concep@@": 34392, 
  "ด@@": 56477, 
  "har": 21553, 
  "has": 32, 
  "hat": 7452, 
  "Karaoke": 34987, 
  "End-@@": 46774, 
  "Great": 3085, 
  "Smar@@": 37388, 
  "istan": 34743, 
  "municipal": 7741, 
  "inging": 15800, 
  "confidentially": 26259, 
  "elders": 23914, 
  "survival": 5639, 
  "Lampedusa": 17707, 
  "Mich@@": 16367, 
  "Three": 12419, 
  "unequivocally": 14540, 
  "objective": 842, 
  "indicative": 12298, 
  "orig@@": 30188, 
  "shadow": 3877, 
  "commodi@@": 34744, 
  "beherbergt": 62281, 
  "Selbstregulierung": 69962, 
  "Subjek@@": 60138, 
  "semi": 31665, 
  "Dist@@": 34393, 
  "igrants": 50790, 
  "Schleswig-Holstein": 29424, 
  "beneficiaries": 8049, 
  "Comic@@": 57406, 
  "Übersetzen": 58945, 
  "festivities": 15770, 
  "Steven": 24994, 
  "Frames": 46623, 
  "ateg@@": 47725, 
  "reduzieren": 69967, 
  "Pentagon": 35093, 
  "ス@@": 54988, 
  "tsprech@@": 65217, 
  "Swedish": 2660, 
  "beneficial": 4758, 
  "Lagerhaltung": 65218, 
  "Klassifikation": 65219, 
  "crowd": 9754, 
  "mosques": 26587, 
  "spy@@": 44078, 
  "crown": 12085, 
  "begin": 1296, 
  "Kais@@": 40410, 
  "lebigkeit": 65220, 
  "captive": 24301, 
  "glav@@": 39716, 
  "Mari@@": 8387, 
  "flug": 50438, 
  "Wies@@": 29813, 
  "Between": 36701, 
  "angu@@": 35319, 
  "Plit@@": 37991, 
  "zeugt": 62284, 
  "Antal@@": 48233, 
  "Erweiter@@": 67243, 
  "nachlässi@@": 69971, 
  "bottom": 3175, 
  "Constitution": 2148, 
  "Garde": 50259, 
  "inhuman": 17527, 
  "Garda": 8328, 
  "zeuge": 62285, 
  "stands@@": 57472, 
  "Facebook": 11183, 
  "Ray": 20363, 
  "а": 12002, 
  "Gold@@": 14178, 
  "gorge": 21057, 
  "opponents": 6077, 
  "induc@@": 15137, 
  "Watts": 23262, 
  "sing@@": 16928, 
  "Erfüllungsgehilfen": 60281, 
  "derivatives": 9584, 
  "Johan@@": 42151, 
  "barcode": 13784, 
  "binden": 58581, 
  "Calle": 17978, 
  "binder": 22055, 
  "Aktualisierungen": 69972, 
  "starring": 18174, 
  "endor@@": 24552, 
  "bamboo": 26794, 
  "adet": 54366, 
  "Font": 31428, 
  "acom": 41165, 
  "benches": 18593, 
  "ader": 14794, 
  "ades": 7786, 
  "chemisch": 62287, 
  "Zulassungs@@": 62288, 
  "cular": 16049, 
  "clat@@": 51250, 
  "President-in-Office": 1403, 
  "aded": 9759, 
  "entier@@": 56478, 
  "Piero": 34576, 
  "eboard": 24593, 
  "adel": 41005, 
  "aden": 30095, 
  "frische": 57407, 
  "teles@@": 46480, 
  "Etik@@": 65221, 
  "Hauptverantwortung": 69975, 
  "live-@@": 29814, 
  "net@@": 9770, 
  "pandem@@": 35664, 
  "honeymoon": 32629, 
  "lieber": 60142, 
  "administer": 13704, 
  "beings": 3536, 
  "Klasse": 48765, 
  "33-@@": 36989, 
  "anisch": 69977, 
  "undertakings": 5425, 
  "anbieter": 55549, 
  "onies": 25272, 
  "shoots": 20150, 
  "Dai@@": 35201, 
  "Cec@@": 32595, 
  "anbietet": 69980, 
  "publics": 34810, 
  "dick@@": 52041, 
  "addington": 53827, 
  "mbH": 25273, 
  "fabric": 6577, 
  "coordinators": 16570, 
  "altitude": 7034, 
  "diocese": 32008, 
  "valu@@": 38128, 
  "Tec@@": 20366, 
  "raped": 22136, 
  "Christen@@": 40593, 
  "Heidel@@": 47389, 
  "symphony": 28758, 
  "Ende": 43422, 
  "greatness": 28822, 
  "Device": 19906, 
  "gemu@@": 65223, 
  "ve@@": 6105, 
  "perfumes": 29963, 
  "langjährige": 61092, 
  "normaler": 62290, 
  "normales": 65224, 
  "Franciacorta": 43000, 
  "Spie@@": 47230, 
  "malicious": 12535, 
  "währung": 66678, 
  "Warn@@": 47726, 
  "verde": 37244, 
  "normalen": 57408, 
  "Pich@@": 33196, 
  "生@@": 60143, 
  "safeguard": 3529, 
  "envis@@": 29296, 
  "Gerichtsverfahren": 74801, 
  "other@@": 27690, 
  "congratulations": 5059, 
  "年@@": 64944, 
  "amerikanischen": 57409, 
  "echo@@": 28341, 
  "azo": 37245, 
  "arrays": 23915, 
  "aza": 26382, 
  "anco": 30980, 
  "non-discrimination": 10906, 
  "County": 10841, 
  "break-up": 30097, 
  "azz": 52042, 
  "open-air": 10825, 
  "unanimous": 6041, 
  "Haus@@": 22995, 
  "amerikanischer": 69984, 
  "amerikanisches": 69985, 
  "Honig": 58583, 
  "Diabetes": 47231, 
  "dues": 29171, 
  "britischer": 72684, 
  "Vorsitzende": 69986, 
  "passenger": 2990, 
  "auswahl": 61133, 
  "disgrace": 14686, 
  "own@@": 26694, 
  "Terror@@": 51722, 
  "minibar": 8321, 
  "桜@@": 69987, 
  "tis@@": 17386, 
  "Tales": 37992, 
  "Cap@@": 6662, 
  "minal": 43275, 
  "ance": 3216, 
  "Tool@@": 29050, 
  "females": 21123, 
  "Badewanne": 69988, 
  "tooth": 13026, 
  "ECOFIN": 16520, 
  "fließt": 65226, 
  "standardized": 11077, 
  "rols": 35432, 
  "taurants": 54368, 
  "eventual": 11394, 
  "Her@@": 4740, 
  "quick@@": 19568, 
  "Schü": 65227, 
  "Pul@@": 17091, 
  "ritte": 51406, 
  "Some@@": 30836, 
  "LateRooms.com": 9042, 
  "PDF-Format": 63573, 
  "role": 346, 
  "stürzen": 70629, 
  "VEN@@": 34394, 
  "Aufnahme@@": 69990, 
  "roll": 5822, 
  "precau@@": 58054, 
  "Swiss@@": 19166, 
  "ă@@": 14896, 
  "E": 2055, 
  "slaves": 14605, 
  "palms": 22890, 
  "SIT@@": 33653, 
  "whenever": 3673, 
  "transported": 6816, 
  "Melbourne": 20916, 
  "ham@@": 8569, 
  "intent": 7130, 
  "OV@@": 40051, 
  "variable": 4919, 
  "transporter": 21554, 
  "Gardens": 10393, 
  "explosions": 28342, 
  "ßen": 47232, 
  "Kraus@@": 43001, 
  "PostgreSQL": 21926, 
  "mandates": 15696, 
  "Nationen": 54608, 
  "orgt": 61596, 
  "Sudanese": 13623, 
  "kämpf@@": 65616, 
  "overturned": 29297, 
  "urgie": 54369, 
  "decision": 472, 
  "green@@": 19020, 
  "bestätigte": 69995, 
  "promoted": 4670, 
  "chain": 2712, 
  "whoever": 10423, 
  "3st": 39568, 
  "oss": 49053, 
  "entrepreneur@@": 47727, 
  "ost": 38300, 
  "谢@@": 69998, 
  "osi": 36457, 
  "osk": 53828, 
  "digungen": 60147, 
  "oso": 21069, 
  "abgaben": 65230, 
  "osa": 15574, 
  "chair": 4503, 
  "ose": 17068, 
  "Kra@@": 13331, 
  "Krebs@@": 52422, 
  "hän@@": 54407, 
  "macht": 43146, 
  "voc@@": 18265, 
  "fro@@": 9838, 
  "D&apos;@@": 10482, 
  "baller": 44544, 
  "Tourist": 10439, 
  "Lá@@": 33081, 
  "schöner": 54993, 
  "schönes": 48055, 
  "freelance": 16636, 
  "crates": 34395, 
  "crater": 17635, 
  "mache": 53297, 
  "schönen": 48221, 
  "Understanding": 26170, 
  "schönem": 65231, 
  "summon@@": 42152, 
  "enchanting": 8252, 
  "circumstances": 1489, 
  "Tourism": 4286, 
  "Vorjahres": 70000, 
  "Hammer@@": 38447, 
  "downloading": 5485, 
  "sprachlicher": 70001, 
  "Karo@@": 45329, 
  "Political": 12774, 
  "engagierte": 58584, 
  "Pre-@@": 22343, 
  "choice": 892, 
  "mobilise": 10801, 
  "gloomy": 27921, 
  "rationality": 23327, 
  "stays": 5404, 
  "mim@@": 19745, 
  "exact": 4112, 
  "minute": 2169, 
  "Tat": 55696, 
  "Tau": 43423, 
  "cooks": 31712, 
  "Tap": 41006, 
  "Jakob": 25745, 
  "gewachsene": 65232, 
  "undene": 70004, 
  "Mitte": 17528, 
  "Tax": 13469, 
  "Blätter": 58585, 
  "PA@@": 12351, 
  "Tag": 23676, 
  "Habit@@": 34282, 
  "defaults": 18594, 
  "Tal": 39881, 
  "Verbund": 44775, 
  "Tan": 41166, 
  "Tao": 39248, 
  "Tai": 40411, 
  "hilfs@@": 59432, 
  "付@@": 70005, 
  "308": 22524, 
  "Silvio": 30627, 
  "meadow": 25877, 
  "309": 41474, 
  "trails": 5862, 
  "Silvia": 37830, 
  "M.": 10161, 
  "omo@@": 43168, 
  "mauern": 70007, 
  "Ap@@": 8337, 
  "M5": 40212, 
  "M4": 38301, 
  "M6": 41950, 
  "M1": 28460, 
  "shirts": 13804, 
  "M3": 24221, 
  "M2": 32161, 
  "hegemonic": 26154, 
  "cherer": 42688, 
  "grösseren": 76166, 
  "googletag.display": 18624, 
  "headset": 31855, 
  "C-@@": 6969, 
  "Mario": 11889, 
  "Chefs": 43565, 
  "celebrated": 5893, 
  "Inhalten": 50942, 
  "CMYK": 40594, 
  "lands@@": 47233, 
  "Magna": 24725, 
  "UNESCO-@@": 45474, 
  "Americ@@": 13175, 
  "fizierten": 70732, 
  "boost": 4053, 
  "Lopez": 37993, 
  "Fraktion": 60150, 
  "chairing": 25443, 
  "Me": 13542, 
  "drafted": 5558, 
  "parlament@@": 58587, 
  "Ma": 31222, 
  "Konzep@@": 60151, 
  "Mb": 32631, 
  "climbs": 26997, 
  "honour": 3955, 
  "Mo": 33703, 
  "Lebensart": 65234, 
  "topicality": 24393, 
  "man@@": 3397, 
  "aku@@": 37389, 
  "Mt": 16804, 
  "Liter": 52926, 
  "vorsätzliches": 55771, 
  "Ms": 5607, 
  "Mr": 59, 
  "Datei": 50260, 
  "zylinder": 70010, 
  "dwindling": 28583, 
  "My": 5906, 
  "Recre@@": 35433, 
  "Daten": 30098, 
  "ME": 8698, 
  "MD": 23989, 
  "Lang@@": 19654, 
  "MF": 35772, 
  "MA": 7907, 
  "abends": 56480, 
  "MC": 15987, 
  "MB": 5788, 
  "MM": 38766, 
  "ML": 16186, 
  "MO": 28584, 
  "partments": 27243, 
  "MI": 28026, 
  "Hvar": 27092, 
  "queue": 15939, 
  "MT": 14761, 
  "accomplished": 7711, 
  "MV": 33450, 
  "throughput": 20001, 
  "MP": 13164, 
  "MS": 5464, 
  "MR": 34871, 
  "perpetu@@": 18741, 
  "HV@@": 30482, 
  "MY": 29681, 
  "MX": 36702, 
  "influx": 13579, 
  "info@@": 20519, 
  "Lankan": 28704, 
  "umps": 23394, 
  "liance": 27306, 
  "Stadt@@": 26313, 
  "Jum@@": 35665, 
  "Giulia": 35204, 
  "fortführen": 70012, 
  "Biog@@": 56481, 
  "umpf": 49519, 
  "ASEAN-@@": 52044, 
  "bestimmt": 50261, 
  "self-sufficient": 25361, 
  "Wes@@": 20106, 
  "Méndez": 19414, 
  "Kyo@@": 49134, 
  "Verpackungen": 54907, 
  "Root@@": 44087, 
  "made-@@": 29298, 
  "Nei@@": 31009, 
  "undergone": 11830, 
  "cocktail": 8372, 
  "mak@@": 35530, 
  "August": 1865, 
  "working": 304, 
  "aine": 22465, 
  "Allgäu": 43619, 
  "Person@@": 31846, 
  "Ermittlungen": 65236, 
  "Verordnungen": 65237, 
  "vigour": 22479, 
  "opposed": 2573, 
  "plo@@": 27511, 
  "Lo": 29548, 
  "ad@@": 2088, 
  "Millim@@": 65238, 
  "ree": 31921, 
  "Those": 28344, 
  "Iris": 37679, 
  "unvermei@@": 77268, 
  "Klaus": 10352, 
  "opädie": 61118, 
  "liere": 48409, 
  "nas@@": 15335, 
  "nad@@": 27805, 
  "Paolo": 18830, 
  "wünsch@@": 65239, 
  "milli@@": 24897, 
  "assimilation": 23916, 
  "approving": 9783, 
  "Zentrum": 17812, 
  "Management-@@": 49520, 
  "consoles": 24898, 
  "Liegen@@": 65240, 
  "ى@@": 70015, 
  "impending": 20546, 
  "Nord-Süd-@@": 70016, 
  "riders": 10003, 
  "Noti@@": 39423, 
  "oniert": 70017, 
  "ammon": 51325, 
  "Träger@@": 58588, 
  "portugiesische": 70018, 
  "Tandberg": 40849, 
  "Pays": 39424, 
  "originally": 3221, 
  "constraint": 20897, 
  "abortion": 8551, 
  "Czechoslov@@": 39078, 
  "harmonious": 9162, 
  "agra@@": 34035, 
  "Walking": 22265, 
  "following": 363, 
  "caution": 8395, 
  "decommission@@": 36194, 
  "dulden": 73889, 
  "pinta": 40807, 
  "admired": 16335, 
  "Einteilung": 70019, 
  "sover@@": 52835, 
  "mirrors": 10353, 
  "fliegt": 62537, 
  "Maquis": 31549, 
  "Punk@@": 42519, 
  "soup": 14585, 
  "reitungen": 70021, 
  "locks": 12033, 
  "Symphony": 16610, 
  "lockt": 62299, 
  "counseling": 30943, 
  "XS": 42613, 
  "EURAT@@": 46526, 
  "listens": 29299, 
  "litre": 16109, 
  "dosis": 49336, 
  "septic": 30099, 
  "Emanzipation": 67665, 
  "camion": 25462, 
  "Notfall": 70025, 
  "Marathon@@": 54370, 
  "Neugier": 70026, 
  "assung": 62300, 
  "thanking": 4800, 
  "锋@@": 70027, 
  "Skinner": 33704, 
  "einbezogen": 70028, 
  "Bord": 51962, 
  "LAN-@@": 50519, 
  "Pinsel": 62301, 
  "Dör@@": 46202, 
  "atal": 28585, 
  "STA": 42520, 
  "scales": 14747, 
  "STM": 42153, 
  "sour": 26695, 
  "Zucker": 49337, 
  "fueled": 17979, 
  "pünktlich": 60152, 
  "schweb@@": 58590, 
  "hilfreich": 56482, 
  "Wiesen": 52423, 
  "ziness": 27513, 
  "atar": 36839, 
  "atas": 30214, 
  "Corporate": 7307, 
  "Korps": 70030, 
  "temperate": 30100, 
  "kürzere": 67513, 
  "transportieren": 70031, 
  "surfing": 8256, 
  "kandi@@": 58008, 
  "Cas@@": 5531, 
  "conscious": 6733, 
  "x-@@": 11248, 
  "acional": 38921, 
  "tiques": 36458, 
  "LN": 46776, 
  "mango": 13436, 
  "Moll": 45954, 
  "wolves": 29682, 
  "pulled": 12299, 
  "essors": 39882, 
  "LM": 41549, 
  "orch@@": 19819, 
  "webpage": 15282, 
  "LIN": 23838, 
  "™": 2730, 
  "years": 122, 
  "SM@@": 7949, 
  "structuring": 17253, 
  "episodes": 10415, 
  "Trustees": 24068, 
  "希@@": 70032, 
  "Til@@": 18721, 
  "food-@@": 22274, 
  "Symbol@@": 52704, 
  "्य@@": 11351, 
  "nic@@": 14504, 
  "Posselt": 11082, 
  "conflu@@": 31396, 
  "disconnect": 29964, 
  "jic": 42689, 
  "Parade@@": 52777, 
  "jin": 34283, 
  "östlichen": 65247, 
  "delayed": 6212, 
  "Assist": 39425, 
  "troubles": 16766, 
  "vertritt": 62671, 
  "widri@@": 62306, 
  "Gitarristen": 65248, 
  "envisage": 11560, 
  "Assisi": 25578, 
  "illas": 31276, 
  "suspension": 6234, 
  "Pad": 23839, 
  "troubled": 13543, 
  "vorausgesetzt": 58592, 
  "Kunden@@": 51066, 
  "Opernhaus": 58401, 
  "recipients": 10288, 
  "civilian": 4901, 
  "Iraqis": 16521, 
  "殊@@": 70034, 
  "Deutsche": 4083, 
  "schilder": 70035, 
  "indigenous": 6150, 
  "sorten": 75111, 
  "drilling": 13558, 
  "sorted": 10759, 
  "Г": 58593, 
  "\\": 10071, 
  "Villa": 3052, 
  "常@@": 54994, 
  "FF": 15699, 
  "5.000": 22916, 
  "plung": 65249, 
  "Nok@@": 48712, 
  "jected": 38767, 
  "Erkennen": 70239, 
  "Yellow": 25981, 
  "Kleider": 62308, 
  "Lesotho": 41743, 
  "Grundi@@": 78438, 
  "fisherman": 22996, 
  "dignified": 15298, 
  "instability": 6434, 
  "quarter": 3307, 
  "Bell@@": 11749, 
  "ती": 25982, 
  "taucht": 59407, 
  "Felix": 19154, 
  "retrieve": 12403, 
  "ते": 23586, 
  "Kühl@@": 62630, 
  "receipt": 5829, 
  "u.v.@@": 56484, 
  "frames": 7875, 
  "Live": 7125, 
  "abstraction": 27966, 
  "gefühl": 62309, 
  "sponsor": 10790, 
  "entering": 3782, 
  "wegen": 43834, 
  "salads": 16164, 
  "disasters": 3575, 
  "Deborah": 39569, 
  "fil@@": 8461, 
  "weiße": 58595, 
  "gehörenden": 78189, 
  "Michigan": 25074, 
  "internen": 53298, 
  "mpfen": 70039, 
  "internes": 65251, 
  "seriously": 1806, 
  "Rundfunk": 44315, 
  "trauma": 15312, 
  "Gom@@": 25727, 
  "128@@": 41356, 
  "internet": 1046, 
  "Transfers": 48056, 
  "12-@@": 9938, 
  "Studio@@": 49032, 
  "realisation": 8964, 
  "Kapitel": 53759, 
  "Sy@@": 8562, 
  "counter@@": 6918, 
  "intoler@@": 30883, 
  "hairdresser": 27922, 
  "Gis@@": 33893, 
  "eon": 22196, 
  "incentives": 4243, 
  "Recital": 24726, 
  "maschinen": 48755, 
  "З": 61722, 
  "complicated": 3490, 
  "krank@@": 56150, 
  "Travelodge": 41168, 
  "forma@@": 40413, 
  "ET-@@": 44896, 
  "byte": 18301, 
  "añ@@": 20567, 
  "Ohr@@": 55698, 
  "beabsichtigte": 65253, 
  "concentr@@": 49755, 
  "workmanship": 26375, 
  "Lernens": 72270, 
  "SEC@@": 27806, 
  "Hi-@@": 36840, 
  "modest": 6097, 
  "initiate": 7311, 
  "Kepler": 38768, 
  "weisungen": 62312, 
  "aboard": 7260, 
  "Street": 3293, 
  "rectangular": 20128, 
  "neglect": 10721, 
  "einsetzt": 62313, 
  "秦@@": 65254, 
  "emotion": 12055, 
  "info": 4434, 
  "Lieb@@": 30742, 
  "oni": 6780, 
  "saving": 3244, 
  "ono": 21866, 
  "Wanderer": 50263, 
  "irradiation": 32825, 
  "spoken": 3075, 
  "OS-@@": 38922, 
  "ona": 5444, 
  "ong": 6573, 
  "ond": 15540, 
  "one": 53, 
  "eingebrachten": 65255, 
  "Calderón": 35205, 
  "ony": 8860, 
  "ormen": 62314, 
  "punishable": 21023, 
  "periodical": 29300, 
  "rag@@": 26155, 
  "Tiefe": 60154, 
  "ons": 2322, 
  "family-@@": 21479, 
  "ລ@@": 73204, 
  "ont": 13806, 
  "Confederal": 13348, 
  "schließe": 70949, 
  "Monday": 3699, 
  "Mal@@": 4656, 
  "likeli@@": 53299, 
  "奶@@": 67394, 
  "stocks": 3557, 
  "Hisbollah": 65256, 
  "And": 2066, 
  "schließt": 65792, 
  "types": 1223, 
  "übernehme": 69421, 
  "steam@@": 26998, 
  "Bombe": 65794, 
  "Meile": 70043, 
  "automatisch": 50521, 
  "Vögeln": 65258, 
  "Frontex": 9487, 
  "bid": 6540, 
  "té": 31962, 
  "günstige": 54371, 
  "shutt@@": 18511, 
  "ob@@": 3483, 
  "erisches": 55699, 
  "erischer": 44776, 
  "estens": 65260, 
  "herds": 17290, 
  "inden": 53829, 
  "specialists": 3932, 
  "Benzin@@": 65261, 
  "Aufbau@@": 58776, 
  "History": 7321, 
  "begrüßen": 57414, 
  "Mittel@@": 35206, 
  "finanzierungs@@": 70983, 
  "人@@": 57222, 
  "inflic@@": 33451, 
  "Math@@": 36577, 
  "non-stop": 24302, 
  "crossroads": 14374, 
  "Leich@@": 54995, 
  "Easy-Forex": 34157, 
  "Forschungsergebnisse": 62665, 
  "Hubert": 31429, 
  "ball@@": 9246, 
  "pho@@": 20324, 
  "substan@@": 45330, 
  "wandering": 24394, 
  "proactive": 9297, 
  "द@@": 9059, 
  "verrät": 72039, 
  "illness": 7190, 
  "Disziplinen": 65263, 
  "musik@@": 46203, 
  "Tournee": 70046, 
  "sumptuous": 17636, 
  "emed": 47554, 
  "combin@@": 29301, 
  "turned": 2477, 
  "Seminaren": 58995, 
  "Vir@@": 15853, 
  "1GB": 36975, 
  "methane": 23745, 
  "Field": 17098, 
  "Vig@@": 19222, 
  "smart@@": 22211, 
  "Kul@@": 27807, 
  "uninterrupted": 19167, 
  "borough": 15988, 
  "tourismus@@": 40213, 
  "utable": 33563, 
  "emer": 31721, 
  "cm@@": 38358, 
  "hochwertiger": 65265, 
  "-and-@@": 11537, 
  "antworten": 62316, 
  "Halt": 58597, 
  "fashionable": 8899, 
  "warriors": 22275, 
  "ض@@": 47729, 
  "brück@@": 49135, 
  "zom": 60157, 
  "zon": 27691, 
  "zoo": 14332, 
  "Mangel@@": 53300, 
  "parameters": 3578, 
  "Zahlen@@": 76298, 
  "orally": 28070, 
  "Half": 31581, 
  "antwortet": 66985, 
  "Hall": 4197, 
  "hochwertigem": 65486, 
  "Wohnhaus": 62318, 
  "imperatives": 29302, 
  "printer": 6610, 
  "easy@@": 24070, 
  "opposite": 2473, 
  "buffer": 8224, 
  "discerning": 17387, 
  "Nachfolger": 62319, 
  "harmonic": 21082, 
  "Bari": 29771, 
  "buffet": 2533, 
  "immigration": 1649, 
  "aper@@": 40808, 
  "transp@@": 15002, 
  "EP@@": 8916, 
  "Meilenstein": 70048, 
  "printed": 3774, 
  "ghe": 33318, 
  "knowingly": 30335, 
  "US-Dollar": 50223, 
  "abre@@": 58598, 
  "Kuppel": 65267, 
  "aut@@": 15313, 
  "phic": 16078, 
  "phia": 50791, 
  "boys": 7880, 
  "phin": 43945, 
  "bew@@": 50011, 
  "TEC@@": 26588, 
  "Granit": 55700, 
  "Chef": 18708, 
  "auk@@": 53353, 
  "Lande": 55368, 
  "Chen": 22548, 
  "redirected": 23137, 
  "fizierte": 62323, 
  "Geh@@": 48564, 
  "event": 657, 
  "Artef@@": 60408, 
  "oppos@@": 37831, 
  "Heiligen": 63336, 
  "stark@@": 41358, 
  "月": 67487, 
  "Boli@@": 26070, 
  "Sky": 9742, 
  "friction": 14283, 
  "whol@@": 22041, 
  "Ethiopia": 9914, 
  "✿": 62324, 
  "inconsistent": 12638, 
  "Führung": 54372, 
  "aggressive": 6669, 
  "Ski": 9388, 
  "Ὑ@@": 70051, 
  "Bukarest": 58599, 
  "øn@@": 38302, 
  "betrachten": 57416, 
  "♥": 52836, 
  "ensembles": 24152, 
  "reconciling": 16679, 
  "zahl": 60161, 
  "alizations": 23531, 
  "Spanisch@@": 65269, 
  "EX-@@": 36475, 
  "阳@@": 70053, 
  "Bianca": 35320, 
  "Leadership": 29426, 
  "presse": 50012, 
  "eye-@@": 17395, 
  "ل@@": 21196, 
  "Sach@@": 34036, 
  "betrachtet": 58600, 
  "spezialisierte": 71998, 
  "anding": 23526, 
  "steered": 29281, 
  "Antoni@@": 33935, 
  "Bianco": 41981, 
  "free-trade": 15537, 
  "Bah@@": 24303, 
  "beschränken": 66677, 
  "guarded": 17529, 
  "monds": 53301, 
  "Assets": 42154, 
  "Gruy@@": 44321, 
  "altru@@": 32632, 
  "Szenario": 58601, 
  "balconies": 9693, 
  "stas@@": 54996, 
  "simplistic": 18512, 
  "antrieb": 70306, 
  "Barn@@": 34745, 
  "dasselbe": 62325, 
  "ordnungsgemäßen": 62326, 
  "awaiting": 8178, 
  "Forum@@": 45578, 
  "justified": 3418, 
  "akter@@": 70055, 
  "Ostrava": 36841, 
  "oprojek@@": 57548, 
  "addresses": 3212, 
  "keenly": 28345, 
  "-Karte": 65272, 
  "rondis@@": 51102, 
  "endeten": 65273, 
  "т@@": 10399, 
  "Facilities": 3881, 
  "Magento": 42327, 
  "architekt@@": 70057, 
  "relaunching": 31904, 
  "spannenden": 66834, 
  "tika": 34982, 
  "katalog": 54997, 
  "YER": 33322, 
  "intrin@@": 65773, 
  "Shutt@@": 55539, 
  "vision": 2166, 
  "laufenden": 54374, 
  "Pfandbrief@@": 56485, 
  "unzureichend": 65274, 
  "exchange-@@": 42328, 
  "Rings": 38130, 
  "höher": 55962, 
  "empfindlicher": 70058, 
  "John@@": 47234, 
  "empfindlichen": 65869, 
  "DESIGN": 37126, 
  "sil@@": 8396, 
  "approxim@@": 28461, 
  "impressions": 10129, 
  "Keram@@": 52903, 
  "Kosten@@": 47730, 
  "Stadtentwicklung": 62327, 
  "Worldwide": 22276, 
  "hl@@": 34746, 
  "830": 42329, 
  "Johnson": 16863, 
  "Slobo@@": 55701, 
  "Bruch@@": 62328, 
  "alarming": 7883, 
  "gerau@@": 57417, 
  "Designated": 19607, 
  "stipul@@": 62329, 
  "Shi@@": 8100, 
  "vaccines": 11892, 
  "Cli@@": 13031, 
  "Jonas": 32011, 
  "Resonanz": 62330, 
  "refreshed": 31138, 
  "ki-@@": 45346, 
  "enjoys": 4490, 
  "Mitsubishi": 32162, 
  "agieren": 73969, 
  "Onlineshop": 48565, 
  "Stütze": 60162, 
  "Geschäftsverkehr": 70060, 
  "Impfung": 70061, 
  "cocktails": 9243, 
  "flut@@": 46940, 
  "Harbor": 24727, 
  "Fl@@": 8636, 
  "Sense": 36107, 
  "VGA": 33822, 
  "Inhalts@@": 70062, 
  "Solven@@": 41052, 
  "Anspruch": 46427, 
  "erstein": 43277, 
  "awards": 6355, 
  "Járóka": 42155, 
  "uc@@": 17423, 
  "札": 69867, 
  "Charakteristika": 65882, 
  "cost@@": 22866, 
  "194@@": 27808, 
  "concentrated": 5757, 
  "räger": 47098, 
  "small@@": 24153, 
  "fes@@": 14726, 
  "alistischen": 60163, 
  "eboarding": 34611, 
  "alitäten": 65276, 
  "cle-@@": 41557, 
  "Seer@@": 52425, 
  "Stability": 3646, 
  "Re-@@": 37412, 
  "s": 204, 
  "fel@@": 12276, 
  "workplace": 6734, 
  "concentrates": 12826, 
  "Plooij-van": 36311, 
  "alistischer": 70064, 
  "inventive": 29518, 
  "UN@@": 5041, 
  "Terasse": 62331, 
  "allowance": 10251, 
  "succum@@": 25137, 
  "mein@@": 56422, 
  "Patienten": 54999, 
  "baden": 56486, 
  "idyll@@": 58604, 
  "Führungen": 60146, 
  "improvis@@": 25075, 
  "guitar@@": 35321, 
  "sivity": 22823, 
  "Smiths": 37535, 
  "grundlage": 62332, 
  "article": 2084, 
  "Pepper": 28720, 
  "puri@@": 20107, 
  "west": 3344, 
  "bitions": 46626, 
  "weltgrößten": 70067, 
  "Pv@@": 44777, 
  "klausel": 62713, 
  "akkredi@@": 60164, 
  "vertrau@@": 65279, 
  "Wirtschaftswachstum": 70068, 
  "practised": 12654, 
  "名@@": 70069, 
  "motives": 11060, 
  "präsenz": 62714, 
  "Waddington": 36842, 
  "Balz@@": 38769, 
  "wants": 1627, 
  "formen": 51723, 
  "relations": 725, 
  "ey-@@": 44270, 
  "Dolderer": 37246, 
  "formed": 2976, 
  "readings": 14505, 
  "photos": 2366, 
  "geothermal": 27410, 
  "tightened": 17890, 
  "Eiern": 65280, 
  "offshore": 11217, 
  "gged": 21555, 
  "फ@@": 20186, 
  "Arri@@": 37696, 
  "former": 1047, 
  "Briefen": 65281, 
  "memor@@": 21556, 
  "buses": 4465, 
  "Krau@@": 45331, 
  "Cesenatico": 24995, 
  "Erzeugung": 65283, 
  "bootable": 28587, 
  "до@@": 22006, 
  "Prep@@": 42211, 
  "Philipp@@": 29816, 
  "ja@@": 12489, 
  "Commander": 11237, 
  "biomedi@@": 34747, 
  "Hamm@@": 43525, 
  "Sizi": 70072, 
  "SOL@@": 20255, 
  "fil": 46481, 
  "Anforderung": 70073, 
  "ausgebauten": 70784, 
  "newspaper": 5084, 
  "situation": 229, 
  "Komm@@": 39426, 
  "Size": 29428, 
  "penthouse": 29965, 
  "ková": 38131, 
  "Prei": 65284, 
  "all-round": 17891, 
  "self-interest": 20126, 
  "aufrufen": 60166, 
  "parti@@": 15003, 
  "engaged": 3909, 
  "Nagoya": 36312, 
  "Elevator": 5356, 
  "Lenkra@@": 65286, 
  "Prey": 49757, 
  "engages": 25983, 
  "technology": 468, 
  "Admiral": 17710, 
  "Profile": 19605, 
  "Sot@@": 34983, 
  "verified": 10143, 
  "Tra@@": 5964, 
  "Deinem": 70074, 
  "Swar@@": 46205, 
  "Deinen": 60167, 
  "otti": 18513, 
  "Mitro@@": 42999, 
  "Deines": 62335, 
  "Deiner": 62336, 
  "lead@@": 24899, 
  "gre@@": 7051, 
  "otto": 16867, 
  "elem@@": 31011, 
  "heal@@": 29051, 
  "Van@@": 12735, 
  "Mächte": 65287, 
  "otte": 25669, 
  "Drei-@@": 69902, 
  "visually": 14205, 
  "wires": 16522, 
  "edged": 27213, 
  "assigns": 23138, 
  "sickness": 19784, 
  "eling": 12815, 
  "eline": 15829, 
  "IRT": 42690, 
  "Mas": 32007, 
  "-Reform": 66485, 
  "XVI": 21993, 
  "edges": 8874, 
  "wired": 11695, 
  "Sklaven": 71236, 
  "Clean": 21301, 
  "XVN": 38606, 
  "Neuseeland": 55706, 
  "IRA": 16929, 
  "IRC": 12165, 
  "IRE": 23139, 
  "Islantilla": 41359, 
  "calculates": 23081, 
  "tracking": 6754, 
  "wane": 41167, 
  "berichtet": 48057, 
  "hammo@@": 25980, 
  "60,000": 24154, 
  "ingung": 59891, 
  "dargelegten": 70075, 
  "NUTS": 26260, 
  "domin@@": 12385, 
  "elieg@@": 70076, 
  "peculiarities": 23601, 
  "AOM@@": 47900, 
  "Wachau": 40414, 
  "Frühstück": 37247, 
  "Juk@@": 50522, 
  "NR@@": 38132, 
  "dimension": 2354, 
  "persistently": 26475, 
  "berichten": 53359, 
  "BOX": 36195, 
  "PAN@@": 33823, 
  "Stay@@": 33706, 
  "spekul@@": 62337, 
  "Spi@@": 18431, 
  "being": 135, 
  "cohesive": 14197, 
  "Diesel": 29817, 
  "COS": 14982, 
  "Conservative": 10373, 
  "Fat@@": 22277, 
  "recycled": 12972, 
  "Dieser": 60168, 
  "Dieses": 55110, 
  "Berichtsjahr": 70077, 
  "linguistic": 5861, 
  "man-made": 17871, 
  "Soft@@": 30484, 
  "Fay@@": 28936, 
  "generator": 10695, 
  "übereinstimmend": 72879, 
  "Maler": 55707, 
  "characterization": 32056, 
  "dicke": 56487, 
  "schrauben": 60169, 
  "AGE": 20463, 
  "priori": 27769, 
  "leder@@": 50264, 
  "Phnom": 38526, 
  ".The": 8546, 
  "Guantanamo": 20520, 
  "лен@@": 44778, 
  "besetzt": 55708, 
  "ILL": 34718, 
  "Zyklus@@": 60170, 
  "Proxy": 35094, 
  "Holocau@@": 51486, 
  "加@@": 65292, 
  "ellem": 60171, 
  "Böhm": 35037, 
  "-Link": 46338, 
  "Haushaltsausschuss": 73257, 
  "sums": 6644, 
  "gestures": 16680, 
  "ου": 46077, 
  "Token": 45230, 
  "ehem@@": 52651, 
  "traffic": 1512, 
  "preference": 6764, 
  "secon@@": 20917, 
  "world": 133, 
  "postal": 4756, 
  "kont@@": 62339, 
  "klingen": 55002, 
  "sensational": 19696, 
  "色": 70082, 
  "Nacht": 43004, 
  "en@@": 1061, 
  "Sergio": 33452, 
  "Valent@@": 35667, 
  "ahem@@": 52838, 
  "shutter": 19374, 
  "atz@@": 38303, 
  "Konstru@@": 73835, 
  "superiority": 20626, 
  "maßes": 71306, 
  "Kulturzentrum": 56488, 
  "B6-0@@": 22997, 
  "Fujim@@": 56393, 
  "obstruct": 23328, 
  "satisfactory": 4267, 
  "Chil@@": 19375, 
  "arbeits@@": 52047, 
  "grub": 36196, 
  "NAFTA": 27307, 
  "deira": 40596, 
  "30": 538, 
  "AR-@@": 45835, 
  "cated": 40072, 
  "udev": 40052, 
  "Murten": 38923, 
  "Engel": 38304, 
  "Murter": 31430, 
  "Großstadt": 65294, 
  "-Sal@@": 35774, 
  "bene@@": 46778, 
  "moreover": 1063, 
  "complementarity": 18833, 
  "diving": 4725, 
  "志@@": 62340, 
  "turn@@": 10964, 
  "Thaksin": 32268, 
  "Verzehr": 57420, 
  "heat-@@": 26071, 
  "complement@@": 48709, 
  "ın@@": 37390, 
  "präsentation": 71320, 
  "Heiz@@": 56490, 
  "An": 9817, 
  "cavity": 24395, 
  "bedenkt": 76557, 
  "Prinz@@": 52099, 
  "酒@@": 62341, 
  "ät": 51407, 
  "äu": 55003, 
  "non-standard": 32617, 
  "är": 38770, 
  "pg@@": 44511, 
  "refundable": 22751, 
  "다": 70086, 
  "dustri@@": 44545, 
  "911": 37996, 
  "restoring": 8306, 
  "Affin@@": 43835, 
  "übermittelte": 65297, 
  "averse": 35663, 
  "tigh@@": 17711, 
  "retains": 11487, 
  "finanziert": 65298, 
  "Gehen": 70087, 
  "Literatur": 48223, 
  "Cash": 10956, 
  "Baltim@@": 64467, 
  "leadership": 2392, 
  "volcano": 12592, 
  "Out@@": 12941, 
  "prepared": 1003, 
  "WEICON": 37832, 
  "angestellte": 65300, 
  "apit@@": 34396, 
  "Revolution": 7594, 
  "pir@@": 24809, 
  "An@@": 2653, 
  "pig@@": 12267, 
  "disabilities": 7110, 
  "cares": 16298, 
  "atives": 13997, 
  "Zeichen@@": 57585, 
  "ativen": 56492, 
  "consumer-@@": 30743, 
  "hijack@@": 46941, 
  "Millions": 39958, 
  "modern@@": 14926, 
  "auten": 62344, 
  "host@@": 11779, 
  "bekannteste": 71357, 
  "market-@@": 13624, 
  "Nm": 39883, 
  "No": 916, 
  "18-@@": 13084, 
  "Bademantel": 58609, 
  "Ne": 32322, 
  "Hinweise": 56493, 
  "wans": 65301, 
  "Paint": 27126, 
  "aktualisierte": 65302, 
  "कार@@": 23205, 
  "lively": 4732, 
  "Luxemburger": 64217, 
  "Connec@@": 22948, 
  "24,@@": 42691, 
  "NH": 12973, 
  "NI": 4898, 
  "Sitzungen": 60174, 
  "NL": 4383, 
  "Durban": 21928, 
  "NO": 15183, 
  "Elektrotechnik": 55004, 
  "NA": 13951, 
  "NB": 31431, 
  "NC": 22409, 
  "NE": 18886, 
  "ön@@": 23840, 
  "ley@@": 19419, 
  "Peninsula": 11577, 
  "NY": 28346, 
  "NZ": 35775, 
  "ather@@": 36741, 
  "otoren": 65303, 
  "sealed": 12185, 
  "series": 968, 
  "NP": 41954, 
  "Con@@": 2441, 
  "reak@@": 48636, 
  "NS": 32323, 
  "bubble": 10491, 
  "ve-@@": 9760, 
  "NV": 34872, 
  "NW": 34748, 
  "witt": 47235, 
  "stipulating": 31277, 
  "durchdacht": 70090, 
  "Hannover": 12119, 
  "continents": 8943, 
  "N.": 26899, 
  "bran@@": 14184, 
  "neoliberalen": 65304, 
  "wiederkehrenden": 55005, 
  "institutions": 415, 
  "spiritu@@": 44656, 
  "societal": 18176, 
  "biomet@@": 37127, 
  "singul@@": 33453, 
  "ghter": 45956, 
  "Erkrankung": 65305, 
  "POL@@": 22074, 
  "Ac@@": 5759, 
  "erwähnte": 65306, 
  "with": 16, 
  "Spaniens": 65307, 
  "abused": 11609, 
  "pull": 7100, 
  "rush": 10130, 
  "parli@@": 60176, 
  "assi": 24728, 
  "monopoly": 6710, 
  "asse": 15235, 
  "erneuten": 77161, 
  "Klö@@": 36598, 
  "lehr@@": 54376, 
  "Spielers": 70091, 
  "秉@@": 70093, 
  "Faszination": 50013, 
  "assy": 40809, 
  "cra@@": 6134, 
  "abuses": 6284, 
  "-Bon@@": 47556, 
  "pult": 60510, 
  "ubar@@": 48546, 
  "trips": 3665, 
  "rust": 32012, 
  "größte": 53663, 
  "Cirque": 25892, 
  "eckigen": 70095, 
  "Lac@@": 21682, 
  "Airlines": 7927, 
  "watches": 12924, 
  "wildly": 32310, 
  "Richtige": 62347, 
  "ensuing": 18231, 
  "MEPs": 2722, 
  "follow-up": 5617, 
  "formulation": 11174, 
  "energe@@": 47100, 
  "watched": 11438, 
  "jargon": 24396, 
  "Humanity": 31432, 
  "cream": 7494, 
  "Real": 6225, 
  "Sarawak": 39884, 
  "yoga": 18548, 
  "ideally": 4174, 
  "beautiful": 590, 
  "Read": 14333, 
  "Passwort": 52897, 
  "freunde": 52048, 
  "ziert": 54089, 
  "unparalleled": 14375, 
  "Werbem@@": 60178, 
  "1441": 41955, 
  "Nein@@": 65309, 
  "sowieso": 58610, 
  "puppy": 32926, 
  "Lady": 10743, 
  "enheit": 42330, 
  "Kult": 53833, 
  "uning": 41222, 
  "faxes": 24171, 
  "岗@@": 70098, 
  "Molek@@": 55006, 
  "refunded": 13879, 
  "conceptu@@": 28462, 
  "Eliz@@": 43566, 
  "y-to-@@": 47901, 
  "well@@": 13933, 
  "Hahn": 24770, 
  "Durch": 52152, 
  "schlecht@@": 70099, 
  "Schroedter": 22994, 
  "Modern@@": 22480, 
  "terten": 62006, 
  "tricky": 17099, 
  "horse-@@": 15570, 
  "stylistic": 30035, 
  "Ausflu@@": 70100, 
  "thora": 53303, 
  "Wagen": 57421, 
  "9.@@": 6679, 
  "tricks": 11479, 
  "natur@@": 9046, 
  "enrichment": 14068, 
  "Hardware": 23466, 
  "anteile": 62815, 
  "Gardasee": 62349, 
  "eign": 47391, 
  "Bewilligung": 65311, 
  "recognising": 8971, 
  "uit": 20621, 
  "Hab@@": 20668, 
  "gebot": 55007, 
  "onlin@@": 30744, 
  "engü@@": 56495, 
  "Entspannungs@@": 74171, 
  "Kay@@": 24565, 
  "sch": 7000, 
  "consciences": 27514, 
  "ständigkeit": 70103, 
  "caused": 1320, 
  "beware": 17174, 
  "ceramic": 9480, 
  "About": 16423, 
  "nüch@@": 67935, 
  "stereot@@": 24305, 
  "Ski@@": 18351, 
  "nigh@@": 38607, 
  "Fig": 26090, 
  "conditionality": 15830, 
  "Fin": 43148, 
  "hetero@@": 41394, 
  "causes": 2273, 
  "lizen@@": 62351, 
  "Ghil@@": 55008, 
  "acry@@": 48058, 
  "sylv@@": 54377, 
  "chener": 55711, 
  "tram@@": 10141, 
  "riots": 17848, 
  "Ottom@@": 44437, 
  "nau": 28236, 
  "heavy-duty": 31939, 
  "chenen": 66069, 
  "schränke": 65313, 
  "norm": 11257, 
  "ussia": 26476, 
  "Nordo@@": 66071, 
  "Medi": 63035, 
  "Pazi@@": 56497, 
  "pple": 20742, 
  "fehlten": 70106, 
  "tombs": 25372, 
  "vakuum": 70979, 
  "estri@@": 40053, 
  "Grossetête": 21929, 
  "Perman@@": 49338, 
  "Wirtschaftsprü@@": 51503, 
  "24th": 9877, 
  "Niel@@": 44349, 
  "Spree": 32927, 
  "kostenloses": 68964, 
  "Info@@": 13418, 
  "ro": 5775, 
  "begleiter": 62353, 
  "sans": 20521, 
  "gear@@": 33060, 
  "offenkun@@": 74084, 
  "adina": 39570, 
  "ading": 8991, 
  "insufficiently": 21621, 
  "ξ@@": 47101, 
  "sang": 19918, 
  "sand": 4100, 
  "cker@@": 25670, 
  "invol@@": 26697, 
  "small": 242, 
  "Schlosses": 65318, 
  "Icel@@": 46733, 
  "sank": 30102, 
  "self-employment": 32471, 
  "abbreviated": 19959, 
  "quicker": 10976, 
  "199": 29549, 
  "198": 34284, 
  "komfortablen": 63548, 
  "195": 25984, 
  "194": 33324, 
  "197": 33083, 
  "196": 10172, 
  "躇@@": 70405, 
  "190": 15004, 
  "itive": 31977, 
  "192": 23841, 
  "past": 577, 
  "19.": 50051, 
  "displays": 5050, 
  "Richtungs@@": 62354, 
  "pass": 1457, 
  "Reyes": 39717, 
  "komfortabler": 70110, 
  "98@@": 32826, 
  "investment": 702, 
  "Worf": 17637, 
  "basierter": 70111, 
  "clock": 5383, 
  "-based": 3984, 
  "zukünftiges": 76639, 
  "geschmackvolle": 62355, 
  "Verbänden": 65322, 
  "Dermat@@": 49758, 
  "Fraunhofer-@@": 46957, 
  "io@@": 13482, 
  "prevailed": 13727, 
  "colonists": 30485, 
  "lein": 39083, 
  "Locar@@": 56498, 
  "otor": 39250, 
  "Malat@@": 41169, 
  "leid": 56499, 
  "ticus": 35290, 
  "RR@@": 40215, 
  "verschoben": 60681, 
  "hash": 23206, 
  "Gnome": 37561, 
  "regelmäßige": 60182, 
  "Charlie": 19223, 
  "棲@@": 70113, 
  "hasa": 55713, 
  "linear@@": 44969, 
  "zuliefer@@": 70114, 
  "Parten@@": 40054, 
  "civilians": 6574, 
  "Capit@@": 20987, 
  "Ltd": 6260, 
  "methoden": 56500, 
  "Spencer": 20271, 
  "criminality": 20412, 
  "AN-@@": 45332, 
  "Visby": 41170, 
  "34": 4190, 
  "Concept": 25580, 
  "Kosmetik@@": 60183, 
  "Security": 1702, 
  "Bonds": 40811, 
  "Küsten": 65325, 
  "experience": 342, 
  "otive": 50523, 
  "prior": 1706, 
  "periodic": 14017, 
  "Reina": 30884, 
  "kurz@@": 58613, 
  "behör@@": 62857, 
  "i.@@": 16742, 
  "moulds": 19660, 
  "ermassen": 65326, 
  "Shim@@": 25168, 
  "Pension": 13559, 
  "rov@@": 19067, 
  "benef@@": 23671, 
  "tax-free": 30615, 
  "followed": 1679, 
  "Italien@@": 62357, 
  "adidas": 9624, 
  "plain": 5710, 
  "pling": 12186, 
  "GM@@": 11920, 
  "SESAR": 36990, 
  "Richmond": 40598, 
  "Worx": 43351, 
  "Dies@@": 50524, 
  "Netanyahu": 17638, 
  "minder": 52171, 
  "aufs": 51781, 
  "auft": 65328, 
  "Rufnummer": 70116, 
  "empfohlen": 55009, 
  "attendance": 9469, 
  "Crash": 42692, 
  "Mé@@": 13248, 
  "bach@@": 29961, 
  "wines": 3001, 
  "IJ@@": 38771, 
  "barbarism": 32597, 
  "Gazprom": 18834, 
  "Syndrome": 35145, 
  "theastern": 20681, 
  "automate": 21030, 
  "soil": 4118, 
  "Verpack@@": 55010, 
  "Provence": 15632, 
  "ø@@": 10696, 
  "prohibi@@": 26156, 
  "more": 50, 
  "marsch": 54378, 
  "testet": 53834, 
  "Dick": 27539, 
  "door": 2333, 
  "initiated": 5054, 
  "substances": 2522, 
  "Kärntner": 47558, 
  "company": 279, 
  "materieller": 55856, 
  "corrected": 8054, 
  "adern": 62291, 
  "Vaku@@": 61926, 
  "aders": 15940, 
  "tested": 3486, 
  "unigen": 70119, 
  "ANT@@": 10564, 
  "security-@@": 26900, 
  "dische": 52428, 
  "doom": 25774, 
  "farb@@": 70121, 
  "3-@@": 4312, 
  "Festplatten@@": 70123, 
  "Chad": 12026, 
  "Adidas": 38448, 
  "anxieties": 26056, 
  "Gods": 28047, 
  "Jahrhundert": 45836, 
  "Burgh@@": 42184, 
  "installing": 5933, 
  "讯": 70125, 
  "anhaltend": 69996, 
  "bias": 16845, 
  "Staunen": 70126, 
  "learn": 1259, 
  "knocked": 31012, 
  "Otta@@": 48424, 
  "band@@": 18595, 
  "changeover": 14727, 
  "Panasonic": 8373, 
  "DC@@": 18392, 
  "wieder": 23532, 
  "extrac@@": 22619, 
  "ще@@": 39823, 
  "geni@@": 33825, 
  "Garderobe": 70129, 
  "ete@@": 33198, 
  "trivi@@": 29550, 
  "Musharraf": 17031, 
  "orn@@": 20243, 
  "ologne": 43567, 
  "Propag@@": 53305, 
  "Tauch@@": 55714, 
  "mehr": 19224, 
  "Glasgow": 15738, 
  "bonded": 25581, 
  "huge": 1167, 
  "respective": 2582, 
  "Relation": 49845, 
  "beginnenden": 65457, 
  "enlarge": 11866, 
  "dismissed": 12816, 
  "Fusion": 18742, 
  "worry": 5427, 
  "gol@@": 12280, 
  "tsysteme": 70132, 
  "smug@@": 26477, 
  "Sims": 40205, 
  "Modellierung": 55715, 
  "í@@": 4479, 
  "intended": 1444, 
  "Schlangen": 62361, 
  "mender": 70135, 
  "zerbrechen": 69966, 
  "variant": 10424, 
  ".com.": 45704, 
  "angehen": 77816, 
  "weitreichenden": 65331, 
  "menden": 62362, 
  "lanka": 21805, 
  "abbauen": 71653, 
  "alleine": 53224, 
  "Disclaimer": 41956, 
  "gesteuerten": 70136, 
  "entage": 48757, 
  "П@@": 35096, 
  "jiang": 38449, 
  "Trinkwasser": 60292, 
  "resemble": 19420, 
  "Ereignisse": 52429, 
  "Alpin": 39280, 
  "topo@@": 18232, 
  "West@@": 10276, 
  "pinewood": 24306, 
  "Nero": 6305, 
  "media": 820, 
  "DP@@": 34158, 
  "Х@@": 47559, 
  "exclusions": 29303, 
  "go-@@": 20464, 
  "Tandem@@": 56504, 
  "replied": 10799, 
  "geschä@@": 59702, 
  "ohydr@@": 53835, 
  "Sour@@": 39251, 
  "installed": 2019, 
  "wide-ranging": 8496, 
  "resorts": 6111, 
  "gleichsam": 65333, 
  "paper": 1815, 
  "Instandhaltung": 58616, 
  "signs": 3006, 
  "Wärmebehand@@": 60186, 
  "installer": 7731, 
  "smiling": 26157, 
  "enly": 59481, 
  "DKK": 37392, 
  "roots": 4972, 
  "ausserhalb": 62364, 
  "amentary": 52430, 
  "Hins@@": 66054, 
  "wned": 20304, 
  "Kommissionen": 70141, 
  "Sigma@@": 41403, 
  "B1": 35033, 
  "rounds": 8466, 
  "symptoms": 8006, 
  "Fisheries": 4433, 
  "nostalg@@": 51725, 
  "Schriften": 49627, 
  "bypass": 15700, 
  "Brussels": 1764, 
  "sauce": 14876, 
  "Löschen": 65334, 
  "colleague": 2126, 
  "gepflegte": 62365, 
  "alese": 22344, 
  "universality": 20743, 
  "MS-DOS": 41957, 
  "Elektronik": 35434, 
  "high-end": 13014, 
  "fülle": 65430, 
  "vitro": 26158, 
  "leistung": 53836, 
  "Guan@@": 37985, 
  "Banker": 47102, 
  "ersetzt": 56505, 
  "Nassau": 41622, 
  "decor@@": 22752, 
  "anstelle": 62366, 
  "ablehnen": 71692, 
  "LIM@@": 43425, 
  "zugeschickt": 62367, 
  "Mitwirkung": 65335, 
  "child@@": 37129, 
  "ahm@@": 58618, 
  "Obst": 62368, 
  "Quoten": 70144, 
  "Authority": 4380, 
  "Schröder": 15810, 
  "Stabilitäts@@": 62369, 
  "repayment": 20325, 
  "Oswald": 38134, 
  "shocking": 11666, 
  "reactions": 6680, 
  "ingungen": 55716, 
  "architekton@@": 70146, 
  "te@@": 4377, 
  "enh@@": 17388, 
  "Saturday": 4108, 
  "numeric": 20413, 
  "Hinweis@@": 69824, 
  "Köstlichkeiten": 58620, 
  "advertisers": 17752, 
  "operation": 1207, 
  "Kriegs@@": 56506, 
  "Ima@@": 30203, 
  "centuries": 3443, 
  "mail@@": 12420, 
  "16.30": 46779, 
  "Medicines": 27477, 
  "/usr": 22998, 
  "errei@@": 47732, 
  "ändischen": 71712, 
  "research": 359, 
  "Th@@": 3938, 
  "conut": 50792, 
  "knall@@": 55499, 
  "saugen": 70149, 
  "Report": 4364, 
  "lebenden": 62913, 
  "offline": 11367, 
  "Brun@@": 14163, 
  "Prof.": 8688, 
  "occurs": 5049, 
  "Messag@@": 54379, 
  "besta@@": 54380, 
  "Spitzen@@": 54302, 
  "/etc": 13647, 
  "Dsch@@": 56507, 
  "Prozentsatz": 70151, 
  "homosexu@@": 65339, 
  "Builder": 21622, 
  "zusammenarbeit": 71539, 
  "Anato@@": 43568, 
  "Nina": 34037, 
  "LAND": 31433, 
  "Nine": 15633, 
  "Postan@@": 59912, 
  "Lebensmittel-": 75328, 
  "ecologically": 14653, 
  "Astro@@": 28705, 
  "Bevölkerungen": 73883, 
  "kings": 13778, 
  "aussagekräftige": 65341, 
  "mündliche": 78488, 
  "definition": 2087, 
  "pairs": 12386, 
  "gewässer": 70153, 
  "Screenshot": 47733, 
  "Feira": 18596, 
  "stellern": 70154, 
  "graphic": 4617, 
  "dabei": 33564, 
  "bestimmte": 50266, 
  "VERTU": 25258, 
  "plers": 32472, 
  "zufrieden": 50014, 
  "testament": 28347, 
  "Thyssen": 18743, 
  "fail@@": 26480, 
  "Profi": 49340, 
  "Economist": 30885, 
  "verkehrs@@": 56508, 
  "impart": 31271, 
  "russischen": 65343, 
  "precautionary": 7337, 
  "Benutzerkonto": 70158, 
  "pH-@@": 49523, 
  "12.30": 27809, 
  "Fri": 34285, 
  "Cache": 36578, 
  "Dalai": 12355, 
  "brutally": 19820, 
  "preservation": 6716, 
  "Liege": 43933, 
  "Ζ@@": 60188, 
  "seasons": 9226, 
  "zunächst": 52065, 
  "Fru": 55876, 
  "ir-@@": 44992, 
  "雙@@": 70159, 
  "ADSL": 19466, 
  "Grav@@": 42523, 
  "Belgrad": 51409, 
  "Starten": 65344, 
  "Catalan": 11148, 
  "tova": 35777, 
  "Byrne": 14752, 
  "moderately": 27111, 
  "aved": 53837, 
  "Reco@@": 52525, 
  "passed": 2124, 
  "Bann@@": 40812, 
  "all-out": 30724, 
  "紅@@": 65345, 
  "ographer": 23140, 
  "mentally": 15671, 
  "saint": 16811, 
  "user-@@": 11432, 
  "aver": 19323, 
  "aves": 24810, 
  "essays": 21557, 
  "session@@": 35322, 
  "subsidise": 25985, 
  "justly": 24630, 
  "hinzugefügt": 62371, 
  "hypothetical": 25931, 
  "Ž@@": 15377, 
  "Ū@@": 70163, 
  "day@@": 12639, 
  "interviewed": 22056, 
  "Kleinen": 54158, 
  "turnkey": 22504, 
  "tedness": 41361, 
  "ellina": 34398, 
  "elling": 6795, 
  "pum@@": 41362, 
  "sicher@@": 70164, 
  "oland": 39252, 
  "stifle": 29684, 
  "traps": 14063, 
  "ise@@": 27810, 
  "Vertriebs@@": 50573, 
  "Serv@@": 33084, 
  "vorwärts": 62373, 
  "eiling": 36063, 
  "Cancer": 22824, 
  "condolences": 13934, 
  "Flugzeuge": 74905, 
  "getaway": 26901, 
  "erstadt": 48936, 
  "igkeits@@": 58623, 
  "patchwork": 27214, 
  "Brün@@": 43006, 
  "dismantling": 9694, 
  "zügigen": 64105, 
  "Münchener": 51204, 
  "waterways": 13354, 
  "Mallor@@": 37537, 
  "File@@": 33085, 
  "vely": 15468, 
  "andinav@@": 62374, 
  "Secchi": 37677, 
  "Club@@": 28762, 
  "3L": 41476, 
  "organisations": 1253, 
  "ophy@@": 39959, 
  "guarding": 28937, 
  "graffiti": 22999, 
  "manufac": 70169, 
  "gliche": 62375, 
  "reorganisation": 19376, 
  "krei": 70170, 
  "lib@@": 14327, 
  "Stru@@": 29820, 
  "büros": 55011, 
  "sell": 2689, 
  "ﬁ": 60191, 
  "ﬂ": 72235, 
  "Triangle": 30745, 
  "Rijeka": 26902, 
  "SATA": 27411, 
  "Food": 4300, 
  "vels": 28938, 
  "self": 5807, 
  "grundsätzlich": 47542, 
  "cco": 22121, 
  "also": 43, 
  "recognizing": 13403, 
  "sely": 22620, 
  "GER@@": 27515, 
  "Addis": 31278, 
  "cci": 31398, 
  "港@@": 70172, 
  "alts@@": 73379, 
  "sels": 25776, 
  "singles": 13501, 
  "Consultant": 36199, 
  "leave": 1059, 
  "virus": 5213, 
  "bom@@": 21523, 
  "mende": 54428, 
  "luck@@": 47735, 
  "Trekking": 46780, 
  "heb@@": 47236, 
  "Easy@@": 21558, 
  "inu@@": 24321, 
  "Zuschauer": 52841, 
  "understands": 8415, 
  "laboratories": 9779, 
  "omin@@": 22468, 
  "Capitol": 34873, 
  "seize": 9895, 
  "darstellung": 57992, 
  "desch@@": 53790, 
  "sometimes": 1127, 
  "OTE": 23396, 
  "geräte": 49097, 
  "edler": 47560, 
  "barred": 19324, 
  "Summit": 2281, 
  "cultivating": 27000, 
  "sulph@@": 24811, 
  "barren": 36460, 
  "Portfolio": 31714, 
  "barrel": 14444, 
  "OTS": 37997, 
  "artei": 62376, 
  "bulletin": 32473, 
  "wording": 5469, 
  "ambiguities": 26262, 
  "unsach@@": 58626, 
  "Secretary-@@": 54196, 
  "Han": 29551, 
  "Übrigen": 58627, 
  "blended": 21806, 
  "uga": 36703, 
  "lungen": 52653, 
  "accommodations": 7179, 
  "bookings": 7478, 
  "fürchter@@": 65352, 
  "australische": 65353, 
  "paddle": 28588, 
  "prü": 70174, 
  "Finanzverwaltung": 70175, 
  "Behold": 15378, 
  "Has": 34497, 
  "Hat": 11547, 
  "overwhelmed": 21071, 
  "occupation": 4437, 
  "access": 244, 
  "Bulgarian": 7252, 
  "Bass": 35519, 
  "Melodie": 65355, 
  "Palast": 46412, 
  "double-@@": 7699, 
  "gesamt@@": 62377, 
  "Dune": 29304, 
  "-Spezialisten": 65356, 
  "00-@@": 12736, 
  "Base": 11163, 
  "cassette": 31582, 
  "増@@": 70176, 
  "removable": 18058, 
  "Dirk": 27113, 
  "rundherum": 65357, 
  "愛": 65358, 
  "ographical": 23533, 
  "indifference": 14526, 
  "columns": 8606, 
  "Basi": 70177, 
  "hafter": 60192, 
  "haftes": 58628, 
  "dancers": 19685, 
  "Götter": 58629, 
  "haftet": 49524, 
  "Repair": 28589, 
  "künstlichen": 62378, 
  "Ungleichbehandlung": 70178, 
  "secular": 8329, 
  "Wifi": 28825, 
  "sunny": 4958, 
  "ingrad": 33087, 
  "remedy": 6922, 
  "explodiert": 69903, 
  "wast@@": 24322, 
  "Büro@@": 53308, 
  "onger": 49525, 
  "haften": 57423, 
  "Tren@@": 34895, 
  "feeder": 27649, 
  "atively": 9855, 
  "Straflosigkeit": 62379, 
  "AutoCAD": 34498, 
  "adapts": 22950, 
  "tanken": 70180, 
  "istinnen": 65359, 
  "pleasures": 16368, 
  "gehilfen": 70181, 
  "‌@@": 56509, 
  "bytes": 15162, 
  "Null@@": 51726, 
  "wrecks": 31110, 
  "Oett@@": 52431, 
  "tanker": 19467, 
  "ओं": 25671, 
  "prospectus": 26376, 
  "funded": 4480, 
  "insane": 27692, 
  "rechtlichen": 50525, 
  "ክ@@": 65360, 
  "GROUP": 20918, 
  "einzel@@": 62157, 
  "Glacier": 14167, 
  "312": 30486, 
  "activists": 7240, 
  "Des@@": 9532, 
  "315": 40814, 
  "pay-@@": 27509, 
  "administrator": 8467, 
  "collectively": 9261, 
  "Akteure": 60193, 
  "Fiori": 25672, 
  "31.": 55720, 
  "moun@@": 34286, 
  "analog": 10112, 
  "regulator": 16898, 
  "forec@@": 20465, 
  "MON@@": 17980, 
  "unverz@@": 66321, 
  "deactivate": 22951, 
  "Bish@@": 35780, 
  "Europarat": 70188, 
  "side@@": 14053, 
  "counterfei@@": 25490, 
  "Progres@@": 49137, 
  "sentim@@": 34399, 
  "Unsere": 51105, 
  "serb@@": 61866, 
  "alization": 4107, 
  "eins@@": 54383, 
  "EPA": 18558, 
  "15th": 6656, 
  "Seiden@@": 53838, 
  "440": 24039, 
  "naïve": 22753, 
  "sparsely": 23990, 
  "就@@": 70189, 
  "Rollen@@": 62380, 
  "signifikanten": 69877, 
  "faul@@": 27604, 
  "präsentierte": 70190, 
  "untouched": 12421, 
  "Imperium": 47522, 
  "ZOW": 21494, 
  "税": 70191, 
  "outlying": 27771, 
  "Long@@": 16805, 
  "näher": 58969, 
  "wechselseitigen": 73213, 
  "empowering": 29685, 
  "chalets": 20466, 
  "last": 194, 
  "gnaden@@": 65363, 
  "Nein": 54384, 
  "小@@": 60196, 
  "grab@@": 16310, 
  "SPEED": 50267, 
  "3-star": 6646, 
  "Höl@@": 36169, 
  "Neid": 70192, 
  "Zapatero": 27516, 
  "emeal": 38925, 
  "connection": 797, 
  "Dokument": 55721, 
  "Wilde": 43700, 
  "antin": 45334, 
  "azza": 37393, 
  "azzo": 27312, 
  "Query": 36064, 
  "krä@@": 62381, 
  "Breton": 33936, 
  "Orig@@": 44082, 
  "dder": 23534, 
  "beln": 53840, 
  "ausgezeichnete": 56510, 
  "bell": 12369, 
  "olla": 35460, 
  "186@@": 41518, 
  "acted": 5703, 
  "olle": 29686, 
  "olly": 25777, 
  "less-favoured": 26795, 
  "Chávez": 14527, 
  "adaptation": 5833, 
  "Fertig@@": 56450, 
  "bels": 42156, 
  "olls": 35006, 
  "oppel@@": 59267, 
  "ollt": 77119, 
  "belt": 6749, 
  "8,@@": 13015, 
  "rubber": 5573, 
  "schere": 70195, 
  "ACT@@": 35020, 
  "Cars": 22494, 
  "Obertauern": 44206, 
  "schern": 70196, 
  "Cart": 36579, 
  "implicit": 13291, 
  "schers": 65364, 
  "suburbs": 16183, 
  "extravagant": 22832, 
  "zigsten": 66345, 
  "Carl": 13358, 
  "Schreib@@": 65365, 
  "Freizeitpark": 57419, 
  "Frame": 25987, 
  "EU-@@": 5077, 
  "Care": 13249, 
  "Zillertal": 22958, 
  "jun@@": 36844, 
  "unschuldig": 70198, 
  "Demokrati@@": 58961, 
  "counselling": 25491, 
  "Rücküber@@": 60198, 
  "Reise@@": 53841, 
  "Forschungszentrum": 52929, 
  "Pilot@@": 50520, 
  "lessly": 11610, 
  "adaptable": 20803, 
  "moderation": 15159, 
  "38": 4692, 
  "XX@@": 14820, 
  "Tsat@@": 60200, 
  "despite": 878, 
  "FS-@@": 46339, 
  "Hiroshima": 35352, 
  "Michel": 7595, 
  "presses": 9864, 
  "Marken": 50468, 
  "Beiträgen": 58631, 
  "exponential": 29966, 
  "ANSI": 34038, 
  "IP-@@": 21931, 
  "expanded": 4494, 
  "empirical": 19078, 
  "Maystadt": 39571, 
  "admire": 6781, 
  "ু@@": 62383, 
  "150.000": 44418, 
  "pressed": 8887, 
  "32": 3191, 
  "Beschwerde": 58636, 
  "geholt": 60201, 
  "Brauerei": 51411, 
  "cages": 23614, 
  "צ@@": 55014, 
  "real": 343, 
  "Labors": 69787, 
  "sicheres": 72023, 
  "sicherer": 57504, 
  "kontraproduktiv": 70200, 
  "Drucker": 44547, 
  "vol": 37131, 
  "vom": 12584, 
  "von": 2431, 
  "binding": 2374, 
  "vok": 50526, 
  "Ausstattungs@@": 72026, 
  "Tschechischen": 61290, 
  "htt@@": 40055, 
  "vor": 9338, 
  "vos": 21559, 
  "Besuch": 48937, 
  "sicheren": 65366, 
  "alog@@": 22693, 
  "voy": 25582, 
  "Tali@@": 48759, 
  "Gedankenaustausch": 65367, 
  "kommuniziert": 67834, 
  "cuisine": 2057, 
  "any": 80, 
  "Minig@@": 64207, 
  "Norwich": 36991, 
  "Internet-@@": 29656, 
  "Chek@@": 49001, 
  "Miy@@": 36200, 
  "nachträgliche": 65368, 
  "ное": 42331, 
  "Einrichtung": 49526, 
  "offence": 9780, 
  "meteor@@": 33826, 
  "retari@@": 46484, 
  "ной": 30487, 
  "Theo": 40601, 
  "städte": 60202, 
  "Aufschlag": 70201, 
  "DC-@@": 38136, 
  "Then": 25077, 
  "flooded": 15801, 
  "Eclipse": 17458, 
  "Stabilisation": 18776, 
  "Verunsicherung": 70202, 
  "gebotenen": 75489, 
  "Kipp@@": 47561, 
  "Raphael": 28028, 
  "material@@": 48225, 
  "relax@@": 26481, 
  "ner-@@": 37833, 
  "Damas@@": 58632, 
  "bemühen": 65369, 
  "nickname": 16838, 
  "rie@@": 47932, 
  "infamous": 17389, 
  "kompetent": 60203, 
  "läufen": 65370, 
  "riv@@": 26589, 
  "prelimin@@": 45837, 
  "Listen@@": 65371, 
  "Midd@@": 24780, 
  "benutze": 61765, 
  "kompetenz": 62385, 
  "Names": 37998, 
  "Umweltz@@": 60205, 
  "Erziehungs@@": 60206, 
  "Programmes": 29305, 
  "bench@@": 48059, 
  "Karl": 9339, 
  "Zitate": 50793, 
  "O.": 26377, 
  "-Se@@": 46504, 
  "wardship": 31381, 
  "contraven@@": 34178, 
  "patron@@": 28464, 
  "Mein@@": 39772, 
  "FWB": 39718, 
  "inations": 45608, 
  "custodi@@": 25986, 
  "defin@@": 17330, 
  "princip@@": 21287, 
  "Bundesministerium": 48699, 
  "stim@@": 43426, 
  "abilität": 72081, 
  "ore@@": 23993, 
  "Bühnen": 58972, 
  "Grundsätze": 62386, 
  "abstention": 20744, 
  "ierender": 65373, 
  "ierendes": 66389, 
  "genossenschaft": 52842, 
  "geschoss": 65374, 
  "lady": 11282, 
  "queen": 15832, 
  "erno": 51052, 
  "jährigen": 52432, 
  "Hydromassage": 57347, 
  "jähriges": 57426, 
  "jähriger": 60207, 
  "Kommiss@@": 65375, 
  "eers": 20326, 
  "parents": 2804, 
  "Marino": 20682, 
  "Brands": 42809, 
  "psychedel@@": 40252, 
  "Marine": 11303, 
  "verfü@@": 58633, 
  "ierenden": 65376, 
  "Brandt": 37681, 
  "Oreg@@": 66394, 
  "mware": 62387, 
  "Fuengiro@@": 70872, 
  "emergency": 2828, 
  "Oh": 14587, 
  "Of": 9202, 
  "Restriktionen": 72098, 
  "emanating": 28029, 
  "emigration": 18589, 
  "wives": 16960, 
  "heilige": 66398, 
  "hostels.com": 62388, 
  "abound": 24307, 
  "emergence": 7763, 
  "Os": 15493, 
  "dling": 23842, 
  "ON": 6106, 
  "OM": 10697, 
  "OL": 15283, 
  "OK": 6042, 
  "Jav@@": 35130, 
  "einzigartig": 60208, 
  "OG": 38809, 
  "OF": 5536, 
  "Show": 6857, 
  "OC": 28465, 
  "OB": 43150, 
  "chorus": 21735, 
  "Ship@@": 24631, 
  "destination": 2624, 
  "individuals": 2046, 
  "Potenzial": 60187, 
  "ludicrous": 30467, 
  "OX": 33827, 
  "tribes": 13299, 
  "OU": 42693, 
  "OT": 31013, 
  "OS": 3985, 
  "summarise": 18090, 
  "kirche": 37538, 
  "OP": 22358, 
  "Inspec@@": 42851, 
  "segeln": 63014, 
  "einmalige": 60209, 
  "dokumentation": 63325, 
  "bi-@@": 17459, 
  "angebo@@": 58494, 
  "Hauptplatz": 51727, 
  "ital@@": 27215, 
  "Ötz@@": 40816, 
  "ija": 36201, 
  "methode": 55723, 
  "greener": 27002, 
  "tisch": 46942, 
  "WTO@@": 62389, 
  "Wärm@@": 64508, 
  "ቐ@@": 70502, 
  "Nap@@": 24482, 
  "a-@@": 2850, 
  "Franc": 45335, 
  "Anglo-@@": 25363, 
  "ultraliber@@": 37655, 
  "Blingee": 16376, 
  "Frank": 11258, 
  "measurements": 7384, 
  "novelty": 20683, 
  "verständ@@": 73443, 
  "Brabant": 38772, 
  "bitt@@": 51728, 
  "behave": 9369, 
  "anschaulich": 65381, 
  "cool@@": 13728, 
  "Reisepass": 65382, 
  "rifying": 35929, 
  "hinsichtlich": 52938, 
  "Aviation": 11238, 
  "Cin@@": 18873, 
  "straightforward": 8676, 
  "LEADER": 29553, 
  "Ausländer": 70212, 
  "inserting": 17744, 
  "Publikum": 51729, 
  "otro@@": 31583, 
  "Gesellschaften": 53843, 
  "Kommun@@": 54451, 
  "kommerzielle": 62390, 
  "Din@@": 20585, 
  "feelings": 6307, 
  "concealed": 16556, 
  "Gesellschafter": 65385, 
  "stubborn@@": 26903, 
  "Operation": 13742, 
  "gehöri@@": 70216, 
  "Firmware": 38608, 
  "deserved": 13648, 
  "simplify": 5553, 
  "beeinträchtigt": 58635, 
  "Ost": 37682, 
  "wrinkles": 28228, 
  "tigkeits@@": 51106, 
  "deserves": 4354, 
  "pracht@@": 65386, 
  "Science-@@": 61728, 
  "DER@@": 23397, 
  "Before": 9713, 
  "After": 9321, 
  "Omni@@": 36065, 
  "inte": 44657, 
  "Selbständigkeit": 65387, 
  "inta": 41558, 
  "Virtu@@": 30617, 
  "terrorists": 5004, 
  "zialitäten": 70220, 
  "Driver": 26153, 
  "into": 86, 
  "Luxushotels": 66858, 
  "intu": 62392, 
  "Wissenschaftliche": 60211, 
  "alà": 51602, 
  "ints": 40602, 
  "contributor": 17849, 
  "Shah": 26160, 
  "-Krei@@": 70222, 
  "zzled": 26591, 
  "sightseeing": 6476, 
  "uncertainties": 12625, 
  "span": 12480, 
  "Plakat": 68292, 
  "Kreditkartennummer": 66443, 
  "tasting": 9568, 
  "nails": 22979, 
  "spac": 66445, 
  "supervise": 15370, 
  "Gruyère": 37248, 
  "obsol@@": 41959, 
  "Verteiler": 65390, 
  "gases": 6294, 
  "Sein": 49527, 
  "Charme": 45957, 
  "edu@@": 37132, 
  "verstreut": 66045, 
  "downloadable": 21173, 
  "User": 4430, 
  "spas": 18523, 
  "weine": 62394, 
  "organisers": 15555, 
  "gitar@@": 57707, 
  "Daniel@@": 28835, 
  "CT@@": 10107, 
  "manische": 67266, 
  "Ausgang": 58108, 
  "Dienststellen": 70224, 
  "theken": 70225, 
  "Verstoß": 63084, 
  "bluefin": 21807, 
  "ани@@": 33454, 
  "l@@": 1436, 
  "deductions": 30337, 
  "jacke": 72199, 
  "CY@@": 37133, 
  "Graben": 48434, 
  "Spezifikationen": 65392, 
  "Contest": 15180, 
  "Barry": 30760, 
  "Journ@@": 30338, 
  "Amnesty": 14877, 
  "zwischen@@": 64717, 
  "Resolution": 8603, 
  "considerable": 1642, 
  "open@@": 14348, 
  "fades": 36704, 
  "tschechischen": 57429, 
  "middle": 2246, 
  "VILLA": 40415, 
  "思@@": 55724, 
  "Booth": 35026, 
  "möchte": 45845, 
  "Dolphin": 35237, 
  "Appartementh@@": 50269, 
  "Filmfestival": 51347, 
  "leicht": 48226, 
  "maturity": 10912, 
  "Alpin@@": 43008, 
  "Lukashenko": 12445, 
  ".at": 21623, 
  "faded": 31858, 
  "Antiquitäten": 65393, 
  "mau@@": 46340, 
  "organ@@": 14878, 
  "faden": 70228, 
  "schlechteren": 70229, 
  "Eleganz": 69317, 
  "camp": 4278, 
  "wuchs": 62396, 
  "Distribut@@": 46629, 
  "istically": 20315, 
  "influence": 1380, 
  "Bartels": 23220, 
  "rotary": 15850, 
  "globally": 6176, 
  "Catalogue": 27518, 
  "diverse": 3322, 
  "chat": 5322, 
  "Siófok": 39572, 
  "Sierra": 7272, 
  "bewusstsein": 65394, 
  "Parkett": 57430, 
  "sche": 25154, 
  "Rhein-Main-@@": 49760, 
  "questionnaire": 14159, 
  "trick": 12832, 
  "Imper@@": 43151, 
  "Friedrichshain": 39255, 
  "CANoe": 41363, 
  "devising": 19737, 
  "cushi@@": 21624, 
  "uranium": 10151, 
  "Bartolomé": 42046, 
  "9.2": 30973, 
  "Last": 1861, 
  "conceptions": 20002, 
  "mächtig": 65395, 
  "Hotline": 44883, 
  "和": 60213, 
  "kommerzi@@": 72246, 
  "δ@@": 31526, 
  "revision": 3539, 
  "Paketes": 65396, 
  "präsentiert": 50068, 
  "Julius": 15285, 
  "Materialien": 50016, 
  "long-lasting": 15771, 
  "herkömmliche": 72178, 
  "reglem@@": 60214, 
  "suppression": 13300, 
  "perverse": 18987, 
  "reinsurance": 28939, 
  "Paketen": 70235, 
  "Interessierten": 65397, 
  "線": 58637, 
  "lang": 23844, 
  "lane": 14258, 
  "land": 856, 
  "methodologies": 24632, 
  "fundament@@": 49761, 
  "lana": 40416, 
  "hinausgeht": 70236, 
  "produkt": 57432, 
  "Leipzig": 7191, 
  "unveröffent@@": 65398, 
  "gesicherten": 60215, 
  "restlichen": 55725, 
  "Radar": 41559, 
  "beverage": 11780, 
  "lans": 43948, 
  "singen": 42644, 
  "Ferdin@@": 46341, 
  "Abdeckung": 70238, 
  "premi@@": 24379, 
  "EZB": 60217, 
  "certi@@": 22802, 
  "pres@@": 6194, 
  "ang@@": 5915, 
  "Wöl@@": 56511, 
  "Jia": 41560, 
  "Experten": 52843, 
  "broaden": 13359, 
  "Jim": 18393, 
  "Tabletten": 70240, 
  "Happ@@": 32593, 
  "IDC": 38576, 
  "broader": 4628, 
  "agues": 42852, 
  "construc@@": 15455, 
  "len@@": 8087, 
  "istic": 5856, 
  "Notice": 34159, 
  "bilanz": 60218, 
  "Nütz@@": 70241, 
  "zogene": 63600, 
  "Jäger": 50527, 
  "börse": 54505, 
  "istin": 60219, 
  "protection@@": 43836, 
  "Encoder": 44919, 
  "S-@@": 8400, 
  "ö@@": 9495, 
  "Jürgen": 19325, 
  "contours": 24397, 
  "参@@": 60220, 
  "hints": 14534, 
  "unverhäl@@": 65399, 
  "resources": 443, 
  "versary": 53847, 
  "uploaded": 12817, 
  "press@@": 23467, 
  "Organ": 44084, 
  "drop@@": 32430, 
  "proizvo@@": 42694, 
  "dicker": 53310, 
  "ermäßigten": 70243, 
  "wine-growing": 22770, 
  "Islam@@": 18059, 
  "sc@@": 3357, 
  "fundierte": 62400, 
  "Legislaturperiode": 71918, 
  "Web-Site": 50528, 
  "petitions": 9419, 
  "decorating": 27162, 
  "beginnend": 60221, 
  "minerals": 10948, 
  "championship": 10911, 
  "ț@@": 58638, 
  "padded": 30201, 
  "diploma": 13894, 
  "SV@@": 18631, 
  "Estonia": 6350, 
  "real-estate": 23994, 
  "harbor": 17776, 
  "landmines": 21350, 
  "CG": 36308, 
  "embarked": 13165, 
  "höher@@": 70247, 
  "berühmter": 70248, 
  "fewer": 4258, 
  "gerten": 62402, 
  "archipelago": 12574, 
  "world-class": 14506, 
  "renegoti@@": 16079, 
  "co-financing": 22212, 
  "alia": 8863, 
  "Nachrichten@@": 55016, 
  "Sl@@": 26378, 
  "camer@@": 31859, 
  "H1N1": 32223, 
  "590": 42853, 
  "125@@": 37835, 
  "Rei": 43377, 
  "Template": 33199, 
  "Kontextmenü": 70251, 
  "issuing": 7939, 
  "verschlechtern": 72173, 
  "besuchten": 70252, 
  "notwendigen": 53426, 
  "gerüstet": 62403, 
  "synchron@@": 11591, 
  "alie": 33655, 
  "Mosambik": 70112, 
  "Liebling@@": 70254, 
  "video": 1199, 
  "notwendiges": 70255, 
  "colour@@": 18259, 
  "dynamics": 8746, 
  "Bereich": 39886, 
  "Transformation": 43009, 
  "rements": 48722, 
  "peninsula": 8770, 
  "Kunstwerke": 65403, 
  "Technologie-@@": 58639, 
  "ገ@@": 65404, 
  "-of-@@": 31860, 
  "multimedia": 6053, 
  "Telegra@@": 40216, 
  "Erik@@": 50973, 
  "henceforth": 17639, 
  "Blockade": 56513, 
  "Rezeption": 49138, 
  "turnaround": 24729, 
  "Hapag@@": 65405, 
  "Holländer": 66532, 
  "Handels": 48754, 
  "Torrox": 36992, 
  "chefs": 15593, 
  "berüch@@": 65406, 
  "announc@@": 47902, 
  "Privatsphäre": 58640, 
  "periodi@@": 49763, 
  "gefahren": 58641, 
  "Joy@@": 29419, 
  "Freedom": 10459, 
  "accommod@@": 47736, 
  "Occup@@": 21480, 
  "Nai@@": 45817, 
  "highly": 939, 
  "seil@@": 55017, 
  "layout": 4578, 
  "fähige": 55673, 
  "fifteen": 5868, 
  "schwe@@": 65407, 
  "UNES@@": 55018, 
  "Begründer": 70260, 
  "insisted": 9307, 
  "credits": 6983, 
  "Recycling": 43837, 
  "ould": 24996, 
  "1931": 22258, 
  "fetch": 25169, 
  "Höflichkeit": 72186, 
  "headline": 18643, 
  "Mühlen": 56514, 
  "weltberühmte": 72363, 
  "survey": 4798, 
  "ankind": 65409, 
  "mussen": 70261, 
  "makes": 508, 
  "maker": 7266, 
  "1936": 18926, 
  "Category": 12715, 
  "reprocessing": 27216, 
  "Greenwich": 33200, 
  "category": 2325, 
  "deten@@": 37558, 
  "Judith": 39511, 
  "Tito": 34874, 
  "1934": 19421, 
  "Mass@@": 19712, 
  "willkommen": 55726, 
  "ridi@@": 37521, 
  "tick@@": 15659, 
  "wand@@": 45012, 
  "SGH-@@": 45013, 
  "Tuvok": 36993, 
  "streng@@": 57815, 
  "Kosten-": 72387, 
  "Ammoni@@": 48060, 
  "Laufzeit": 70263, 
  "Princesa": 40348, 
  "Menschheit": 57433, 
  "joy@@": 30488, 
  "Solo": 35323, 
  "confidence": 1497, 
  "skirche": 48061, 
  "bingen": 60224, 
  "Immunities": 28003, 
  "Sole": 23672, 
  "Siegel": 48227, 
  "EU@@": 9102, 
  "Siegen": 40597, 
  "eleven": 8670, 
  "assuring": 19326, 
  "Sieger": 62406, 
  "NATO": 2738, 
  "AdLINK": 28349, 
  "ÿ": 46943, 
  "face-to-face": 32474, 
  "steh@@": 50794, 
  "entfernung": 70264, 
  "macro-financial": 21865, 
  "pencil": 23398, 
  "projektes": 62407, 
  "pfe": 62408, 
  "Kronplatz": 37539, 
  "ा@@": 6782, 
  "undeclared": 21174, 
  "-Roman": 33088, 
  "losis": 50017, 
  "Schott@@": 51494, 
  "Scheck": 54385, 
  "Jed@@": 40049, 
  "Patag@@": 37249, 
  "ernt": 53848, 
  "baby": 5163, 
  "Gutschein": 56102, 
  "Haber@@": 49127, 
  "Winch": 36122, 
  "Regener@@": 51413, 
  "customer": 769, 
  "Madam": 410, 
  "Steuersatz": 70268, 
  "integrating": 6383, 
  "STRA@@": 40256, 
  "verkehr@@": 60118, 
  "clients": 1304, 
  "Schlau@@": 70269, 
  "abgetan": 71847, 
  "paed@@": 25364, 
  "Cie@@": 49957, 
  "reserves": 2773, 
  "LM@@": 42695, 
  "при@@": 32929, 
  "dritte": 52050, 
  "itte": 38504, 
  "erwar@@": 58642, 
  "wedge": 28030, 
  "etti": 12232, 
  "KRO@@": 39719, 
  "etto": 10896, 
  "hervor@@": 65412, 
  "Rückgabe": 55727, 
  "process": 201, 
  "lock": 5732, 
  "etta": 8480, 
  "ette": 5419, 
  "promotional": 8068, 
  "locs": 49386, 
  "abgehalten": 65415, 
  "Mariahil@@": 39674, 
  "itta": 25393, 
  "gegenseitig": 62410, 
  "Bounty": 38451, 
  "etts": 48229, 
  "begehrte": 67661, 
  "rods": 18710, 
  "Valdi@@": 28210, 
  "ameters": 62411, 
  "deck@@": 15634, 
  "e.com": 11164, 
  "teilnimmt": 70271, 
  "Sug@@": 43796, 
  "educational": 3063, 
  "stadiums": 28338, 
  "lagoons": 32475, 
  "sehen": 40501, 
  "Remot@@": 47437, 
  "HAM@@": 46945, 
  "zeug@@": 55019, 
  "bilingual": 20414, 
  "hormones": 14376, 
  "ez@@": 12539, 
  "comedy": 15731, 
  "intelligent": 4156, 
  "RiT": 70274, 
  "Haftung": 47903, 
  "Solutions": 8274, 
  "Geruch": 65416, 
  "amerika": 65417, 
  "Nathan": 37396, 
  "Färbung": 70275, 
  "auszuprobieren": 70276, 
  "Hyperlink": 62413, 
  "Kundenorientierung": 70277, 
  "IA@@": 18579, 
  "thotel": 37999, 
  "inger@@": 35412, 
  "Grund-": 69142, 
  "gemessenen": 70278, 
  "ease": 4502, 
  "Fahrradverleih": 70280, 
  "Gospel": 24398, 
  "foremost": 4407, 
  "та@@": 20205, 
  "realized": 5730, 
  "CN@@": 12003, 
  "Erde": 54947, 
  "democracy": 566, 
  "manpower": 19785, 
  "blem@@": 35799, 
  "house@@": 15494, 
  "VÖGELE": 33078, 
  "robot": 10575, 
  "gleich@@": 53849, 
  "One": 4603, 
  "Meci@@": 42854, 
  "last-@@": 38609, 
  "scha": 39225, 
  "geräumige": 70284, 
  "realizes": 26796, 
  "60-@@": 18302, 
  "gedacht": 56438, 
  "Vernun@@": 65420, 
  "opinion": 494, 
  "lack@@": 35210, 
  "evolutionary": 18019, 
  "thigh": 45014, 
  "vici": 48506, 
  "mute": 31715, 
  "muth": 43838, 
  "insight": 6526, 
  "Lif@@": 47562, 
  "researching": 19980, 
  "Geldern": 70285, 
  "Crimp@@": 49764, 
  "Versuch@@": 70286, 
  "deduc@@": 14103, 
  "directs": 22483, 
  "Wartung": 58643, 
  "entstand": 55020, 
  "interoperable": 31584, 
  "KT": 42322, 
  "perfect": 882, 
  "Innenst@@": 57435, 
  "Reisende": 65421, 
  "wundern": 77509, 
  "Scientific": 10209, 
  "Emergency": 25170, 
  "Messdaten": 72832, 
  "speziellen": 55021, 
  "Chant@@": 43427, 
  "terrac@@": 42635, 
  "Brooks": 40818, 
  "Cabinet": 26483, 
  "meantime": 5288, 
  "Diversi@@": 57499, 
  "Championships": 15501, 
  "spezielles": 62415, 
  "stalled": 24222, 
  "iger@@": 43824, 
  "sow@@": 49139, 
  "derivative": 17211, 
  "Home": 3594, 
  "Erfüll@@": 62416, 
  "wundert": 70287, 
  "auflö@@": 61677, 
  "physicians": 16557, 
  "morgen": 50007, 
  "Vec@@": 23468, 
  "Sender": 34287, 
  "staat": 47103, 
  "Register": 15989, 
  "Extensions": 45233, 
  "fai@@": 19628, 
  "Senden": 62417, 
  "Works": 10722, 
  "Tabelle": 58645, 
  "realize": 5079, 
  "ीय": 29554, 
  "resonance": 20320, 
  "furnace": 20367, 
  "Makler": 62418, 
  "恋@@": 72522, 
  "Zut@@": 47738, 
  "scenic": 8638, 
  "Flecken": 70289, 
  "Emmanuel": 37683, 
  "außer": 53850, 
  "nicely": 11212, 
  "anzahl": 62419, 
  "Wenceslas": 18836, 
  "shortage": 7688, 
  "Hoteles": 31014, 
  "glasses": 11781, 
  "homogeneous": 18091, 
  "enco@@": 18432, 
  "卦": 65425, 
  "卡": 70290, 
  "web-site": 25856, 
  "Vorbereitungen": 62420, 
  "Ungar@@": 58646, 
  "spe@@": 15542, 
  "Anniversary": 29306, 
  "earnest@@": 30619, 
  "Wahrschein@@": 70291, 
  "deficiency": 16050, 
  "books": 2445, 
  "irrit@@": 17530, 
  "carbon@@": 31844, 
  "off@@": 6833, 
  "totalit@@": 52434, 
  "witness": 5924, 
  "Viren": 62421, 
  "CAMP@@": 27923, 
  "signano": 43010, 
  "ssing": 27309, 
  "fundamentally": 6092, 
  "geschmackvoll": 60226, 
  "eintritt": 62422, 
  "free@@": 13030, 
  "boutique": 8552, 
  "Coupé": 35435, 
  "stol@@": 47238, 
  "katholischen": 59188, 
  "南": 60227, 
  "gek@@": 51732, 
  "umzuwandeln": 70293, 
  "schwach": 77077, 
  "adaptive": 30667, 
  "bedauer@@": 65784, 
  "Mobiltelefon": 70294, 
  "enders": 40778, 
  "EID@@": 33565, 
  "Vielen": 60229, 
  "domination": 12429, 
  "STEYR": 41008, 
  "trete": 55937, 
  "Jean": 8450, 
  "Margin@@": 48570, 
  "greedy": 29172, 
  "herab@@": 62424, 
  "mangelhaften": 65968, 
  "-10": 42696, 
  "spic@@": 35739, 
  "crun@@": 41172, 
  "Folklor@@": 58647, 
  "harmonische": 65428, 
  "obli@@": 32476, 
  "Arabia": 8379, 
  "liant": 43628, 
  "techni@@": 50796, 
  "Angola": 12146, 
  "Harvard": 16761, 
  "Wesentliche": 65429, 
  "transferable": 21175, 
  "could": 161, 
  "WIFI": 27896, 
  "weh@@": 55023, 
  "Jesus": 6787, 
  "length": 2521, 
  "ratification": 4207, 
  "ert@@": 27644, 
  "Reb@@": 16171, 
  "achtung": 62425, 
  "3km": 35097, 
  "steig": 46604, 
  "repeats": 23752, 
  "relays": 24900, 
  "Louisi@@": 57758, 
  "Bemerkungen": 58648, 
  "̇@@": 70296, 
  "Hotel": 259, 
  "starken": 57436, 
  "starkem": 70297, 
  "Gründen": 48036, 
  "scene": 3579, 
  "soothing": 17069, 
  "tot@@": 10195, 
  "damit": 33828, 
  "homogene": 58649, 
  "starker": 51108, 
  "scent": 18514, 
  "Ries": 35098, 
  "St.-@@": 49765, 
  "Irak": 54387, 
  "eship": 26699, 
  "Ende@@": 43571, 
  "allgemeinen": 52839, 
  "programmier@@": 70298, 
  "Eastern": 2121, 
  "festival": 3740, 
  "techn@@": 12087, 
  "nt@@": 37397, 
  "opening-up": 27115, 
  "onent": 42525, 
  "emaster": 42332, 
  "ए": 37227, 
  "Obersten": 70300, 
  "cats": 11461, 
  "allgemeiner": 65433, 
  "las@@": 9386, 
  "Wild@@": 21808, 
  "Iraq": 1488, 
  "peripheral": 7420, 
  "interests": 575, 
  "enforcement": 4185, 
  "even@@": 23753, 
  "Wilden": 50018, 
  "stomach": 14528, 
  "quarry": 31434, 
  "Dé@@": 18233, 
  "encryp@@": 35065, 
  "heisst": 55729, 
  "gence": 36202, 
  "Roosevelt": 23208, 
  "überraschende": 70301, 
  "唸@@": 65250, 
  "Flüssigkeits@@": 65436, 
  "gency": 32167, 
  "umsonst": 53852, 
  "chasing": 32032, 
  "Stange": 58926, 
  "kr@@": 18266, 
  "ektur": 60231, 
  "Newcastle": 26547, 
  "umgestaltet": 65437, 
  "Physiker": 70303, 
  "Golf@@": 37836, 
  "roulette": 20273, 
  "arez": 38107, 
  "Vatanen": 40218, 
  "REACH-@@": 52356, 
  "Barro@@": 30620, 
  "Bett@@": 40265, 
  "oth": 24003, 
  "WH@@": 19821, 
  "Gummi": 67988, 
  "jüngst": 70304, 
  "assumes": 8349, 
  "welchen": 53732, 
  "fif@@": 17256, 
  "diar@@": 29822, 
  "UCITS": 32013, 
  "heat@@": 32785, 
  "Sof@@": 19822, 
  "Schiffs@@": 50797, 
  "false": 4803, 
  "ammon@@": 30206, 
  "zucker@@": 62783, 
  "Glar@@": 41960, 
  "Pass@@": 23330, 
  "Montreux": 23673, 
  "tonight": 6428, 
  "Secret": 23068, 
  "-Spezi@@": 65440, 
  "SIR@@": 42748, 
  "händler": 53854, 
  "atia": 35668, 
  "Swedes": 26299, 
  "depict": 27311, 
  "atie": 24399, 
  "dishes": 2663, 
  "abdic@@": 32325, 
  "contest@@": 24483, 
  "atik": 37837, 
  "atim": 38452, 
  "atin": 15941, 
  "atio": 32635, 
  "Thé@@": 45839, 
  "atis": 29555, 
  "possi@@": 20467, 
  "PR@@": 7673, 
  "kest@@": 39530, 
  "Pe@@": 9402, 
  "Veranst@@": 60233, 
  "kenntnisse": 58652, 
  "Alghero": 35129, 
  "universit@@": 40922, 
  "worldwide": 1321, 
  "Progno@@": 51733, 
  "teria": 38453, 
  "Plünderung": 70307, 
  "manor": 19152, 
  "閥": 74238, 
  "Bayreu@@": 62431, 
  "Geschwister": 58653, 
  "tropische": 62432, 
  "Topol@@": 53855, 
  "spro@@": 27667, 
  "terin": 58654, 
  "SLR": 11819, 
  "Swimming-@@": 51718, 
  "Mode": 12748, 
  "nerin": 52436, 
  "Modi": 47905, 
  "tired": 9022, 
  "POOL": 46207, 
  "Reserve": 7708, 
  "so-called": 1678, 
  "Ahn@@": 46947, 
  "Diff@@": 41009, 
  "placement": 8139, 
  "Montpellier": 34499, 
  "GFP": 53313, 
  "bred": 17640, 
  "remot@@": 30375, 
  "ventive": 44658, 
  "Pru@@": 42771, 
  "onau@@": 27630, 
  "Darlehen": 66392, 
  "brew": 34500, 
  "gegen@@": 57437, 
  "bres": 32930, 
  "χ@@": 40604, 
  "Ermu@@": 54015, 
  "stehen": 41173, 
  "Trichet": 17212, 
  "z.B": 36932, 
  "Falk@@": 46080, 
  "rings": 10293, 
  "arib@@": 47906, 
  "Goo@@": 31139, 
  "Menschen-": 70315, 
  "schmackhafte": 78040, 
  "Internetnutzer": 70316, 
  "jap@@": 27310, 
  "cottage": 12487, 
  "GMBH": 36994, 
  "greenhouse": 4844, 
  "Höfe": 48128, 
  "Informationsaustausch": 71028, 
  "Neop@@": 48760, 
  "Bäume": 56927, 
  "taps": 30621, 
  "leistungsstarker": 78522, 
  "gg@@": 18353, 
  "Entdeck@@": 70318, 
  "jav": 62435, 
  "jaw": 21187, 
  "basieren": 66746, 
  "jar": 19515, 
  "Update": 9001, 
  "terminal": 5541, 
  "entities": 6295, 
  "jal": 39720, 
  "jam": 16642, 
  "tape": 5837, 
  "jak": 24901, 
  "jah": 37429, 
  "Radio-": 70319, 
  "riding": 4599, 
  "jad": 46342, 
  "Tscher@@": 59089, 
  "jab": 36103, 
  "hochwertige": 57439, 
  "Scho@@": 21894, 
  "antagonism": 28122, 
  "Malces@@": 65445, 
  "ди@@": 29173, 
  "iro": 22213, 
  "Komitee": 72712, 
  "prohibition": 10374, 
  "Keep": 35324, 
  "Mängeln": 70321, 
  "kab@@": 38308, 
  "produc@@": 12482, 
  "Minen@@": 64889, 
  "dot@@": 19747, 
  "Rating": 35930, 
  "aes": 52438, 
  "aer": 45840, 
  "aet": 53856, 
  "keiner": 53857, 
  "feldern": 70324, 
  "Capo@@": 34401, 
  "precedence": 10155, 
  "ganzen": 48761, 
  "aes@@": 30340, 
  "comprising": 8683, 
  "taxes": 2508, 
  "Tasse": 70325, 
  "stufe": 51735, 
  "stuff": 4517, 
  "origin@@": 22377, 
  "gerte": 59093, 
  "ganzer": 62436, 
  "straight@@": 43572, 
  "taxed": 19919, 
  "keinen": 46630, 
  "ael": 33829, 
  "憶@@": 78278, 
  "iPad": 28590, 
  "strengthened": 3733, 
  "Heller": 41745, 
  "äck": 55732, 
  "schizophren@@": 27003, 
  "prises": 46782, 
  "moplas@@": 53390, 
  "frame": 3542, 
  "differentials": 32477, 
  "diplomatischen": 60238, 
  "Präpar@@": 62437, 
  "Joachim": 21411, 
  "acidi@@": 32014, 
  "Adoption": 48762, 
  "video@@": 27280, 
  "Krim": 48397, 
  "Yorkshire": 23836, 
  "Interessens@@": 65448, 
  "consi@@": 33089, 
  "Po": 24633, 
  "PR": 11405, 
  "PS": 7459, 
  "PP": 17127, 
  "trat@@": 30704, 
  "PV": 25673, 
  "destiny": 11152, 
  "PT": 3598, 
  "PU": 36314, 
  "compar@@": 27695, 
  "nuclear": 926, 
  "Suit@@": 42887, 
  "vergla@@": 70327, 
  "PC": 2127, 
  "quita": 35173, 
  "PA": 8639, 
  "PF": 35669, 
  "PG": 37250, 
  "PD": 16581, 
  "PE": 10140, 
  "Cus@@": 34502, 
  "PI": 15732, 
  "PN": 34749, 
  "PO": 19378, 
  "PL": 3089, 
  "PM": 7789, 
  "P2": 39428, 
  "P3": 46632, 
  "keynote": 32169, 
  "P1": 39888, 
  "instig@@": 23141, 
  "tones": 9119, 
  "trendigen": 75702, 
  "Flus@@": 58655, 
  "Chi": 29679, 
  "mind@@": 38454, 
  "uttons": 57792, 
  "jeweilige": 55733, 
  "Barcelon@@": 43011, 
  "ameri@@": 55025, 
  "Ei@@": 19043, 
  "timent": 47240, 
  "Berechnung": 55734, 
  "resem@@": 41010, 
  "P.": 15093, 
  "Coreper": 35325, 
  "lightning": 23194, 
  "P-": 53389, 
  "Linksetzung": 62439, 
  "Sorrento": 18126, 
  "TRA@@": 19005, 
  "ša": 36845, 
  "angezeigte": 70330, 
  "Circus": 26379, 
  "še": 40819, 
  "gleiches": 62440, 
  "tigation": 25988, 
  "gleichem": 65449, 
  "Yun@@": 42855, 
  "honey": 9404, 
  "gleichen": 48567, 
  "莹@@": 70331, 
  "award-winning": 10236, 
  "Almeria": 29431, 
  "wil@@": 11728, 
  "icus": 32637, 
  "zinsen": 65450, 
  "Glockenturm": 70332, 
  "mäh@@": 70333, 
  "conclude": 2252, 
  "gesund": 54431, 
  "team@@": 34288, 
  "Haltestellen": 70267, 
  "Ask@@": 45476, 
  "ony@@": 17910, 
  "gang@@": 24223, 
  "kindergarten": 26041, 
  "geändert": 46486, 
  "gespräch": 58656, 
  "Tok@@": 21356, 
  "erlebt": 58657, 
  "Yu@@": 16132, 
  "parag@@": 48763, 
  "rus@@": 20984, 
  "sch-@@": 45477, 
  "genetic": 5387, 
  "Nami@@": 36066, 
  "Macartney": 34289, 
  "entitle": 25584, 
  "Modern": 12249, 
  "-Sens@@": 58658, 
  "Zusicherung": 65452, 
  "eux": 16872, 
  "Headquarters": 25878, 
  "Kompl@@": 58522, 
  "Alex@@": 23930, 
  "ists": 2940, 
  "rieren": 65453, 
  "zeit@@": 44207, 
  "coherence": 5975, 
  "Klä@@": 70336, 
  "Principe": 33325, 
  "hydr@@": 20919, 
  "venge@@": 49140, 
  "Sacrédeus": 39573, 
  "STOXX": 40266, 
  "Hostels": 25989, 
  "Zap@@": 40606, 
  "岸@@": 65454, 
  "über@@": 34403, 
  "Buchen": 61660, 
  "edel@@": 32326, 
  "Andro@@": 34160, 
  "maß@@": 70337, 
  "sacrifice": 8420, 
  "fut@@": 28123, 
  "Number": 13377, 
  "tible": 11165, 
  "Böhmen": 65455, 
  "scanned": 16130, 
  "Bethlehem": 35326, 
  "öf@@": 56517, 
  "Schifffahrts@@": 57440, 
  "Battle": 11132, 
  "production-@@": 30489, 
  "ы@@": 19169, 
  "arote": 56518, 
  "ehotel": 33567, 
  "playgrounds": 29307, 
  "Cañ@@": 31322, 
  "Besichtigungen": 72834, 
  "Humank@@": 55735, 
  "Piper": 37540, 
  "HAD@@": 41290, 
  "contagion": 27904, 
  "boo@@": 13267, 
  "psychische": 70338, 
  "scapego@@": 36315, 
  "uccino": 34290, 
  "Fuel": 33201, 
  "Regelung": 55026, 
  "greater": 521, 
  "exik@@": 70341, 
  "denial": 10771, 
  "veran@@": 37442, 
  "Dun@@": 10048, 
  "carbohydrates": 29969, 
  "qualitäts@@": 60241, 
  "greifen": 58659, 
  "沿@@": 70343, 
  "Regular": 37684, 
  "ept@@": 17463, 
  "FLO@@": 37251, 
  "Straftat": 61931, 
  "r.@@": 34875, 
  "betre@@": 53315, 
  "unimaginable": 24553, 
  "spell": 6699, 
  "complemented": 11197, 
  "preci@@": 44549, 
  "phi@@": 27707, 
  "Decken": 65460, 
  "ebo@@": 18667, 
  "Asturias": 29174, 
  "Cair@@": 43429, 
  "Decker": 35531, 
  "iko@@": 47563, 
  "view@@": 23069, 
  "partei@@": 56521, 
  "Vorar@@": 55117, 
  "füllung": 60255, 
  "identity": 2365, 
  "diabetes": 11681, 
  "audit": 6373, 
  "argue": 4850, 
  "off": 492, 
  "Klicks": 66853, 
  "functionalities": 16523, 
  "euthan@@": 55027, 
  "Chenn@@": 56787, 
  "Pöl@@": 38001, 
  "schriftlich": 48827, 
  "patterns": 5140, 
  "phal": 39574, 
  "PRO@@": 7222, 
  "Scro@@": 37135, 
  "oft": 18972, 
  "filesystem": 17222, 
  "Einen": 65462, 
  "diversify": 16767, 
  "audio": 2856, 
  "1.27": 30207, 
  "north-south": 32170, 
  "sä@@": 46948, 
  "reefs": 17777, 
  "newest": 6834, 
  "Programm-@@": 65463, 
  "sselt": 70347, 
  "halbwegs": 70348, 
  "storage": 2108, 
  "Vossloh": 30918, 
  "x02BC": 30024, 
  "foothills": 21036, 
  "580": 36414, 
  "Jab@@": 30208, 
  "clocks": 18837, 
  "Lac": 24470, 
  "geschossen": 60243, 
  "MASCHINE": 40485, 
  "web": 946, 
  "₴": 70350, 
  "weg": 14849, 
  "cracy": 18838, 
  "Ausbildungen": 69258, 
  "wed": 7267, 
  "wei": 35327, 
  "ampton": 36316, 
  "wen": 29823, 
  "wem": 54388, 
  "wel": 19117, 
  "Paddington": 24634, 
  "wer": 8497, 
  "neoliberal": 12132, 
  "verwechselt": 75725, 
  "wet": 8689, 
  "festgeschrieben": 69710, 
  "Wachstum": 58662, 
  "practise": 10042, 
  "villagers": 25674, 
  "KK@@": 39575, 
  "Verdi": 34291, 
  "tics": 4648, 
  "260": 17047, 
  "ungsh@@": 46783, 
  "evenings": 7836, 
  "archeological": 21481, 
  "draconian": 30592, 
  "sofort": 44102, 
  "crux": 23070, 
  "Kat@@": 11012, 
  "Skip@@": 52052, 
  "tice": 22364, 
  "Ghent": 21720, 
  "tich": 53316, 
  "Tauern": 25171, 
  "Kag@@": 39721, 
  "tick": 19516, 
  "pier": 20274, 
  "you": 24, 
  "tico": 12696, 
  "emme": 42526, 
  "nichtig": 70354, 
  "Führ@@": 50530, 
  "Giro@@": 43471, 
  "emma": 43573, 
  "leader": 1908, 
  "ra@@": 2133, 
  "liebe": 52849, 
  "aufbau": 61637, 
  "emmt": 72922, 
  "Micro@@": 9543, 
  "Agents": 34613, 
  "diso@@": 39576, 
  "misch@@": 36705, 
  "EU-15": 41365, 
  "become": 313, 
  "Golfer": 55982, 
  "liebt": 52053, 
  "Ausflugs@@": 76080, 
  "ulating": 15143, 
  "庆@@": 62449, 
  "grids": 21625, 
  "cow@@": 25504, 
  "freshness": 17976, 
  "geseh@@": 58150, 
  "fluss": 57441, 
  "Palmen@@": 47845, 
  "₂": 55029, 
  "G-8": 24635, 
  "gymnastics": 32788, 
  "ERG@@": 34750, 
  "choosing": 5223, 
  "flush": 22057, 
  "authoritarian": 8888, 
  "ots": 8695, 
  "Nomin@@": 46208, 
  "recognition": 1884, 
  "Warrior": 34751, 
  "contested": 17331, 
  "B.C.": 29893, 
  "Wurm@@": 56522, 
  "onom@@": 16562, 
  "Defi@@": 44208, 
  "Gültigkeits@@": 70356, 
  "Sloven@@": 31863, 
  "Savi@@": 33456, 
  "winzigen": 65464, 
  "passion": 5158, 
  "Tibet@@": 49344, 
  "Sortim@@": 60244, 
  "biology": 13580, 
  "knowled@@": 36181, 
  "autonomen": 62451, 
  "無@@": 62452, 
  "lination": 33937, 
  "demonstration": 5941, 
  "menstru@@": 32327, 
  "pressure": 975, 
  "Utopia": 38773, 
  "Donn@@": 34405, 
  "Utopie": 60245, 
  "asiens": 65466, 
  "imaginary": 20415, 
  "Kalkulation": 71349, 
  "abdecken": 70359, 
  "Southampton": 39220, 
  "Scheibe": 58665, 
  "ministr@@": 49247, 
  "lifestyle": 6197, 
  "gelesen": 62454, 
  "Trupp@@": 70361, 
  "】": 47104, 
  "VON": 51449, 
  "Gedicht": 66605, 
  "langes": 41424, 
  "langer": 46081, 
  "langem": 65467, 
  "langen": 49834, 
  "Biodiver@@": 65470, 
  "」": 65471, 
  "『": 56523, 
  "』": 51212, 
  "curative": 24636, 
  "。": 50531, 
  "Barthol@@": 38610, 
  "documentary": 8500, 
  "VOY": 42157, 
  "swimming": 1657, 
  "genannten": 48398, 
  "fertilizer": 27039, 
  "letters": 4726, 
  "Assy@@": 29406, 
  "unfavourable": 17813, 
  "å@@": 9437, 
  "sharpness": 27345, 
  "针@@": 70362, 
  "Schreyer": 15733, 
  "trag@@": 45609, 
  "gastronomy": 11050, 
  "り": 60796, 
  "Ö@@": 8684, 
  "alumin@@": 43953, 
  "Versicherungsunternehmen": 70363, 
  "COND@@": 33938, 
  "cultivated": 10014, 
  "prescri@@": 22887, 
  "initially": 3762, 
  "Spam@@": 38309, 
  "Mexiko": 55738, 
  "Brand@@": 19241, 
  "terminated": 13581, 
  "elinux": 43839, 
  "interrupted": 11865, 
  "Û@@": 55031, 
  "peac@@": 11750, 
  "Anhänger": 64917, 
  "Dr@@": 15575, 
  "187@@": 37934, 
  "ppen@@": 43152, 
  "liation": 36494, 
  "beratungen": 70365, 
  "undurch@@": 70366, 
  "ketball": 65474, 
  "Fotze": 60246, 
  "privaten": 49531, 
  "Aufstellungs@@": 70369, 
  "rhythmic": 26380, 
  "Essay": 48825, 
  "Jubil@@": 39824, 
  "kman": 48399, 
  "aufdecken": 70370, 
  "yarns": 24730, 
  "tson": 38012, 
  "Meca": 39577, 
  "Megapixels": 23602, 
  "radioaktive": 70371, 
  "Contract": 16429, 
  "Winzer": 54389, 
  "privilege": 8108, 
  "Unic@@": 38138, 
  "geile": 53317, 
  "Healthcare": 35778, 
  "zw@@": 35894, 
  "fragmentation": 10780, 
  "syst@@": 43402, 
  "semiti@@": 48880, 
  "Myanmar": 12719, 
  "evident": 4910, 
  "zahlreichen": 49316, 
  "excitement": 10504, 
  "placed": 1484, 
  "D3@@": 42528, 
  "Vorder@@": 49766, 
  "reciproc@@": 29279, 
  "problem": 264, 
  "gebil@@": 65476, 
  "treten": 52441, 
  "apathy": 32299, 
  "orials": 41909, 
  "Kratsa-Tsagaropoulou": 37480, 
  "enteam": 70450, 
  "TÜ@@": 46747, 
  "arro@@": 33326, 
  "thermo@@": 12250, 
  "begleiten": 58547, 
  "ガ@@": 70377, 
  "onation": 31141, 
  "Nato": 41746, 
  "ম@@": 68321, 
  "Darwin": 20276, 
  "oscil@@": 25675, 
  "Kick": 47241, 
  "gerufene": 66953, 
  "effected": 15160, 
  "wertvolle": 69470, 
  "compared": 1927, 
  "ァ@@": 72750, 
  "Nachbesser@@": 61762, 
  "nonetheless": 3092, 
  "deadly": 14957, 
  "diamet@@": 32172, 
  "7,5": 45015, 
  "を@@": 54390, 
  "lately": 16165, 
  "aufgehoben": 56721, 
  "compares": 16961, 
  "details": 1041, 
  "邑": 70379, 
  "behold": 6034, 
  "Corp.": 36317, 
  "vergleichbare": 70380, 
  "illusion": 10800, 
  "Structure": 37398, 
  "February": 1767, 
  "repeat": 2661, 
  "polizei": 53859, 
  "zhou": 33457, 
  "Your@@": 37770, 
  "Konflikt@@": 58420, 
  "sprä@@": 63376, 
  "outlets": 10781, 
  "istently": 47242, 
  "U": 3609, 
  "ULL": 37252, 
  "möglichkeiten": 52243, 
  "multinationals": 9203, 
  "repeal": 19273, 
  "Gutach@@": 77979, 
  "machbar": 58667, 
  "DF@@": 19022, 
  "Oze@@": 58921, 
  "searches": 10826, 
  "zahlreich": 62059, 
  "verstorben": 70382, 
  "Corps": 17936, 
  "insec@@": 29308, 
  "concer@@": 16486, 
  "Charakteren": 77450, 
  "compete": 4427, 
  "searched": 15356, 
  "Nachteil": 62462, 
  "78@@": 23170, 
  "flakes": 35424, 
  "gardens": 3407, 
  "Hawaii": 20863, 
  "Deauville": 41011, 
  "Aktien@@": 49533, 
  "dote": 30278, 
  "通@@": 62463, 
  "recreate": 25336, 
  "divers": 12536, 
  "magnetic": 7752, 
  "surfers": 17881, 
  "Kensington": 18839, 
  "rough@@": 14415, 
  "London": 1630, 
  "nursery": 19327, 
  "äumen": 70384, 
  "cervical": 29036, 
  "onym": 44828, 
  "Metrostation": 65480, 
  "test@@": 21560, 
  "integrity": 4655, 
  "rebr@@": 46939, 
  "Mosel": 46985, 
  "Buttiglione": 32478, 
  "anderweitige": 70385, 
  "onus": 32931, 
  "Agu@@": 20985, 
  "unanimity": 6528, 
  "討@@": 70386, 
  "farben": 55694, 
  "worte": 62464, 
  "massen@@": 62465, 
  "neighbours": 4276, 
  "Heim": 51416, 
  "Erläuterungen": 65481, 
  "Organisation@@": 60251, 
  "Marg@@": 30623, 
  "Einbau": 62466, 
  "worth": 1691, 
  "ssal": 50022, 
  "alternating": 21176, 
  "Harold": 40192, 
  "file": 733, 
  "amorous": 50533, 
  "dominate": 11463, 
  "unde@@": 47243, 
  "Glo@@": 30746, 
  "Sex@@": 26072, 
  "eat@@": 24839, 
  "ECH@@": 42147, 
  "Pipe": 44660, 
  "replication": 27004, 
  "Enterprise": 3231, 
  "summarized": 24308, 
  "participatory": 20149, 
  "京@@": 57447, 
  "psychisch": 70387, 
  "Castill@@": 52442, 
  "lustigen": 57449, 
  "250@@": 20003, 
  "progression": 21626, 
  "sparung": 70388, 
  "Quell@@": 45125, 
  "eiver": 38139, 
  "platt@@": 48947, 
  "Paus@@": 46676, 
  "architektonisch": 66992, 
  "Hi": 32311, 
  "nacht": 35975, 
  "Blütezeit": 60253, 
  "Traum": 54893, 
  "abolishing": 12681, 
  "mati": 48330, 
  "speci@@": 10280, 
  "Russlands": 65482, 
  "styl@@": 46435, 
  "Dess@@": 47244, 
  "cabling": 32638, 
  "gebrau@@": 62467, 
  "erlaubnis": 70394, 
  "arres@@": 32479, 
  "Faschismus": 73960, 
  "ramp": 22120, 
  "ნ@@": 56527, 
  "mend@@": 45716, 
  "Schwester": 67562, 
  "machines": 1812, 
  "Einfluß": 65485, 
  "Schmidt": 14756, 
  "filtration": 11806, 
  "dismiss@@": 44438, 
  "üt": 55739, 
  "drü@@": 56528, 
  "Geb@@": 28124, 
  "ür": 40057, 
  "Mazda": 37253, 
  "Game": 8563, 
  "Gama": 43430, 
  "UNO@@": 48764, 
  "profession@@": 19880, 
  "ński": 22647, 
  "symbolisch": 65487, 
  "Nietzsche": 23674, 
  "projec@@": 15909, 
  "labor": 4384, 
  "Delta@@": 45234, 
  "Befragten": 58888, 
  "vertretenden": 62469, 
  "residual": 15567, 
  "th@@": 1925, 
  "Campbell": 38202, 
  "tain@@": 15286, 
  "protection": 301, 
  "Einlagen": 70399, 
  "د@@": 34599, 
  "ebru@@": 36463, 
  "compati@@": 38058, 
  "steckt": 62470, 
  "obtained": 2696, 
  "fourteen": 14947, 
  "ciana": 37654, 
  "Festnahmen": 70401, 
  "Jazz": 13194, 
  "standorte": 70402, 
  "Wahr@@": 57450, 
  "icons": 8731, 
  "ier@@": 10492, 
  "innehaben": 70403, 
  "cano@@": 46487, 
  "Spruch": 70406, 
  "Little": 13042, 
  "stressed": 4666, 
  "YST@@": 32016, 
  "postponed": 8169, 
  "Mang@@": 38528, 
  "vá": 38928, 
  "Light@@": 21225, 
  "Partner-@@": 57451, 
  "Nachrichten": 48939, 
  "chens": 49489, 
  "INTER@@": 19438, 
  "bru": 54392, 
  "king@@": 15379, 
  "Bank@@": 25676, 
  "Braun": 33676, 
  "bro": 33830, 
  "archaeological": 8827, 
  "bri": 45339, 
  "socioeconomic": 27116, 
  "flo@@": 6980, 
  "bre": 10237, 
  "bra": 15576, 
  "Google@@": 42048, 
  "vielfältig": 60256, 
  "devastation": 19697, 
  "solventen": 73192, 
  "Topolánek": 39429, 
  "Pous@@": 50271, 
  "Acht": 52054, 
  "coins": 6663, 
  "bundles": 25677, 
  "uniqu@@": 43431, 
  "⁄": 65488, 
  "Geltung": 65489, 
  "mon@@": 2901, 
  "heg@@": 40608, 
  "besuch": 53861, 
  "trin@@": 30209, 
  "bundled": 22841, 
  "echer@@": 45841, 
  "willst": 57454, 
  "separated": 5859, 
  "armament": 23212, 
  "Franc@@": 22137, 
  "gewertet": 65490, 
  "Chianti": 11478, 
  "separaten": 70409, 
  "Industrieanlagen": 50534, 
  "rigenten": 70410, 
  "24-Hour": 5282, 
  "hist@@": 30747, 
  "championships": 22648, 
  "embargos": 49133, 
  "separater": 73215, 
  "separates": 18793, 
  "allies": 5768, 
  "blocking": 7511, 
  "pot": 8243, 
  "Ruhr@@": 36318, 
  "1991": 4757, 
  "1990": 3519, 
  "1993": 4372, 
  "1992": 4097, 
  "1995": 3080, 
  "1994": 3769, 
  "1997": 2412, 
  "ers": 909, 
  "1999": 1504, 
  "1998": 2145, 
  "Gebrau@@": 58669, 
  "enshr@@": 19038, 
  "erz": 51418, 
  "versorgen": 69965, 
  "ere": 7810, 
  "erg": 37685, 
  "Initiative": 8322, 
  "era": 2463, 
  "containment": 20684, 
  "mages": 35212, 
  "upscale": 30279, 
  "ern": 15380, 
  "ero": 8699, 
  "eri": 21581, 
  "scripting": 18127, 
  "ON@@": 8155, 
  "5,000": 9717, 
  "BODY": 47285, 
  "Abb": 65492, 
  "Anlagenbau": 51737, 
  "Abe": 19274, 
  "indicated": 2933, 
  "渲@@": 70412, 
  "Puerta": 18203, 
  "Ralph": 31864, 
  "chirurg@@": 64163, 
  "Kompositionen": 65493, 
  "impair": 31142, 
  "indicates": 4961, 
  "f-@@": 13093, 
  "Annot@@": 49725, 
  "Abu": 10102, 
  "Puerto": 5928, 
  "yab@@": 40418, 
  "eloqu@@": 46784, 
  "vorgezogen": 70413, 
  "Kreis": 48276, 
  "Glück@@": 51110, 
  "谷@@": 70414, 
  "verborgen": 65494, 
  "recovery": 2291, 
  "Verlegung": 75747, 
  "carriers": 6554, 
  "provide": 260, 
  "nuts": 11249, 
  "OpenSSL": 40820, 
  "vot@@": 23537, 
  "itated": 15341, 
  "very": 67, 
  "Zivilbevölkerung": 70417, 
  "Stadthotel": 53862, 
  "Pizz@@": 36581, 
  "jeure": 50272, 
  "alcohol@@": 29824, 
  "resignation": 11924, 
  "restruc@@": 32129, 
  "Blei@@": 45718, 
  "bares": 51419, 
  "barer": 51420, 
  "ladder": 21561, 
  "Rückmeldung": 65495, 
  "Taten": 69887, 
  "Leder@@": 48521, 
  "pers@@": 15910, 
  "Lunch@@": 57455, 
  "micro@@": 3666, 
  "Schnitte": 70422, 
  "baren": 48062, 
  "arch": 10758, 
  "Balaton": 18732, 
  "車@@": 62472, 
  "complacent": 28940, 
  "ationist": 28229, 
  "bilities": 21125, 
  "elusive": 29825, 
  "Stunde": 52055, 
  "asiatischen": 69359, 
  "schneider": 50800, 
  "appreciate": 2595, 
  "Technische": 39085, 
  "fa@@": 8437, 
  "Delegation": 14654, 
  "Sphere": 31143, 
  "Baroque": 11142, 
  "schneiden": 60259, 
  "wertvoll": 65496, 
  "Lé@@": 22621, 
  "Zielen": 57866, 
  "motor-@@": 33328, 
  "Blu-@@": 74260, 
  "Höhen": 65497, 
  "minded": 10281, 
  "intercep@@": 40610, 
  "dik@@": 48230, 
  "stevere": 65498, 
  "cont@@": 8720, 
  "leug@@": 70423, 
  "BAT@@": 39578, 
  "E.@@": 13716, 
  "verfüg@@": 61260, 
  "UC@@": 11403, 
  "12.1": 37588, 
  "kammer@@": 48568, 
  "Fahrrad": 57248, 
  "12.5": 33458, 
  "innovative": 1328, 
  "tops": 14425, 
  "certific@@": 35869, 
  "Videok@@": 62474, 
  "icher@@": 49534, 
  "organischen": 64058, 
  "GSM": 16270, 
  "Bands": 46209, 
  "tren@@": 16802, 
  "komponierte": 65503, 
  "tragen": 47907, 
  "ớ@@": 55032, 
  "achtel@@": 65504, 
  "trages": 43281, 
  "orum": 36464, 
  "ays": 19468, 
  "production": 310, 
  "Friedrich@@": 31819, 
  "AX@@": 34206, 
  "AM@@": 5968, 
  "CompactFlash": 27696, 
  "Kommentar": 50801, 
  "Beschäftig@@": 73302, 
  "coffee": 2272, 
  "schleife": 46633, 
  "​@@": 48232, 
  "repräsentative": 66306, 
  "Oman": 32789, 
  "microphone": 13296, 
  "safe": 1173, 
  "Loi@@": 47105, 
  "fuss@@": 48940, 
  "Motion": 15206, 
  "Stol@@": 37136, 
  "Beethoven": 18759, 
  "penetration": 15253, 
  "sack": 25078, 
  "workflows": 20216, 
  "saft": 62475, 
  "lifelong": 7335, 
  "Kodi@@": 60261, 
  "electro": 31717, 
  "abgeleitet": 50802, 
  "intel@@": 50023, 
  "Regionalpolitik": 62476, 
  "wn-@@": 39579, 
  "reasonably": 6994, 
  "Ho@@": 6318, 
  "l": 1634, 
  "Archaeological": 25172, 
  "Client@@": 45126, 
  "reasonable": 2037, 
  "flyers": 26621, 
  "方@@": 62477, 
  "PROGRESS": 38611, 
  "feeds": 9865, 
  "Phare": 29054, 
  "Quark@@": 46082, 
  "Hr@@": 25365, 
  "schlossen": 71952, 
  "dumping": 6084, 
  "Typs": 70428, 
  "CIT@@": 37209, 
  "ausgewogen": 71430, 
  "Maes": 23332, 
  "tsin@@": 56531, 
  "sler": 34614, 
  "gemeinsam": 46260, 
  "Gale@@": 47246, 
  "Type": 11328, 
  "Liefer-": 62478, 
  "chandel@@": 28061, 
  "perv@@": 28881, 
  "madura": 51111, 
  "marches": 32173, 
  "Gastfreundschaft": 59819, 
  "rence": 41719, 
  "trainers": 13897, 
  "andel@@": 49535, 
  "Downtown": 25879, 
  "Monnet": 18549, 
  "Werkstoffe": 56532, 
  "Klinz": 37580, 
  "Alge@@": 52853, 
  "陳@@": 65507, 
  "dus": 22373, 
  "lie@@": 27157, 
  "Metz@@": 36390, 
  "Meyer": 25466, 
  "Ankar@@": 57460, 
  "avi@@": 7804, 
  "disputed": 15078, 
  "lebte": 60263, 
  "barrier": 7453, 
  "Salzburg": 5188, 
  "qualifications": 5073, 
  "orchester": 47247, 
  "Abtei": 52444, 
  "chargers": 31847, 
  "workforce": 6405, 
  "Primera": 38929, 
  "disputes": 5129, 
  "Taiwan@@": 53864, 
  "phon@@": 17937, 
  "taining": 47708, 
  "forcibly": 23675, 
  "enlightened": 17004, 
  "adjour@@": 38774, 
  "emph@@": 52445, 
  "certified": 4320, 
  "issau": 46622, 
  "Beste": 53792, 
  "Functioning": 20685, 
  "2014-2020": 41416, 
  "Parade": 29433, 
  "seamen": 31199, 
  "refugee": 6614, 
  "flawless": 27811, 
  "renew": 10698, 
  "vorbereitet": 60264, 
  "g&#124;@@": 52446, 
  "professionell": 52447, 
  "footsteps": 19422, 
  "amtlich": 69200, 
  "boiler": 19561, 
  "Fremdsprachen": 76028, 
  "Amendments": 3660, 
  "Veran@@": 65510, 
  "render": 9034, 
  "auslösen": 77414, 
  "金@@": 57461, 
  "fangen": 65511, 
  "affects": 3965, 
  "synonymous": 13560, 
  "Schaffung": 70433, 
  "Staaten": 54393, 
  "entum": 41839, 
  "Staates": 56533, 
  "datiert": 70434, 
  "another": 277, 
  "Manfred": 26263, 
  "Empor@@": 35921, 
  "borgh@@": 60978, 
  "electronic": 1543, 
  "leuchtenden": 70435, 
  "illustrate": 9387, 
  "2050": 12214, 
  "völlig": 55033, 
  "self-regulation": 15184, 
  "symmet@@": 16430, 
  "inged": 25678, 
  "public-sector": 23072, 
  "gewinn@@": 63500, 
  "Traces": 38775, 
  "ogra@@": 32174, 
  "ingen": 10881, 
  "approximately": 2113, 
  "inger": 7257, 
  "Dön@@": 43660, 
  "rooted": 9985, 
  "Regelwerk": 70436, 
  "Wärmet@@": 60266, 
  "dogs": 6207, 
  "heissen": 57463, 
  "feu@@": 27419, 
  "IONS": 21143, 
  "opting": 17181, 
  "emblem": 23469, 
  "pop@@": 9635, 
  "Andersson": 23918, 
  "nachstehend": 70437, 
  "wastes": 19170, 
  "Leiter@@": 56534, 
  "cereal": 15702, 
  "wasted": 9939, 
  "呆@@": 70438, 
  "ess@@": 7659, 
  "Backup": 31144, 
  "ה@@": 49536, 
  "maximizing": 32236, 
  "self-contained": 28970, 
  "emi@@": 36319, 
  "genau@@": 62481, 
  "guild": 16336, 
  "policymaking": 25880, 
  "Elb@@": 33568, 
  "obsc@@": 15734, 
  "angeben": 58674, 
  "Haf@@": 27812, 
  "guilt": 15236, 
  "pre-accession": 10853, 
  "historical": 1240, 
  "beschränkungen": 58758, 
  "Gladi@@": 47392, 
  "ández": 55034, 
  "enhancement": 12212, 
  "Q1": 34504, 
  "Steigung": 70441, 
  "ethn@@": 17150, 
  "buchbar": 60267, 
  "respecting": 5649, 
  "portraits": 15138, 
  "FISHLABS": 32017, 
  "Kart": 41078, 
  "zweideu@@": 70442, 
  "göt@@": 70443, 
  "Junta": 46210, 
  "return": 911, 
  "enchanted": 15602, 
  "sportsmen": 21932, 
  "Javier": 18046, 
  "hervorrufen": 62483, 
  "Maestro": 19275, 
  "baroque": 10220, 
  "erfüll@@": 65512, 
  "contents": 2197, 
  "Q.": 16806, 
  "praising": 31586, 
  "Vormarsch": 70349, 
  "9,5": 52854, 
  "forty": 10479, 
  "Voip@@": 41367, 
  "convenient": 2782, 
  "melan@@": 22622, 
  "Transpar@@": 47106, 
  "Sic@@": 36708, 
  "Berès": 19118, 
  "beauftragter": 56536, 
  "rotar@@": 42335, 
  "ections": 21810, 
  "subjects": 3315, 
  "digungs@@": 70446, 
  "cour@@": 9906, 
  "SEO-@@": 55093, 
  "Gallery": 6900, 
  "culminated": 25274, 
  "nobody": 3766, 
  "Qu": 55741, 
  "Qt": 35782, 
  "Artist": 24400, 
  "AutoEngineer": 32363, 
  "Lucy": 39722, 
  "assesses": 27413, 
  "Mumbai": 23545, 
  "Jubiläums@@": 60268, 
  "germany": 34077, 
  "Luca": 25467, 
  "scripts": 7437, 
  "Qi": 43433, 
  "assessed": 6724, 
  "icro@@": 30433, 
  "Tbilisi": 31865, 
  "grave": 6243, 
  "darkness": 13973, 
  "ierer": 62485, 
  "Twelve": 34985, 
  "QS": 29972, 
  "consumers": 863, 
  "ansä@@": 65513, 
  "Sanitär@@": 65514, 
  "Ayala": 40821, 
  "Isom@@": 48064, 
  "QA": 33090, 
  "enshrined": 7732, 
  "QC": 41174, 
  "bracket": 23538, 
  "QE": 32068, 
  "QF": 43013, 
  "proponents": 25063, 
  "Mid@@": 12906, 
  "QM": 41066, 
  "That": 9851, 
  "Plag@@": 37838, 
  "reserve": 2684, 
  "Aluminium-@@": 55035, 
  "Ridge": 39430, 
  "Hand@@": 17673, 
  "towering": 30072, 
  "marvel": 28556, 
  "PAY": 39431, 
  "non-smokers": 29805, 
  "KT@@": 34505, 
  "constru@@": 44998, 
  "disman@@": 47329, 
  "dump@@": 34986, 
  "slightest": 13368, 
  "Donaur@@": 65516, 
  "Bratislava": 16832, 
  "PAL": 31145, 
  "intergovernmental": 6215, 
  "ת": 57109, 
  "sozialistischen": 58760, 
  "Santiago": 9255, 
  "ckets": 17792, 
  "Moselle": 33459, 
  "DCI": 33203, 
  "Photography": 23845, 
  "trump@@": 22135, 
  "facades": 19379, 
  "completes": 15603, 
  "Raumschiff": 65517, 
  "Sustainability": 28031, 
  "border@@": 19811, 
  "View@@": 36709, 
  "Langued@@": 33569, 
  "onne": 27095, 
  "Aufruhr": 70455, 
  "勝@@": 70456, 
  "DCS": 39084, 
  "rectangle": 30491, 
  "Nantes": 34752, 
  "mörder@@": 76175, 
  "zweier": 68947, 
  "bahnhof": 33683, 
  "depreci@@": 34041, 
  "Edel@@": 36846, 
  "telefonisch": 56537, 
  "bicy@@": 37773, 
  "Lithuania": 5154, 
  "Wirk@@": 54897, 
  "Reaktions@@": 70457, 
  "degradation": 11962, 
  "Fahrt": 55036, 
  "Fri@@": 9281, 
  "roundabout": 15990, 
  "downtime": 24071, 
  "policymakers": 8910, 
  "Loud": 21562, 
  "GD@@": 42269, 
  "beschnei@@": 71195, 
  "eme": 23263, 
  "FLA@@": 33034, 
  "runs": 2518, 
  "Milos@@": 55037, 
  "ema": 14018, 
  "metabolism": 17802, 
  "emo": 36203, 
  "emi": 39257, 
  "Agent": 14206, 
  "vielmehr": 55743, 
  "rine": 39087, 
  "gears": 19748, 
  "ems": 22220, 
  "Portraits": 50938, 
  "insurgents": 30104, 
  "wiederholten": 70458, 
  "Exportsubventionen": 70459, 
  "freshwater": 25779, 
  "emy": 33205, 
  "Stadien": 70460, 
  "stir@@": 33708, 
  "secretary": 13450, 
  "9.30": 33939, 
  "pur@@": 5635, 
  "oll@@": 9839, 
  "Liban@@": 58679, 
  "Jackson": 9370, 
  "Caracas": 36847, 
  "edited": 4170, 
  "Seu@@": 50180, 
  "Gorbachev": 25275, 
  "Domain@@": 37138, 
  "Einträgen": 70461, 
  "で@@": 53321, 
  "ehn@@": 35328, 
  "horrendous": 21289, 
  "discussions": 1560, 
  "brasserie": 29434, 
  "and-@@": 6114, 
  "optimum": 5726, 
  "Malawi": 29309, 
  "techniques": 2985, 
  "erer": 31015, 
  "eres": 22623, 
  "draws": 7144, 
  "popul@@": 15364, 
  "Monitoring": 10663, 
  "CB@@": 39580, 
  "thres@@": 47394, 
  "away": 436, 
  "bereitgestellten": 54397, 
  "Mexic@@": 30341, 
  "FC@@": 41964, 
  "erledigt": 65521, 
  "Mainstre@@": 56865, 
  "epide@@": 56538, 
  "religi@@": 39889, 
  "cooperation": 272, 
  "ernal": 33571, 
  "drawn": 2086, 
  "Schweizerische": 49768, 
  "erei": 44134, 
  "encounters": 14337, 
  "shields": 25815, 
  "flexicurity": 19961, 
  "ፈ": 70464, 
  "Höh@@": 51739, 
  "Domingo": 29310, 
  "S-Bahn": 16412, 
  "diese": 15381, 
  "Volks": 66281, 
  "handful": 14126, 
  "hir@@": 36320, 
  "legten": 56539, 
  "righ@@": 16337, 
  "niederländischen": 60270, 
  "Elektro-@@": 54762, 
  "Sever@@": 23073, 
  "travellers": 4691, 
  "KONTAK@@": 76722, 
  "abolished": 8124, 
  "rapporteur": 370, 
  "kitchen": 1977, 
  "Versand@@": 49412, 
  "climate": 659, 
  "summar@@": 32105, 
  "Nax@@": 44661, 
  "MOS": 39086, 
  "Nam@@": 22484, 
  "፣": 65523, 
  "Embargos": 70466, 
  "wichtigste": 56204, 
  "mer@@": 4613, 
  "thy": 7083, 
  "MOO": 26264, 
  "tackl@@": 65525, 
  "cadi@@": 50000, 
  "Dawn": 29556, 
  "disappears": 19023, 
  "hab": 44317, 
  "Erden": 62488, 
  "uniformity": 18891, 
  "tone": 5251, 
  "erman": 36848, 
  "Lenk@@": 50024, 
  "gesenkt": 70468, 
  "ế@@": 57464, 
  "tons": 7029, 
  "Halbinsel": 60272, 
  "Zuweisung": 70469, 
  "Ireland": 1396, 
  "i.e": 8299, 
  "OEM@@": 55039, 
  "sammlung": 50537, 
  "bedenk@@": 64603, 
  "telecommunications": 4911, 
  "arch@@": 8944, 
  "год": 54631, 
  "gratitude": 8215, 
  "etran@@": 52056, 
  "Fahn@@": 70472, 
  "Kerry": 24072, 
  "Gep@@": 46785, 
  "tolerances": 30105, 
  "stitute": 41013, 
  "schö@@": 49537, 
  "Gentoo": 4765, 
  "überarbeiteten": 65527, 
  "Connecticut": 38457, 
  "cz@@": 12655, 
  ".m@@": 43917, 
  "Wohlfahrtsstaat": 70473, 
  "compatriots": 28318, 
  "Hungarians": 16276, 
  "Corbey": 35671, 
  "Belize": 18283, 
  "Geber@@": 56541, 
  "ehrt": 57799, 
  "attacked": 7405, 
  "ausgiebig": 70474, 
  "therly": 29974, 
  "zuvorkomm@@": 56476, 
  "Asia-@@": 41563, 
  "attacker": 13785, 
  "Mat@@": 6457, 
  "ehre": 55745, 
  "Wrocław": 31280, 
  "Dialog": 28707, 
  "Entgegenkommen": 69888, 
  "engen@@": 29975, 
  "üll@@": 70476, 
  "win-win": 23967, 
  "gracious": 32018, 
  "CIPRA": 42159, 
  "Heinz": 27605, 
  "tioning": 12737, 
  "reciprocal": 12540, 
  "vage": 25780, 
  "Erlaubnis": 52057, 
  "vernach@@": 53865, 
  "Zwöl@@": 49538, 
  "gna": 35837, 
  "adise": 62490, 
  "tees": 32584, 
  "gne": 26073, 
  "Pre@@": 6864, 
  "unlikely": 5857, 
  "cylinder": 11765, 
  "cons": 15432, 
  "COR@@": 15026, 
  "vogel": 46083, 
  "appartement": 43153, 
  "Athens": 7781, 
  "Druckerei": 52058, 
  "separatist": 25781, 
  "elektron@@": 50845, 
  "tissue": 7887, 
  "cone": 14850, 
  "conf": 25468, 
  "Convention": 1064, 
  "sl@@": 4863, 
  "plom@@": 52449, 
  "Verwir@@": 70480, 
  "Colonia": 40562, 
  "PARTN@@": 41965, 
  "ulates": 30624, 
  "isionen": 70482, 
  "plut@@": 39258, 
  "Strassen@@": 51858, 
  "sq@@": 15213, 
  "renoviert": 55040, 
  "staff@@": 38422, 
  "ulated": 12612, 
  "Piétrasanta": 42571, 
  "kunst": 42336, 
  "Spezi@@": 52451, 
  "Ägypten": 51112, 
  "seines": 49159, 
  "liv@@": 13818, 
  "Setup": 21891, 
  "Pedi@@": 46949, 
  "Müll@@": 44209, 
  "wheel": 4948, 
  "Infektions@@": 65530, 
  "fuss": 24812, 
  "TAR@@": 38002, 
  "illary": 36204, 
  "hang": 9269, 
  "Samstag@@": 74218, 
  "counterparts": 9784, 
  "hand": 441, 
  "liberties": 10152, 
  "خ@@": 43701, 
  "ausschließen": 73078, 
  "ban@@": 6708, 
  "animations": 15604, 
  "Grun@@": 43282, 
  "Schwierigkeitsgrad": 70484, 
  "felder": 45478, 
  "feldes": 60274, 
  "Mausoleum": 45959, 
  "General@@": 42942, 
  "XAMP@@": 60275, 
  "whereby": 4292, 
  "1600": 17778, 
  "humble": 16703, 
  "星@@": 70487, 
  "Konditionen": 62491, 
  "Parma": 27217, 
  "oning": 10180, 
  "gekämpft": 73673, 
  "client": 1747, 
  "Subcommittee": 26592, 
  "Cassidy": 41747, 
  "easily": 1032, 
  "Strombo@@": 53322, 
  "tabling": 9907, 
  "Victor": 16496, 
  "gil@@": 20628, 
  "pronouncements": 28352, 
  "diam@@": 44646, 
  "EKO": 49827, 
  "traditions": 3389, 
  "fen@@": 16133, 
  "Galvan@@": 47739, 
  "redi@@": 42529, 
  "Modernis@@": 52453, 
  "43": 5128, 
  "éa": 46983, 
  "Cambodia": 9247, 
  "einzunehmen": 70488, 
  "Werden": 52858, 
  "casu@@": 33207, 
  "Lorenzo": 17531, 
  "thanks": 669, 
  "Duft": 61078, 
  "Verteidigungs@@": 73685, 
  "stellungen": 60841, 
  "kalender": 55899, 
  "toughness": 31435, 
  "Autoh@@": 53866, 
  "antes": 22278, 
  "anter": 47740, 
  "dorff": 36849, 
  "rungen": 61273, 
  "Us@@": 40822, 
  "similarities": 17938, 
  "reg@@": 6690, 
  "57@@": 28353, 
  "Story": 23821, 
  "zuweilen": 70489, 
  "shout": 32328, 
  "Entstehungs@@": 70490, 
  "fourthly": 7694, 
  "anted": 26074, 
  "द्@@": 29613, 
  "openings": 18354, 
  "antem": 70491, 
  "harness@@": 25173, 
  "Untersuchungen": 51740, 
  "anten": 47568, 
  "車": 70492, 
  "lic@@": 7394, 
  "usable": 8771, 
  "insensitive": 30748, 
  "Restaurant": 3830, 
  "Transc@@": 33710, 
  "dising": 29614, 
  "gewollt": 70495, 
  "cosmetic": 8923, 
  "s-@@": 3280, 
  "-Lou@@": 47569, 
  "Sozial@@": 46346, 
  "MASSIVE": 41368, 
  "designers": 6140, 
  "unfounded": 16899, 
  "Wind": 21736, 
  "Wine": 12020, 
  "constitution": 3139, 
  "eroded": 18744, 
  "mir": 17032, 
  "egelung": 57467, 
  "Winamp": 33577, 
  "manipulated": 16296, 
  "cooler": 23000, 
  "Krab@@": 53200, 
  "cool": 4524, 
  "Zapati@@": 24309, 
  "öhler": 49086, 
  "Währungs-": 70498, 
  "coolen": 57468, 
  "sparse": 33572, 
  "night": 900, 
  "Maribor": 35141, 
  "cooled": 17425, 
  "Co": 6266, 
  "fähigkeit": 54398, 
  "-Bit": 50025, 
  "eX@@": 31281, 
  "beschließt": 65535, 
  "Satt@@": 48400, 
  "Galway": 21699, 
  "Nadel": 65377, 
  "bors": 43702, 
  "Berlin": 1049, 
  "Commission": 60, 
  "Italia": 14284, 
  "áz@@": 35672, 
  "borg": 19276, 
  "bore": 17745, 
  "bord": 43575, 
  "Verkehr@@": 58682, 
  "erhöhte": 65536, 
  "Schönheiten": 73751, 
  "confusing": 11655, 
  "Schule": 39328, 
  "congratulate": 1227, 
  "Ceder@@": 55042, 
  "Clou@@": 45876, 
  "Kaffe@@": 55043, 
  "Phi@@": 44552, 
  "Oldtimer": 50804, 
  "Ordin@@": 36465, 
  "Tim": 22335, 
  "Tram": 38410, 
  "asking": 2180, 
  "Tiroler": 46455, 
  "Lexikon": 55746, 
  "strada": 22549, 
  "participation": 1530, 
  "Gray": 38003, 
  "Graz": 12716, 
  "Empfän@@": 70500, 
  "Aer@@": 19611, 
  "peel": 30106, 
  "Sortiment": 60277, 
  "Glu@@": 34988, 
  "coleg@@": 31282, 
  "joint-@@": 32481, 
  "Near": 21627, 
  "architectural": 5214, 
  "substitution": 15663, 
  "peer": 12251, 
  "Dachterrasse": 70501, 
  "eln@@": 40893, 
  "observ@@": 24224, 
  "Grad": 47395, 
  "Hinterglem@@": 56138, 
  "selva": 35250, 
  "理": 70503, 
  "Ortes": 65538, 
  "球": 70504, 
  "earbei@@": 70505, 
  "Orten": 55044, 
  "unerwünschten": 65540, 
  "captured": 7564, 
  "Wissens@@": 52454, 
  "Ocster": 36997, 
  "storniert": 69100, 
  "waf@@": 20536, 
  "step@@": 12695, 
  "konnen": 57470, 
  "Galt@@": 43130, 
  "ESTA": 39723, 
  "od": 10666, 
  "wasting": 14948, 
  "Abdullah": 22892, 
  "profession": 6967, 
  "attorney": 18020, 
  "thermische": 70881, 
  "rendering": 10004, 
  "cost-efficient": 24061, 
  "zimmer-@@": 70506, 
  "decim@@": 24997, 
  "Feminismus": 70507, 
  "Belgra@@": 48910, 
  "familiarize": 32932, 
  "euro-@@": 15411, 
  "deception": 20629, 
  "üre": 58683, 
  "Chameleon": 31830, 
  "Blase": 70508, 
  "GetYourGuide": 21934, 
  "üro": 65542, 
  "sovereign": 4796, 
  "load-@@": 37254, 
  "Ny@@": 13136, 
  "Regency": 31146, 
  "Englisch": 41748, 
  "conservation": 5009, 
  "châ@@": 39891, 
  "Photosmart": 35329, 
  "Donal@@": 41966, 
  "Danu@@": 46634, 
  "Maked@@": 46642, 
  "ITER@@": 43014, 
  "ationen": 49348, 
  "ʃ@@": 62495, 
  "slope": 9260, 
  "Wohnen": 48897, 
  "diligence": 15139, 
  "Meisterwerk": 65543, 
  "Anđ@@": 52455, 
  "referendums": 11005, 
  "schweigen": 70509, 
  "garages": 24554, 
  "needles": 20217, 
  "Epila": 36322, 
  "gal@@": 11600, 
  "Belder": 22550, 
  "ک@@": 51113, 
  "anstrengend": 65410, 
  "mega-@@": 27005, 
  "reproductive": 8616, 
  "ку": 36998, 
  "ancestral": 27697, 
  "maximum": 1289, 
  "Sap@@": 23554, 
  "Hoher": 51542, 
  "isie": 37139, 
  "authorization": 9892, 
  "coverings": 30342, 
  "Wechsel": 54685, 
  "firewalls": 30493, 
  "reichung": 72735, 
  "kästchen": 70511, 
  "Cream": 36383, 
  "ausgelesen": 70512, 
  "er@@": 1643, 
  "Mühl@@": 36710, 
  "äl@@": 27606, 
  "chancell@@": 28315, 
  "underwater": 10641, 
  "Some": 17876, 
  "Charlotten@@": 50805, 
  "Nordosten": 70514, 
  "kommunistischen": 70515, 
  "rific": 70516, 
  "erfreulich": 65544, 
  "15-@@": 12818, 
  "Sch@@": 4245, 
  "expertise": 2472, 
  "ronen": 62496, 
  "prayer": 11225, 
  "erode": 29596, 
  "schlanke": 65545, 
  "Zö@@": 54725, 
  "harassment": 11294, 
  "MEDA-@@": 62497, 
  "1,000": 8111, 
  "Inclu@@": 29826, 
  "fasc@@": 30212, 
  "beschäf@@": 77224, 
  "far@@": 8741, 
  "valuing": 31812, 
  "wollten": 53867, 
  "fünfte": 70519, 
  "tesa": 30494, 
  "ness@@": 35464, 
  "Falls": 22138, 
  "Alanya": 32176, 
  "COMP@@": 18304, 
  "tesy": 49141, 
  "Thur@@": 20921, 
  "test": 1071, 
  "Falle": 47107, 
  "ausgesch@@": 65547, 
  "quot@@": 36466, 
  "artificially": 16477, 
  "funktions@@": 65548, 
  "Flüchtlinge": 62305, 
  "Reiches": 60278, 
  "QU@@": 12797, 
  "Afghanist@@": 53868, 
  "update": 2176, 
  "improvisation": 28354, 
  "politisch-@@": 70521, 
  "Trial": 27521, 
  "authoritarianism": 29558, 
  "AVI@@": 37902, 
  "Iberotel": 41749, 
  "Jord@@": 29580, 
  "later@@": 42160, 
  "जा@@": 21412, 
  "glyc@@": 33146, 
  "non-@@": 860, 
  "leitungs@@": 58901, 
  "Berichte": 58687, 
  "konkurrenz@@": 70523, 
  "Plasma@@": 48571, 
  "ebox": 35437, 
  "Berthu": 38458, 
  "ez-@@": 38311, 
  "fried@@": 48234, 
  "Saas-Fee": 41354, 
  "commenced": 17452, 
  "spuren": 53869, 
  "cohesion": 1423, 
  "surv@@": 52456, 
  "depl@@": 18789, 
  "banquets": 16134, 
  "Keller": 27117, 
  "unausweichlich": 65550, 
  "trennen": 62498, 
  "Zür@@": 47108, 
  "songs": 4060, 
  "tribunals": 29175, 
  "concept": 1141, 
  "abgesetzt": 70524, 
  "regrettably": 9565, 
  "diplomacy": 7079, 
  "Verhältnis": 52860, 
  "keep": 623, 
  "Pont": 25535, 
  "父": 70525, 
  "horseback": 14949, 
  "salmon@@": 50275, 
  "supplement": 6462, 
  "Republic": 1159, 
  "sor@@": 8235, 
  "battle": 3262, 
  "igh@@": 14879, 
  "fortun@@": 40612, 
  "polluted": 15005, 
  "Republik": 47250, 
  "A330": 30749, 
  "Vorraus@@": 70526, 
  "layers": 6593, 
  "Migranten": 67523, 
  "Burg": 22485, 
  "rehear@@": 17900, 
  "Innenminister": 70527, 
  "gebundene": 65551, 
  "Burn": 34753, 
  "Schlauch": 66725, 
  "Genehmigung": 52671, 
  "aristocratic": 26700, 
  "dissatisfied": 22139, 
  "defl@@": 13743, 
  "Lenti@@": 42697, 
  "gige": 58688, 
  "Elefanten": 53532, 
  "Temper@@": 42530, 
  "AKP-@@": 65782, 
  "hellen": 62499, 
  "aland": 39892, 
  "-innen": 62500, 
  "Princes": 24310, 
  "estation": 26593, 
  "ennetz": 70529, 
  "mountain-@@": 25679, 
  "automobiles": 17596, 
  "Weiter@@": 53870, 
  "Artistic": 31436, 
  "öh@@": 38575, 
  "polluter": 13550, 
  "airing": 23209, 
  "hamlet": 20227, 
  "wärts@@": 65553, 
  "asso@@": 33940, 
  "Räu@@": 57474, 
  "Netto@@": 55748, 
  "gue": 9971, 
  "artific@@": 41370, 
  "smuggling": 11285, 
  "turns": 4721, 
  "gekennzeichnet": 57475, 
  "gun": 10699, 
  "gum": 23996, 
  "gul": 30213, 
  "ೈ": 73939, 
  "ain@@": 7962, 
  "Aussehen": 60280, 
  "gut": 15803, 
  "Str@@": 11508, 
  "Szenen": 51423, 
  "guy": 12992, 
  "FlexRay": 34161, 
  "Gior@@": 45127, 
  "incl.": 23306, 
  "Aten@@": 34967, 
  "cose": 33329, 
  "gef@@": 45721, 
  "verifiable": 23846, 
  "cosa": 34876, 
  "ship@@": 12449, 
  "": 62191, 
  "CMC": 39581, 
  "ง@@": 51741, 
  "park@@": 29559, 
  "Wasserfälle": 64485, 
  "на": 14660, 
  "Müller": 11620, 
  "cost": 732, 
  "не": 29176, 
  "": 70532, 
  "entsprechendes": 58864, 
  "forging": 16808, 
  "Wy@@": 18267, 
  "veranstaltete": 66375, 
  "Ziff": 51742, 
  "CMS": 12277, 
  "iors": 38931, 
  "cosy": 3282, 
  "но": 19823, 
  "Eurojust": 12286, 
  "raschen": 74067, 
  "Form": 12552, 
  "foregoing": 26203, 
  "shares": 3155, 
  "Ford": 7908, 
  "Cockpit": 44662, 
  "威@@": 70533, 
  "bureaucratic": 5211, 
  "Füssen": 46272, 
  "BEST": 26329, 
  "": 55045, 
  "shared": 1932, 
  "oaks": 32482, 
  "Renewable": 33941, 
  "Fort": 15009, 
  "bap@@": 23813, 
  "Vitam@@": 56544, 
  "Datenschutzbestimmungen": 70534, 
  "Fuhr@@": 52457, 
  "deepened": 24804, 
  "smil@@": 32933, 
  "diensten": 51114, 
  "Hund@@": 38613, 
  "boten": 63694, 
  "English": 1132, 
  "TENs": 23333, 
  "Custom@@": 32790, 
  "Distribution": 19380, 
  "teaches": 13978, 
  "teacher": 5659, 
  "VMware": 37399, 
  "Counter@@": 28139, 
  "sending": 3129, 
  "box-@@": 36467, 
  "CVI": 40420, 
  "Portugal": 2303, 
  "spontaneous": 15388, 
  "noch@@": 54399, 
  "Pres@@": 7876, 
  "versuch": 58690, 
  "Vertrieb@@": 58691, 
  "burdensome": 30107, 
  "möglich": 42339, 
  "Fähn@@": 62505, 
  "sour@@": 33573, 
  "domains": 9193, 
  "Asy@@": 55048, 
  "pillow": 21413, 
  "430": 26265, 
  "Commun@@": 36583, 
  "Benalmádena": 42698, 
  "regardless": 3177, 
  "ctions": 22551, 
  "extra": 1419, 
  "lusion@@": 65555, 
  "Remo": 41260, 
  "klickt": 69133, 
  "Isaak": 45700, 
  "losing": 4597, 
  "Lat@@": 9235, 
  "RS-@@": 31016, 
  "Isaac": 26479, 
  "rün@@": 52458, 
  "Pine": 35932, 
  "first-rate": 23253, 
  "Chats": 52459, 
  "ational@@": 62506, 
  "Customers": 17213, 
  "Endur@@": 40291, 
  "Arbeiten": 49539, 
  "Dies": 52460, 
  "Tang@@": 35534, 
  "Fels": 54400, 
  "Diet": 36323, 
  "Angreifern": 67444, 
  "Fell": 52861, 
  "wonderfully": 17390, 
  "Comm@@": 11283, 
  "Feld": 50539, 
  "bige": 70538, 
  "eships": 27414, 
  "rainfall": 16184, 
  "lerinnen": 58692, 
  "incident": 6445, 
  "jedenfalls": 57238, 
  "refres@@": 44663, 
  "WM@@": 24555, 
  "neugierig": 70539, 
  "exhibitor": 23142, 
  "korrekten": 61407, 
  "lea@@": 18355, 
  "Orch@@": 35254, 
  "länger": 52341, 
  "repar@@": 27925, 
  "Tomm@@": 43703, 
  "Cov@@": 49143, 
  "Sneaker": 53871, 
  "abgerufen": 60283, 
  "Ki-moon": 36324, 
  "ibn": 40823, 
  "defeats": 25881, 
  "zeuger": 70542, 
  "fortified": 15577, 
  "unnötige": 65560, 
  "acon": 41967, 
  "decken": 58693, 
  "Webinar": 49350, 
  "abyte": 36325, 
  "decker": 41014, 
  "Johann": 12959, 
  "glass@@": 29688, 
  "zeugen": 62508, 
  "disinfection": 30887, 
  "torante": 37687, 
  "Gahler": 35866, 
  "trans": 32934, 
  "beantrag@@": 65561, 
  "Archiv@@": 55046, 
  "ERT": 43015, 
  "regularly": 2774, 
  "ERP": 12522, 
  "vater": 58694, 
  "chip": 7326, 
  "et-style": 31283, 
  "chiv": 50643, 
  "sake": 4600, 
  "weighting": 19881, 
  "set-@@": 26163, 
  "chin": 24637, 
  "zaht@@": 41012, 
  "In@@": 2081, 
  "ERN": 43954, 
  "chia": 28827, 
  "occur": 2994, 
  "schrei@@": 53872, 
  "Pizza": 36903, 
  "NPCs": 35779, 
  "pret@@": 33461, 
  "Ann@@": 15920, 
  "Christi@@": 21414, 
  "discussion": 1077, 
  "spreads": 11937, 
  "Is@@": 8330, 
  "sillon": 36435, 
  "lounge": 3445, 
  "Teg@@": 42946, 
  "Gent@@": 36468, 
  "Altiero": 42699, 
  "propylene": 50748, 
  "kreiert": 65563, 
  "Schir@@": 46635, 
  "economy": 467, 
  "armies": 12120, 
  "product": 434, 
  "unbeatable": 15113, 
  "energiespar@@": 70544, 
  "-ups": 21177, 
  "Ausrüstungen": 62510, 
  "escalate": 29689, 
  "ψ@@": 53323, 
  "P.@@": 15831, 
  "Steu@@": 53203, 
  "Indi@@": 12088, 
  "Blö@@": 58695, 
  "Schuh": 52862, 
  "Hochebene": 60286, 
  "produce": 1121, 
  "Whi@@": 48066, 
  "zeichnung": 58696, 
  "Wenz@@": 44553, 
  "Martin": 4355, 
  "Publish@@": 36850, 
  "pe@@": 3849, 
  "Model": 12300, 
  "Modem": 46951, 
  "Keynes": 20889, 
  "Anwendungen": 51709, 
  "modernism": 27982, 
  "günstigste": 62511, 
  "Dieter": 19489, 
  "grandson": 29178, 
  "vorher@@": 70545, 
  "Shia": 18840, 
  "freund@@": 55750, 
  "duc@@": 11272, 
  "you-@@": 32177, 
  "Neuschwanstein": 42531, 
  "Radio": 7737, 
  "Computer-@@": 50276, 
  "species": 2299, 
  "Ship": 29977, 
  "AVC": 41840, 
  "kurs": 51424, 
  "werks@@": 61461, 
  "QLA": 37901, 
  "polation": 40059, 
  "agrams": 49769, 
  "approx": 5359, 
  "serving": 4065, 
  "Sheet": 33503, 
  "endes": 50026, 
  "Hall@@": 19014, 
  "sletter": 73459, 
  "Mechanical": 33397, 
  "sexually": 18550, 
  "raised": 1359, 
  "Jap": 65565, 
  "Jan": 8490, 
  "ended": 3343, 
  "stile": 40421, 
  "Jam": 37455, 
  "disparities": 8501, 
  "api@@": 32639, 
  "Qui@@": 28468, 
  "endem": 58697, 
  "onien": 45333, 
  "still": 181, 
  "Mandela": 20416, 
  "RT": 29690, 
  "RU": 42161, 
  "threat": 1811, 
  "000,000": 20568, 
  "RP": 27218, 
  "RS": 18515, 
  "Anregungen": 60287, 
  "facility": 3239, 
  "Privat@@": 39725, 
  "RY": 41371, 
  "RD": 34091, 
  "RE": 21290, 
  "RF": 16900, 
  "sharehol@@": 29179, 
  "spacious": 2063, 
  "RC": 13786, 
  "trenn@@": 58698, 
  "RM": 28591, 
  "EU-Mitgliedstaaten": 70546, 
  "RO": 4837, 
  "RH": 36205, 
  "RI": 8257, 
  "Satur@@": 36711, 
  "emigrants": 31017, 
  "correspondence": 11329, 
  "nom": 33330, 
  "non": 5700, 
  "nod": 31867, 
  "macro-economic": 14422, 
  "willige": 60289, 
  "plain@@": 21025, 
  "alist": 5661, 
  "IZ@@": 20108, 
  "introduce": 1964, 
  "sol": 21127, 
  "yields": 11138, 
  "Deckung": 73876, 
  "adrenaline": 29827, 
  "-Scott": 70548, 
  "alism": 4346, 
  "Brenta": 29691, 
  "wealthy": 9470, 
  "besichtigt": 70540, 
  "R.": 14560, 
  "now": 93, 
  "neuere": 62399, 
  "alise": 6151, 
  "nor": 964, 
  "nos": 17597, 
  "formulierten": 65566, 
  "itze": 52060, 
  "carrying": 3276, 
  "thankful": 26940, 
  "uncertain": 8141, 
  "Hollywood": 10902, 
  "drop": 3788, 
  "Mountainbike-@@": 62513, 
  "Aaron": 26266, 
  "Pocket@@": 41176, 
  "Annul@@": 70549, 
  "magazin": 44441, 
  "lieben": 56584, 
  "Lieferanten@@": 70550, 
  "dron": 35674, 
  "drom": 44882, 
  "Skin": 35099, 
  "ARPRO": 34265, 
  "Agricultural": 12845, 
  "jährliche": 61730, 
  "spieler": 53324, 
  "Tin@@": 17281, 
  "10-minute": 12466, 
  "Konkurrenten": 66049, 
  "furnishing": 15942, 
  "Passes": 46084, 
  "prompted": 10238, 
  "challenged": 9695, 
  "Attersee": 41372, 
  "Museum": 2245, 
  "ächte": 60291, 
  "begraben": 70553, 
  "ungstechnologie": 74394, 
  "Legal": 3763, 
  "challenges": 1181, 
  "stabilität": 69978, 
  "beliebige": 65568, 
  "year": 144, 
  "GU@@": 12051, 
  "naming": 13880, 
  "Simulation": 42108, 
  "monitors": 9595, 
  "Petition": 47251, 
  "си@@": 25575, 
  "fixen": 70528, 
  "ron@@": 7539, 
  "furthermore": 1045, 
  "Energiepaket": 70555, 
  "thirst": 23074, 
  "Kontra@@": 54402, 
  "Norwegian": 10744, 
  "León": 33091, 
  "wholeheartedly": 8338, 
  "fy": 6880, 
  "бо@@": 29311, 
  "Tarifa": 8205, 
  "Netzwerks": 69136, 
  "ebuil@@": 26381, 
  "zählt": 55090, 
  "glück": 70557, 
  "im@@": 1971, 
  "advantaged": 45722, 
  "gesorgt": 62514, 
  "ला@@": 21563, 
  "improvement": 1906, 
  "ин@@": 28828, 
  "divergence": 20327, 
  "diagnostic": 10516, 
  "dependencies": 16996, 
  "advantages": 2559, 
  "ir@@": 3754, 
  "ʋ@@": 73082, 
  "Produktions-": 78524, 
  "hegemoni@@": 70559, 
  "Pumpen": 55751, 
  "Europe@@": 20922, 
  "UEN@@": 49540, 
  "on-@@": 4203, 
  "unsuccessful": 14091, 
  "liefert": 57479, 
  "fa": 12406, 
  "transition": 2970, 
  "Harbour": 8961, 
  "br@@": 6259, 
  "int": 12883, 
  "ro-@@": 27118, 
  "frieden": 55752, 
  "Erik": 32530, 
  "invitation": 5758, 
  "510": 28469, 
  "outcry": 31437, 
  "512": 25157, 
  "Thessalon@@": 47570, 
  "suffice": 13318, 
  "Zeb@@": 42241, 
  "king-@@": 21482, 
  "blind": 5367, 
  "gegenstände": 65438, 
  "bling": 9459, 
  "zurückzu@@": 55066, 
  "ff": 5502, 
  "ዓ@@": 57481, 
  "Stainless": 33625, 
  "Flick@@": 49144, 
  "Ч@@": 52061, 
  "Sklaverei": 70562, 
  "fabrik": 28708, 
  "intra-Community": 28368, 
  "experten": 64628, 
  "rink": 31498, 
  "bibliothek": 44232, 
  "Medicine": 15010, 
  "博@@": 53325, 
  "ring": 3725, 
  "konzepten": 70563, 
  "rina": 33208, 
  "tomorrow": 1198, 
  "к@@": 9677, 
  "constructing": 11104, 
  "Pubs": 50806, 
  "gutgeschrieben": 70418, 
  "Analysen": 53326, 
  "-Rep@@": 44085, 
  "Blottnitz": 35214, 
  "caught": 5285, 
  "aufheben": 74720, 
  "Kosov@@": 30888, 
  "Abruzzo": 28356, 
  "remotely": 16185, 
  "Lieutenant": 14610, 
  "Erwerb": 54403, 
  "Von@@": 26016, 
  "aufgenommenen": 74206, 
  "nightlife": 7472, 
  "restriktiven": 70565, 
  "fo": 18268, 
  "Response": 30495, 
  "Windows-@@": 39858, 
  "authorized": 6515, 
  "daneben": 69656, 
  "stattfindenden": 58700, 
  "interest-@@": 46348, 
  "asymmetric": 19469, 
  "brains": 20417, 
  "schlecht": 54842, 
  "BN@@": 23143, 
  "diebstahl": 74224, 
  "cré@@": 34990, 
  "Bugzilla": 40824, 
  "soren": 70571, 
  "schi@@": 30750, 
  "Gahrton": 35100, 
  "Poker@@": 16962, 
  "bemerken": 70572, 
  "Led@@": 34042, 
  "Zoo": 15856, 
  "ff-@@": 41968, 
  "appreciated": 5667, 
  "png": 41373, 
  "kein": 32238, 
  "professionals": 3125, 
  "Brüssel@@": 70573, 
  "Ruck@@": 58701, 
  "ъ@@": 33419, 
  "箱@@": 65573, 
  "Creator": 20368, 
  "characters": 3694, 
  "CrypTool": 34293, 
  "ganz@@": 60296, 
  "transferred": 3771, 
  "Grande": 11678, 
  "ec@@": 2171, 
  "applet": 29978, 
  "text@@": 32791, 
  "vocals": 20775, 
  "apples": 20418, 
  "Kill@@": 44554, 
  "laminate": 31019, 
  "Passion": 34114, 
  "Settlement": 21178, 
  "whel@@": 50277, 
  "vernetzten": 63785, 
  "Freer@@": 52521, 
  "Issu@@": 38831, 
  "Gär@@": 55754, 
  "Marcos": 28941, 
  "ML-@@": 49541, 
  "dynamically": 14391, 
  "Weiterbildungs@@": 52023, 
  "Chau@@": 37755, 
  "Demet@@": 48402, 
  "overnight": 6828, 
  "einnimmt": 65575, 
  "Anfängen": 59352, 
  "ー@@": 47110, 
  "Heal@@": 37401, 
  "Quartier": 38459, 
  "oleum": 28709, 
  "Dorint": 35101, 
  "Commune": 34754, 
  "freigestellt": 70575, 
  "Fran@@": 8732, 
  "Pomp@@": 30108, 
  "Brandschutz@@": 65928, 
  "Jet@@": 23334, 
  "jection": 23904, 
  "auswählen": 63793, 
  "Opi@@": 51743, 
  "Aneignung": 74270, 
  "Petra": 30295, 
  "equipment": 919, 
  "Seehöhe": 70577, 
  "rannten": 68145, 
  "Abonn@@": 59356, 
  "Uigh@@": 33574, 
  "珠@@": 59358, 
  "일@@": 76569, 
  "atu@@": 37509, 
  "authorising": 18888, 
  "Off": 24556, 
  "File": 9220, 
  "Attach@@": 43631, 
  "attractiveness": 17939, 
  "neatly": 26267, 
  "vala": 42700, 
  "teach@@": 41177, 
  "äume": 62516, 
  "Publikums@@": 73344, 
  "verzö@@": 60008, 
  "biotechn@@": 41565, 
  "Break@@": 27698, 
  "lehnt": 74279, 
  "Pak@@": 29979, 
  "precedents": 26701, 
  "aufgebaut": 58014, 
  "bot@@": 11260, 
  "ト@@": 56264, 
  "Kollektiv@@": 70581, 
  "Ensem@@": 65578, 
  "Toren": 54404, 
  "Devise": 65579, 
  "Zábor@@": 74157, 
  "reform": 721, 
  "third-@@": 16266, 
  "Module": 13898, 
  "expliz@@": 70583, 
  "プ@@": 65580, 
  "CAC@@": 38614, 
  "onium": 48138, 
  "Elektronik-@@": 57482, 
  "cracks": 20382, 
  "sonen": 61887, 
  "Kompass": 50278, 
  "Web": 1762, 
  "Giann@@": 38312, 
  "Weg": 39088, 
  "colum@@": 34163, 
  "Wei": 39259, 
  "scoreboard": 18973, 
  "Wen": 32640, 
  "Galeote": 25276, 
  "Schnees@@": 50535, 
  "Wer": 51426, 
  "sibly": 40219, 
  "gletscher": 45480, 
  "30-40": 41969, 
  "perfekt": 48403, 
  "Domenico": 37651, 
  "wood-@@": 20731, 
  "９@@": 70586, 
  "TA@@": 11909, 
  "schlägt": 62519, 
  "snack": 9309, 
  "se-@@": 11439, 
  "GRUB": 31718, 
  "dana": 28022, 
  "HSH": 40422, 
  "Mitgliedern": 49771, 
  "Beweg@@": 54405, 
  "ationalen": 70587, 
  "lesbar": 70588, 
  "dkrö@@": 61535, 
  "enriched": 10827, 
  "Konstantin@@": 50541, 
  "öfen": 62520, 
  "amera": 46350, 
  "stain": 34616, 
  "entsprechen": 54021, 
  "Luther": 21996, 
  "Africans": 14511, 
  "admissible": 19953, 
  "agentur": 47111, 
  "Legalisierung": 65585, 
  "schreibung": 57483, 
  "Knor@@": 53657, 
  "SCH@@": 11729, 
  "interregional": 27119, 
  "cyclists": 12322, 
  "stischen": 74976, 
  "Siusi": 28470, 
  "SYN@@": 39582, 
  "Ausschüsse": 70589, 
  "jeher": 70590, 
  "stroll": 6463, 
  "糖@@": 70591, 
  "Costasur": 14561, 
  "arly": 29751, 
  "barocke": 70592, 
  "Eigen@@": 51786, 
  "Martha": 34877, 
  "ammlung": 60509, 
  "poul@@": 37288, 
  "Intellectual": 21415, 
  "Bethleh@@": 70594, 
  "gründete": 64373, 
  "21.@@": 17493, 
  "reven@@": 44694, 
  "DÜ@@": 41970, 
  "ierbarkeit": 63512, 
  "Sandwiches": 63301, 
  "Salz@@": 32641, 
  "EMF": 34043, 
  "EMA": 20109, 
  "EMC": 27415, 
  "burst": 13864, 
  "Tamp@@": 43155, 
  "zipat@@": 70595, 
  "Zoll@@": 36654, 
  "EMI": 23401, 
  "hoek": 33332, 
  "EMU": 5789, 
  "公": 70596, 
  "actively": 3020, 
  "Lotterie": 58703, 
  "ägyptischen": 62523, 
  "EMS": 17598, 
  "staunch": 30008, 
  "perior": 70597, 
  "oberen": 59374, 
  "endete": 55050, 
  "wahrheits@@": 70599, 
  "attraktive": 53874, 
  "Akkumul@@": 70600, 
  "衆@@": 70601, 
  "suspects": 15752, 
  "schreien": 65591, 
  "Meisterschaft": 55051, 
  "Ecke": 50807, 
  "andale": 54347, 
  "colours": 3504, 
  "Lithu@@": 38313, 
  "Krieger": 51115, 
  "Krieges": 58704, 
  "wechsel": 51116, 
  "Members": 449, 
  "Auftritte": 62524, 
  "nicest": 23071, 
  "cardiovascular": 17971, 
  "wertungen": 70603, 
  "euten": 65338, 
  "therapies": 13805, 
  "intimid@@": 18060, 
  "Wert": 48067, 
  "Langstrecken@@": 67623, 
  "Gesetz": 47758, 
  "employer": 9241, 
  "Nächten": 70605, 
  "broch@@": 55052, 
  "ind": 15098, 
  "Tu@@": 7175, 
  "männer": 60300, 
  "Team": 5149, 
  "Werk": 41689, 
  "MI@@": 22754, 
  "sel@@": 7199, 
  "Ballet": 36885, 
  "Gesch@@": 48404, 
  "aturen": 60034, 
  "recovered": 9992, 
  "cor@@": 3540, 
  "resides": 19171, 
  "blad@@": 53327, 
  "Sprün@@": 51429, 
  "MF@@": 28032, 
  "sper@@": 20059, 
  "finder@@": 46085, 
  "Malaysia": 8706, 
  "Strateg@@": 43841, 
  "enland": 37520, 
  "Unicode": 17641, 
  "Escape": 42340, 
  "Screenshots": 50279, 
  "Tutorial": 41374, 
  "Handy@@": 45128, 
  "Script@@": 45611, 
  "zab@@": 40827, 
  "ovski": 47606, 
  "madness": 17494, 
  "esens": 62525, 
  "jeans": 26268, 
  "Sachs": 25174, 
  "arsen@@": 21128, 
  "serwartungen": 65593, 
  "exploit": 5989, 
  "North@@": 21316, 
  "aming": 10021, 
  "perpetrators": 10308, 
  "Sache": 45027, 
  "charismatic": 29560, 
  "amino": 29692, 
  "FEKO": 42661, 
  "state-of-the-art": 5162, 
  "emart": 62526, 
  "Disc@@": 31719, 
  "vierten": 53875, 
  "Brems@@": 60302, 
  "baseball": 23597, 
  "tropical": 5416, 
  "Personal": 7445, 
  "Recon@@": 31868, 
  "dictator": 10612, 
  "Dolomiti": 21043, 
  "Vall@@": 14317, 
  "pomm@@": 46213, 
  "Hektik": 64734, 
  "apier": 49772, 
  "dr@@": 6023, 
  "Jugendliche": 56551, 
  "dedly": 32179, 
  "Telekom": 21867, 
  "empathy": 32950, 
  "Kazakh@@": 50723, 
  "ambience": 6407, 
  "make-@@": 43576, 
  "suspected": 9248, 
  "Vincent": 23210, 
  "skiers": 10058, 
  "millenn@@": 42815, 
  "n@@": 1086, 
  "Papier@@": 51053, 
  "protokoll@@": 65423, 
  "line-@@": 25469, 
  "Südkorea": 70611, 
  "bereiten": 65597, 
  "ide-@@": 31438, 
  "bereitet": 62528, 
  "Fujimori": 40423, 
  "fines": 10990, 
  "bereiter": 70614, 
  "schau": 40424, 
  "ludic@@": 53876, 
  ".In": 34963, 
  "眼@@": 62529, 
  "rass@@": 46505, 
  "Fiji": 21073, 
  "PowerPoint": 20616, 
  "Anth@@": 37255, 
  "fool": 20127, 
  "GNP": 13561, 
  "in-depth": 6149, 
  "97-@@": 33575, 
  "Ravenna": 18128, 
  "GNU": 4742, 
  "SON@@": 23402, 
  "metric": 17293, 
  "Betten": 51744, 
  "FS@@": 19882, 
  "&apos;ll": 1277, 
  "Better": 20569, 
  "polic@@": 21564, 
  "ulo@@": 40974, 
  "Haustür": 70615, 
  "waterway": 17214, 
  "GNI": 25032, 
  "sivität": 70616, 
  "Israel": 1319, 
  "schwarzes": 65600, 
  "develop": 826, 
  "Treffer": 75119, 
  "Releas@@": 49145, 
  "Citadines": 35102, 
  "inquire": 26904, 
  "Wörthersee": 39392, 
  "Alessandro": 36542, 
  "ausgebildeten": 65602, 
  "inquiry": 5611, 
  "Indonesien": 74478, 
  "besitzt": 55054, 
  "Treffen": 48767, 
  "unnels": 52066, 
  "wettbewerbs": 70618, 
  "schwarzen": 55055, 
  "k@@": 1202, 
  "bedarf": 50543, 
  "Feste": 51430, 
  "Sty@@": 19813, 
  "verschluss": 62530, 
  "meteorological": 32483, 
  "foam": 12202, 
  "bewaffnet": 70620, 
  "schnittstellen": 69719, 
  "Arbeitssicherheit": 60305, 
  "teb@@": 44086, 
  "Degra": 44210, 
  "gefordert": 62532, 
  "leer": 53968, 
  "swallow": 25549, 
  "europaweit": 65917, 
  "d-looking": 27607, 
  "gründlich": 69254, 
  "SDR": 34506, 
  "kontinent@@": 70622, 
  "Peruvian": 24156, 
  "Sulu": 33968, 
  "purpos@@": 18841, 
  "Oomen-Ruijten": 13678, 
  "gerechte": 59046, 
  "glacier": 10410, 
  "fres@@": 22401, 
  "kri@@": 36067, 
  "alleviate": 11021, 
  "Presti@@": 52461, 
  "SDL": 7596, 
  "aktuelle": 46787, 
  "loy@@": 13979, 
  "SDK": 20219, 
  "taxi": 5010, 
  "Puma": 27813, 
  "livestock": 7693, 
  "Service": 1226, 
  "geograph@@": 43156, 
  "Luxus-@@": 53877, 
  "anti-grass": 32935, 
  "taxe": 56035, 
  "deh@@": 52863, 
  "Simbabwe": 65605, 
  "sweeping": 12614, 
  "Pump": 41375, 
  "relevant": 1073, 
  "maternity": 10613, 
  "greetings": 19517, 
  "richten@@": 70624, 
  "Start-": 56110, 
  "Vidal-Quadras": 33576, 
  "Agro@@": 39727, 
  "Tab": 34666, 
  "Ha@@": 7657, 
  "Ahti@@": 62535, 
  "sal@@": 5048, 
  "renewed": 4734, 
  "europ": 53878, 
  "euros": 4041, 
  "forward-looking": 10950, 
  "Solana": 7301, 
  "insufficient": 4788, 
  "Spot": 28989, 
  "versy": 58707, 
  "verse": 12822, 
  "versa": 10655, 
  "Deleg@@": 35675, 
  "Betäub@@": 70627, 
  "professionelles": 70628, 
  "professioneller": 65606, 
  "disproportionate": 9819, 
  "Laur@@": 14847, 
  "ami": 14572, 
  "dafi": 57329, 
  "Ehem@@": 57487, 
  "amm": 39893, 
  "laundering": 9582, 
  "amo": 18566, 
  "Symbiose": 77565, 
  "ama": 7738, 
  "ffles": 28357, 
  "stung": 51117, 
  "kurse": 57488, 
  "ame": 8019, 
  "Experi@@": 44899, 
  "amy": 17216, 
  "earnest": 26164, 
  "Luxembourg": 2974, 
  "wohnten": 70630, 
  "inets": 46214, 
  "amp": 7422, 
  "ams": 8817, 
  "hörten": 75462, 
  "amt": 24157, 
  "unglaublich": 54434, 
  "litres": 15320, 
  "Marburg": 42162, 
  "fortune": 13361, 
  "heightened": 19612, 
  "Colum@@": 44900, 
  "sa-@@": 43157, 
  "superfluous": 13428, 
  "conducts": 19423, 
  "Brüsseler": 60307, 
  "annually": 6625, 
  "unspoiled": 20468, 
  "vedere": 48768, 
  "Klassi@@": 52754, 
  "output": 2668, 
  "kommand@@": 60308, 
  "Batzeli": 40828, 
  "decimal": 19505, 
  "noti@@": 21129, 
  "Polem@@": 65607, 
  "twelve": 6007, 
  "oble": 43435, 
  "tubs": 28962, 
  "verbal": 15359, 
  "abund@@": 57413, 
  "Parall@@": 36206, 
  "Frank@@": 17829, 
  "search@@": 18471, 
  "ßes": 62536, 
  "exposes": 24401, 
  "Ī@@": 57489, 
  "edom": 32924, 
  "langwei@@": 70634, 
  "wahren": 56554, 
  "Haushalts-": 70635, 
  "intend": 2747, 
  "entschul@@": 70230, 
  "minibus": 23884, 
  "hav@@": 39176, 
  "capability": 6080, 
  "Ja@@": 14463, 
  "Symantec": 40615, 
  "appe@@": 16705, 
  "basing": 21524, 
  "1852": 40220, 
  "1853": 42701, 
  "1854": 39728, 
  "Sett@@": 33547, 
  "1856": 43436, 
  "1857": 39729, 
  "Verst@@": 60309, 
  "od@@": 5231, 
  "übliche": 60310, 
  "Nyl@@": 51795, 
  "flourishing": 16809, 
  "Chilean": 18974, 
  "enzel": 50544, 
  "assembly": 3796, 
  "Life@@": 31252, 
  "sixth": 8013, 
  "Busquin": 24904, 
  "HI-@@": 40060, 
  "privat@@": 25586, 
  "Goth@@": 33832, 
  "provok@@": 61592, 
  "Panorama-@@": 57490, 
  "innocence": 21935, 
  "sixty": 15703, 
  "exciting": 3086, 
  "Leonardo": 9615, 
  "enzer": 47742, 
  "cogn@@": 17444, 
  "Osz@@": 62539, 
  "Villach": 39730, 
  "Tochtergesellschaften": 74606, 
  "ér@@": 12506, 
  "Köhler": 44442, 
  "ideology": 7080, 
  "Tet@@": 25277, 
  "mantel@@": 52462, 
  "conceals": 32019, 
  "atisierung": 60312, 
  "Hot": 19108, 
  "backup": 7719, 
  "Intergovernmental": 4318, 
  "oben@@": 65609, 
  "freeing": 20570, 
  "outlook": 9194, 
  "Romanti@@": 48235, 
  "Ronda": 24814, 
  "sön@@": 61306, 
  "Nachhal@@": 62540, 
  "W@@": 1087, 
  "tol@@": 27645, 
  "Gold": 6416, 
  "stabilisation": 9551, 
  "attraktiv": 66031, 
  "shrinking": 20111, 
  "entrust": 20244, 
  "intervention": 2201, 
  "unheimlich": 60314, 
  "Vill@@": 10910, 
  "technolog@@": 25587, 
  "Schnittstellen": 59422, 
  "discover@@": 40221, 
  "qualifying": 14392, 
  "mit@@": 11901, 
  "Tschechoslowakei": 74641, 
  "specific@@": 32652, 
  "stark": 16661, 
  "start": 416, 
  "Credi@@": 45284, 
  "Check-In": 8911, 
  "stars": 4049, 
  "ymp@@": 41566, 
  "Piave": 36713, 
  "devoting": 22952, 
  "marily": 45481, 
  "eingegebenen": 70642, 
  "allergic": 17746, 
  "kurzfristiger": 70643, 
  "diagnose": 26573, 
  "kunft@@": 74652, 
  "ሴ": 70644, 
  "OF@@": 33711, 
  "Euroland": 43019, 
  "livi@@": 48531, 
  "Os@@": 14834, 
  "zei@@": 45742, 
  "philosophers": 21811, 
  "Zertifikat": 61601, 
  "Celsius": 21422, 
  "know-how": 4130, 
  "two-thirds": 11273, 
  "intensively": 12247, 
  "podcast": 32180, 
  "Original": 15075, 
  "Kennzeichnung": 58708, 
  "fraud": 2583, 
  "Verfolgung": 66752, 
  "embedded": 5991, 
  "default": 2490, 
  "äki": 38141, 
  "ΕU": 22410, 
  "Belarusian": 13503, 
  "Nieren": 71351, 
  "tiv@@": 9282, 
  "az.org": 40222, 
  "uch@@": 29180, 
  "Konzernen": 65612, 
  "Exhibition": 8366, 
  "new-@@": 20965, 
  "intents": 31869, 
  "Charles": 5437, 
  "600": 3875, 
  "transporters": 30109, 
  "FER@@": 31439, 
  "ho@@": 3354, 
  "stress@@": 48943, 
  "unternehmens@@": 70648, 
  "quantum": 15069, 
  "Vertrau@@": 64285, 
  "RFID": 18263, 
  "Rechtsanwälte": 48849, 
  "haw@@": 19435, 
  "confidence-building": 28471, 
  "60.": 58710, 
  "inspections": 7220, 
  "hr@@": 11051, 
  "報": 70650, 
  "Erfindung": 58711, 
  "cabinets": 19749, 
  "stationed": 21776, 
  "Annex": 7351, 
  "堆": 70651, 
  "riesig": 65613, 
  "Sportwetten": 48557, 
  "einst@@": 70653, 
  "zoll@@": 58046, 
  "Rechnung": 46298, 
  "terminating": 31020, 
  "Chur": 37140, 
  "Bekannte": 65615, 
  "Smi@@": 44443, 
  "Erk@@": 47253, 
  "forcing": 8590, 
  "poor": 1344, 
  "Engine": 13423, 
  "ద@@": 70655, 
  "nummern": 65617, 
  "60s": 19069, 
  "Porträt": 70656, 
  "stationen": 58889, 
  "impregn@@": 28915, 
  "Chá@@": 56557, 
  "insomuch": 28829, 
  "Topo@@": 45340, 
  "Minsk": 16901, 
  "registry": 11634, 
  "Entry": 28943, 
  "sound-@@": 24485, 
  "pool": 1015, 
  "est@@": 4181, 
  "Cascais": 40425, 
  "witsch": 49574, 
  "Erwägung": 75510, 
  "Rechn@@": 65618, 
  "Kultur@@": 19225, 
  "Bru": 57492, 
  "Joom@@": 46457, 
  "brochen": 70657, 
  "stripes": 22943, 
  "foto@@": 44526, 
  "-Sport@@": 54843, 
  "sender@@": 52067, 
  "ghters": 38776, 
  "Unterrichts": 70659, 
  "cores": 28472, 
  "overseas": 7733, 
  "Party@@": 41377, 
  "Aufbruch": 65620, 
  "Verkehr": 51745, 
  "Kuala": 24863, 
  "Innovationsfähigkeit": 75443, 
  "AU@@": 11198, 
  "änderte": 77485, 
  "semantic": 21291, 
  "ceases": 26797, 
  "Soldaten": 58712, 
  "eholders": 41378, 
  "ги@@": 37840, 
  "metal-@@": 30751, 
  "month": 1443, 
  "ceased": 13829, 
  "thoughtful": 22140, 
  "espiel": 65621, 
  "Neuordnung": 72074, 
  "dou@@": 15635, 
  "unsch": 60316, 
  "religious": 1954, 
  "etik@@": 55056, 
  "leite": 60317, 
  "ing-room": 31479, 
  "bookers": 47571, 
  "Rik@@": 41181, 
  "orische": 70662, 
  "corps": 17426, 
  "ه@@": 43283, 
  "pledged": 13113, 
  "volle": 51118, 
  "nal": 25753, 
  "Rit@@": 34294, 
  "abgestimmt": 62548, 
  "Galaad": 41624, 
  "Pakete": 65624, 
  "volunteer": 13830, 
  "ektions@@": 57493, 
  "pledges": 15114, 
  "Stämmen": 70664, 
  "Dir@@": 29312, 
  "resounding": 21737, 
  "patently": 28710, 
  "brauch": 72946, 
  "activated": 5957, 
  "horror": 12058, 
  "Pyth@@": 44782, 
  "Recru@@": 39894, 
  "26@@": 11465, 
  "fassa@@": 58713, 
  "ziele": 64999, 
  "Cappato": 24732, 
  "decide": 1487, 
  "welcoming": 3974, 
  "Service@@": 42846, 
  "Obamas": 65626, 
  "Selb@@": 62235, 
  "enhancements": 15306, 
  "Retiro": 37403, 
  "Aristoteles": 56560, 
  "tivi@@": 32643, 
  "anas": 24733, 
  "dden@@": 49773, 
  "irl@@": 34507, 
  "ausgeschlossen": 47910, 
  "Rési@@": 52068, 
  "Canary": 7703, 
  "pflicht@@": 65627, 
  "evolent": 27170, 
  "libraries": 6400, 
  "es.com": 25470, 
  "reaffir@@": 28125, 
  "ồ@@": 62549, 
  "anan": 41567, 
  "anal": 25175, 
  "Hobby@@": 53330, 
  "herum@@": 57494, 
  "locomotive": 25081, 
  "Mariah@@": 60318, 
  "Ischi@@": 57412, 
  "Algh@@": 55057, 
  "Produkt-": 70667, 
  "Mail@@": 14950, 
  "atore": 44665, 
  "ped@@": 11946, 
  "GUE": 8481, 
  "diment": 39089, 
  "atori": 33942, 
  "Entle@@": 47662, 
  "GUI": 13268, 
  "streets": 2732, 
  "expansive": 24286, 
  "osexu@@": 50831, 
  "GUS": 55058, 
  "orgasm": 29693, 
  "ators": 3325, 
  "陶@@": 70669, 
  "Sponsoring": 54827, 
  "atory": 6043, 
  "Mangels": 58714, 
  "ar@@": 1220, 
  "bass": 9488, 
  "ails": 14075, 
  "Korea": 2898, 
  "Patient": 45482, 
  "Mash@@": 36068, 
  "Releases": 47743, 
  "infiziert": 65628, 
  "investing": 5850, 
  "dirt": 14239, 
  "Lösungs@@": 65629, 
  "discre@@": 24798, 
  "Elo@@": 42164, 
  "Black@@": 13149, 
  "Fingerab@@": 69110, 
  "learned": 3817, 
  "Bildverarbeitungs@@": 67181, 
  "teilnehmern": 73143, 
  "beta-@@": 34680, 
  "Plaza": 4944, 
  "zeichn@@": 65630, 
  "oti@@": 11160, 
  "wettbewer@@": 57221, 
  "Nachbar@@": 58716, 
  "dung": 43611, 
  "Produkte": 35676, 
  "Reiseziele": 70671, 
  "ballet": 23471, 
  "According": 20670, 
  "999": 37674, 
  "tracks": 3991, 
  "Bezirks@@": 61800, 
  "Arabisch": 65632, 
  "utz@@": 38616, 
  "excess": 5908, 
  "eventful": 21292, 
  "Design-@@": 51431, 
  "Hosting": 41707, 
  "Produkts": 65633, 
  "subscri@@": 32329, 
  "arena": 7895, 
  "šek": 35104, 
  "Biom@@": 38934, 
  "conviction": 6118, 
  "Doll": 47398, 
  "produkts": 62552, 
  "inspired": 3970, 
  "losses": 3671, 
  "troops": 4087, 
  "asa": 17825, 
  "Messe@@": 50667, 
  "enstrah@@": 70467, 
  "partners": 815, 
  "base": 1252, 
  "advertising": 2083, 
  "Nev@@": 21628, 
  "Treff@@": 62553, 
  "seriös": 68834, 
  "sealing": 16609, 
  "successors": 18745, 
  "Joan": 21683, 
  "inspires": 22554, 
  "Einkomm@@": 73802, 
  "image@@": 33712, 
  "Ingolstadt": 42238, 
  "dire": 15140, 
  "expen@@": 35332, 
  "requiring": 5816, 
  "S1": 41182, 
  "coff@@": 23754, 
  "S5": 41972, 
  "schmu@@": 60322, 
  "Okin@@": 51900, 
  "qu@@": 2593, 
  "Stereoscopic": 38935, 
  "S.": 7176, 
  "S-": 49351, 
  "pizzas": 31694, 
  "seventeenth": 30626, 
  "aufgibt": 70675, 
  "Mancha": 43158, 
  "Kreditkarte": 58131, 
  "conventional": 3895, 
  "fahrungen": 65653, 
  "ate-General": 56563, 
  "alises": 19158, 
  "process@@": 21064, 
  "revelation": 15050, 
  "240": 13874, 
  "card@@": 26703, 
  "Olivenöl": 60323, 
  "wöchentliche": 69860, 
  "Editoren": 70676, 
  "TRADOS": 44894, 
  "gebiete": 58718, 
  "cellaneous": 32644, 
  "pus": 35439, 
  "Visier": 70677, 
  "Raster": 54991, 
  "instruc@@": 26704, 
  "schwer@@": 56565, 
  "Limits": 41568, 
  "水@@": 60324, 
  "氣@@": 70678, 
  "dion": 34508, 
  "Sp": 39180, 
  "Su": 37543, 
  "St": 5378, 
  "Them@@": 31147, 
  "Banking": 13451, 
  "Si": 38142, 
  "So": 16338, 
  "Glam@@": 45188, 
  "7000": 27814, 
  "Sa": 22519, 
  "blut@@": 58719, 
  "producing": 2636, 
  "Browser": 18842, 
  "lamp@@": 40617, 
  "grill": 15556, 
  "örtlichen": 60325, 
  "forst@@": 65634, 
  "Sella": 19355, 
  "oversight": 15049, 
  "SQ": 49544, 
  "SP": 16051, 
  "SW": 24905, 
  "SV": 5913, 
  "ST": 14655, 
  "SK": 7628, 
  "aufzurufen": 65635, 
  "SI": 16399, 
  "bekämpft": 65636, 
  "SO": 18235, 
  "budgets": 3841, 
  "SM": 26385, 
  "SL": 9701, 
  "SC": 13207, 
  "SB": 29695, 
  "SA": 7101, 
  "SG": 34617, 
  "SF": 20220, 
  "SE": 8104, 
  "SD": 10791, 
  "740": 40618, 
  "persevere": 31784, 
  "pri@@": 4561, 
  "IBM": 7795, 
  "Auss@@": 65638, 
  "747": 34165, 
  "IBA": 40426, 
  "IBB": 47399, 
  "Sn@@": 20469, 
  "endlosen": 78033, 
  "terrible": 4685, 
  "Berichterstat@@": 65639, 
  "Wiens": 55059, 
  "Jungfrau@@": 41855, 
  "Tall@@": 40830, 
  "voor": 19240, 
  "้@@": 49545, 
  "phrase": 3039, 
  "arti@@": 14104, 
  "barri@@": 19119, 
  "Kampf@@": 51626, 
  "Guatem@@": 31285, 
  "paradigm": 13892, 
  "Counter-@@": 37078, 
  "Einbruch": 70679, 
  "Korhola": 38936, 
  "Opening": 36854, 
  "römische": 58720, 
  "abgegebene": 70680, 
  "Aege@@": 62554, 
  "utilize": 15141, 
  "surpassed": 23144, 
  "Falk": 40831, 
  "Carte": 39907, 
  "Fall": 20591, 
  "vigilance": 14076, 
  "vorhersehbar": 70681, 
  "assimil@@": 28126, 
  "SOA": 31963, 
  "Television": 13774, 
  "esysteme": 70682, 
  "communicating": 10816, 
  "transatlantischen": 77846, 
  "Kreta": 45445, 
  "Home-@@": 53256, 
  "Sni@@": 31021, 
  "volks@@": 60327, 
  "Emirates": 18129, 
  "acci": 40115, 
  "scout24.@@": 62555, 
  "productivity": 3487, 
  "horizontal": 5707, 
  "geachtet": 65642, 
  "stein@@": 25471, 
  "compulsory": 4240, 
  "Jeff": 29394, 
  "UDP": 35105, 
  "criticize": 20805, 
  "Sofort@@": 57498, 
  "Mexico": 3368, 
  "bezeichnung": 65643, 
  "high-precision": 32792, 
  "SG@@": 15991, 
  "unterhalb": 58721, 
  "embark": 11437, 
  "anytime": 11696, 
  "Provinz@@": 65644, 
  "verteidigt": 70686, 
  "unifying": 19245, 
  "2372": 28056, 
  "Sik@@": 30110, 
  "divor@@": 45088, 
  "Tausch": 63091, 
  "partnerships": 5312, 
  "Marathon": 16868, 
  "atur@@": 16232, 
  "pflichtigen": 65645, 
  "knots": 28057, 
  "remnants": 20419, 
  "322": 42831, 
  "sha@@": 6429, 
  "Stufen": 65646, 
  "charities": 31286, 
  "MBA": 26448, 
  "thermal": 3820, 
  "Nebel@@": 58073, 
  "BE": 11846, 
  "Präsentationen": 70689, 
  "Atlas": 19518, 
  "leichte": 58722, 
  "SON": 37256, 
  "Barrel": 51748, 
  "Hotell@@": 53881, 
  "Ausgangs@@": 66849, 
  "Konsolidi@@": 70690, 
  "systeme": 41569, 
  "His@@": 18236, 
  "Universität": 23075, 
  "wishful": 25176, 
  "Märkten": 58723, 
  "encoding": 12720, 
  "当@@": 56785, 
  "absence": 3287, 
  "Ägyp@@": 58725, 
  "systems": 335, 
  "founders": 13471, 
  "Asset": 16391, 
  "mise": 35759, 
  "Intra@@": 42859, 
  "Dirig@@": 60328, 
  "ced": 9351, 
  "trotz@@": 62557, 
  "Intergroup": 35537, 
  "Oro@@": 22486, 
  "Früh@@": 48405, 
  "cen": 51119, 
  "gebogen": 70695, 
  "cel": 36207, 
  "unser@@": 49647, 
  "Bournemouth": 39090, 
  "BG": 13180, 
  "FAM@@": 40061, 
  "terrain": 8784, 
  "Protag@@": 55764, 
  "ces": 5673, 
  "cer": 21997, 
  "permissible": 12846, 
  "delay@@": 53331, 
  "antiquity": 24929, 
  "kleineren": 58726, 
  "Hosts": 35518, 
  "Tosc@@": 38617, 
  "hear@@": 10930, 
  "Night@@": 24638, 
  "faire": 22555, 
  "elder": 24015, 
  "HALion": 26798, 
  "bless": 32196, 
  "Estació": 40609, 
  "cute": 20647, 
  "radial": 30111, 
  "Flash@@": 29056, 
  "fairy": 17940, 
  "SAVE": 27815, 
  "obligated": 17532, 
  "seit@@": 50280, 
  "lifestyles": 20420, 
  "predatory": 28592, 
  "barrels": 17873, 
  "Tätigkeiten": 68869, 
  "kritischen": 56567, 
  "Afghans": 29057, 
  "Stockhausen": 36714, 
  "LO@@": 7406, 
  "BA": 9310, 
  "gezogen": 56568, 
  "BSE@@": 62558, 
  "artikulieren": 78009, 
  "woul@@": 27537, 
  "punitive": 21293, 
  "künstlerische": 58727, 
  "Guillaume": 38937, 
  "absurdity": 29696, 
  "Lu@@": 4748, 
  "kritischer": 70699, 
  "Berufserfahrung": 73163, 
  "Ey@@": 22411, 
  "esen@@": 43955, 
  "Mas@@": 6473, 
  "testify": 16526, 
  "TET@@": 38938, 
  "Katrina": 35203, 
  "safety": 475, 
  "Ef@@": 33833, 
  "7": 726, 
  "toskanischen": 75104, 
  "ador@@": 33713, 
  "vorteilhaft": 74808, 
  "Chir@@": 47263, 
  "Town": 3837, 
  "stead": 19381, 
  "mei@@": 28473, 
  "effekte": 70701, 
  "earns": 27816, 
  "Shakes@@": 52464, 
  "Buchstabe": 66539, 
  "favored": 20470, 
  "betreffende": 56570, 
  "ghly": 49547, 
  "factual": 15079, 
  "houses": 1881, 
  "upper@@": 18195, 
  "Priv@@": 38315, 
  "cac@@": 27416, 
  "Curricul@@": 45613, 
  "endungen": 62173, 
  "turnout": 17831, 
  "speculation": 7379, 
  "oli@@": 15943, 
  "Weiterentwicklungen": 65647, 
  "dishwasher": 18975, 
  "unresolved": 10493, 
  "tations": 19309, 
  "ese-@@": 19613, 
  "Boston": 14586, 
  "Georgi@@": 17862, 
  "Accession": 14445, 
  "evision": 51120, 
  "ख@@": 16559, 
  "ँ@@": 35783, 
  "Simone": 35333, 
  "american": 26594, 
  "Brok": 8408, 
  "Passi@@": 43438, 
  "velop": 55756, 
  "ов@@": 16261, 
  "Cast@@": 12749, 
  "schwim@@": 65649, 
  "Vorbild": 70704, 
  "Samba": 28474, 
  "BM": 41526, 
  "Handel": 37193, 
  "inter-@@": 6474, 
  "endo@@": 17495, 
  "warte": 49775, 
  "YHA": 36585, 
  "patriarch@@": 32793, 
  "remembran@@": 55765, 
  "zili@@": 51288, 
  "abgeholt": 58728, 
  "Intranet": 35684, 
  "IS-@@": 30828, 
  "condition@@": 33321, 
  "ئ@@": 62559, 
  "visions": 11133, 
  "ecommerce": 8354, 
  "Luftverschmutzung": 70908, 
  "vision@@": 29031, 
  "Riker": 17658, 
  "tet@@": 24246, 
  "ASP@@": 39260, 
  "Klar@@": 45483, 
  "Autos": 51995, 
  "blossom": 32020, 
  "warrants": 15986, 
  "ة@@": 62560, 
  "Olympus": 8125, 
  "effekts": 73559, 
  "Geschehnisse": 71412, 
  "station": 876, 
  "funktionieren": 60330, 
  "Südost@@": 62561, 
  "hindered": 16020, 
  "Assu@@": 39895, 
  "hundred": 3406, 
  "prophet": 21798, 
  "Tauf@@": 37841, 
  "trapped": 14207, 
  "Verkün@@": 70708, 
  "Delta": 10709, 
  "Rechten": 62563, 
  "besei@@": 65650, 
  "1919": 18242, 
  "1918": 16400, 
  "asco": 22953, 
  "EM@@": 5938, 
  "1911": 21179, 
  "1910": 21008, 
  "tive": 3625, 
  "beg@@": 11847, 
  "1915": 26075, 
  "1914": 18269, 
  "1917": 19071, 
  "1916": 29830, 
  "poor@@": 37141, 
  "grew": 5916, 
  "obligations": 2165, 
  "Residenz": 39270, 
  "front": 1177, 
  "gres": 31870, 
  "state-owned": 15115, 
  "south-eastern": 23146, 
  "Puer@@": 47400, 
  "neural": 28831, 
  "beh@@": 15051, 
  "grey": 7374, 
  "≠": 70710, 
  "≡": 70711, 
  "Melch@@": 41379, 
  "nevertheless": 1301, 
  "pflichten": 70712, 
  "verdienst@@": 65651, 
  "cr@@": 5593, 
  "gren": 32021, 
  "toward": 3800, 
  "Engad@@": 51121, 
  "constituent": 13013, 
  "tri@@": 2724, 
  "procedural": 6498, 
  "ahnhof": 52070, 
  "shifted": 11501, 
  "880": 36715, 
  "ichtlin@@": 65652, 
  "contraception": 22141, 
  "oppon@@": 50281, 
  "welen": 68026, 
  "lik@@": 15605, 
  "organe": 56571, 
  "888": 38939, 
  "SAR@@": 39341, 
  "randomly": 20745, 
  "berfläche": 65924, 
  "Window": 17850, 
  "opposing": 8502, 
  "appartments": 29058, 
  "Penn": 38460, 
  "spannungs@@": 60334, 
  "null": 22058, 
  "organs": 7231, 
  "Penh": 39091, 
  "bade@@": 60335, 
  "apologi@@": 40619, 
  "Selec@@": 25177, 
  "qualitativ": 58730, 
  "opt-in": 33093, 
  "Price": 15116, 
  "euch": 46351, 
  "REACH": 9774, 
  "otom@@": 45724, 
  "Bearbeitung": 55766, 
  "past@@": 10951, 
  "-Log@@": 49548, 
  "aBDE": 43956, 
  "archa@@": 47112, 
  "bioethanol": 18050, 
  "arkt": 41755, 
  "Seek@@": 46952, 
  "arks": 32645, 
  "Wochenende": 49146, 
  "Associations": 26742, 
  "aired": 21294, 
  "verschuldet": 70715, 
  "Bau@@": 11006, 
  "sektor": 60336, 
  "Asbest": 71164, 
  "multilingual": 8617, 
  "wilde": 57093, 
  "Vorsch@@": 70717, 
  "Musikern": 70718, 
  "pad": 12824, 
  "port-@@": 32936, 
  "Chief": 6632, 
  "hired": 12278, 
  "aires": 16869, 
  "BT": 19554, 
  "Sitges": 28883, 
  "privatised": 32794, 
  "Vatikan": 62565, 
  "bzw": 23264, 
  "enswertes": 70719, 
  "astery": 62566, 
  "König@@": 22142, 
  "sturdy": 21226, 
  "Viewer": 19424, 
  "Abschlus@@": 70720, 
  "confinement": 31649, 
  "init": 33440, 
  "asters": 26386, 
  "einzuwenden": 70214, 
  "27.@@": 21295, 
  "part-time": 10546, 
  "astern": 58732, 
  "electrons": 27120, 
  "SketchUp": 38005, 
  "Boll@@": 34618, 
  "velocity": 21130, 
  "physics": 9638, 
  "enswerten": 65655, 
  "嘛@@": 71807, 
  "phenomenon": 3926, 
  "atischen": 70037, 
  "weht": 62970, 
  "Erfolg": 46788, 
  "NES@@": 43160, 
  "Beauftragten": 65656, 
  "wehr": 48069, 
  "resol@@": 31587, 
  "Fin@@": 7551, 
  "ütz@@": 53332, 
  "inventing": 24380, 
  "velle": 35198, 
  "atisches": 55768, 
  "atischer": 58603, 
  "jung@@": 28359, 
  "eering": 29182, 
  "irrig@@": 39261, 
  "distressing": 24906, 
  "Inhaltes": 70725, 
  "nehme": 65657, 
  "uhen": 76528, 
  "justice": 1476, 
  "Cai@@": 37171, 
  "fax": 4436, 
  "Cruz": 12925, 
  "French": 754, 
  "bett@@": 65658, 
  "sym@@": 22215, 
  "ques": 8487, 
  "quer": 26905, 
  "einkommen": 65659, 
  "quet": 22826, 
  "entren@@": 35334, 
  "criticising": 17562, 
  "bungs@@": 72149, 
  "quez": 36716, 
  "Olymp@@": 37877, 
  "US-Bundes@@": 70729, 
  "Michelle": 37688, 
  "etc..": 17391, 
  "utting": 32022, 
  "us@@": 2744, 
  "bereiches": 60115, 
  "financing": 1760, 
  "Casaca": 25588, 
  "feels": 5820, 
  "zně": 38436, 
  "Eaton": 32406, 
  "pretending": 23756, 
  "competing": 8000, 
  "combinations": 9091, 
  "Maxime": 46215, 
  "doctr@@": 28912, 
  "alledem": 65660, 
  "konzert": 54408, 
  "co-operate": 29437, 
  "vings": 38316, 
  "celebrates": 15636, 
  "performers": 15293, 
  "adhering": 19824, 
  "retaliation": 26269, 
  "Themes": 43957, 
  "stored": 2992, 
  "Schwangerschaft": 62568, 
  "hype": 33209, 
  "Weizen@@": 62569, 
  "Afrika-@@": 70734, 
  "konzern": 62570, 
  "Guides": 31441, 
  "obi@@": 38777, 
  "patriotism": 31442, 
  "Franco": 18932, 
  "prim@@": 14320, 
  "éon": 43958, 
  "locale": 22625, 
  "Anna@@": 40184, 
  "Mutter@@": 50282, 
  "kitesur@@": 37842, 
  "spring@@": 18976, 
  "culture": 829, 
  "面": 65662, 
  "5-00@@": 51122, 
  "abbau@@": 71534, 
  "mediators": 29438, 
  "Mama": 45341, 
  "Westphal@@": 38602, 
  "n-@@": 14728, 
  "gebrauchte": 70737, 
  "fications": 10684, 
  "locals": 9010, 
  "kunft": 65663, 
  "Jacob@@": 35539, 
  "berechtigt": 47671, 
  "acknowled@@": 30752, 
  "pictures": 2022, 
  "utopia": 23456, 
  "tolls": 20328, 
  "opped": 46491, 
  "Geschäftsverkehrs": 70738, 
  "FACULTAD": 41974, 
  "Realty": 11854, 
  "tolle": 48070, 
  "forman@@": 38707, 
  "Job@@": 26485, 
  "Eingreifen": 70739, 
  "order@@": 32796, 
  "stagnation": 12907, 
  "Isabella": 40427, 
  "jeden": 44211, 
  "jedem": 49147, 
  "missing": 3608, 
  "wai@@": 15912, 
  "Mi": 44212, 
  "sts": 6394, 
  "mistrust": 17593, 
  "Überlieferung": 62571, 
  "spray": 14208, 
  "ranked": 11782, 
  "jedes": 49778, 
  "Mell@@": 35440, 
  "zipper": 35441, 
  "turbin@@": 52071, 
  "asser@@": 18818, 
  "collaborators": 20151, 
  "gewor@@": 61944, 
  "77@@": 20986, 
  "phishing": 32331, 
  "urbanisation": 26810, 
  "minorities": 2995, 
  "Steve": 14851, 
  "Provinzen": 65665, 
  "ཱ@@": 70740, 
  "Hamp@@": 38143, 
  "subsidiar@@": 55769, 
  "assem@@": 41380, 
  "forgotten": 4649, 
  "ausschalten": 69247, 
  "Napo@@": 43439, 
  "Stimm@@": 56340, 
  "experimental": 7950, 
  "counsel@@": 31022, 
  "Absenden": 70741, 
  "deciding": 6755, 
  "manipulieren": 70743, 
  "schlu": 57502, 
  "address": 570, 
  "solvency": 23677, 
  "WARR@@": 51432, 
  "gro@@": 6626, 
  "jure": 31351, 
  "Booger@@": 65666, 
  "Beschränkungen": 60339, 
  "Abra@@": 39189, 
  "Abonnement": 72654, 
  "indik@@": 65668, 
  "Obasanjo": 38431, 
  "Saudis": 36758, 
  "Stan@@": 34838, 
  "gleich": 45019, 
  "lecturers": 29563, 
  "inadmissible": 16681, 
  "Emmy": 36124, 
  "irresponsibility": 27220, 
  "add": 923, 
  "langt": 60340, 
  "mentation": 18305, 
  "Protection": 3372, 
  "Portal": 11978, 
  "xis@@": 48769, 
  "worm@@": 30344, 
  "threaten": 7704, 
  "ppchen": 56573, 
  "ebel@@": 50810, 
  "tigung": 53333, 
  "Gott": 13344, 
  "Tunn@@": 54409, 
  "appetiz@@": 25178, 
  "lived": 3957, 
  "EST@@": 18356, 
  "Manufac@@": 44877, 
  "Wegbereiter": 72175, 
  "modelling": 21228, 
  "N": 3405, 
  "Switch": 30345, 
  "Broadcasting": 35215, 
  "lives": 1303, 
  "Donna": 38455, 
  "Pick": 42703, 
  "Hassan": 35934, 
  "BAL@@": 39092, 
  "exacerbate": 16330, 
  "Beweise": 74253, 
  "Alster": 39877, 
  "truhe": 70744, 
  "pact": 5885, 
  "lak@@": 40621, 
  "intriguing": 25082, 
  "furgonetas": 21131, 
  "interaktive": 58734, 
  "ausgaben": 62575, 
  "ved@@": 37995, 
  "Nach": 53334, 
  "Kinofil@@": 72338, 
  "Hallenbad": 60131, 
  "Brad@@": 34992, 
  "peti@@": 22279, 
  "Degu@@": 48406, 
  "Maus@@": 49909, 
  "pace": 4727, 
  "ought": 2720, 
  "impacted": 29680, 
  "DHCP": 22187, 
  "richtet": 54410, 
  "richter": 58735, 
  "guide": 2300, 
  "pack": 6112, 
  "LEDs": 19698, 
  "costly": 6913, 
  "deurop@@": 55397, 
  "dol@@": 11467, 
  "ël": 30427, 
  "00h": 31588, 
  "Privath@@": 62293, 
  "00m": 37689, 
  "00s": 22626, 
  "Papayannakis": 27006, 
  "Géné@@": 41756, 
  "payers": 30753, 
  "concentration": 4274, 
  "Paste": 41941, 
  "灯": 75691, 
  "communal": 11730, 
  "Esther": 39262, 
  "sump@@": 47911, 
  "ently": 7352, 
  "Luke": 29831, 
  "Verheugen": 7700, 
  "molding": 26550, 
  "MW": 26128, 
  "issi@@": 35442, 
  "Whis@@": 40780, 
  "Extraordinary": 32332, 
  "abende": 70329, 
  "egel@@": 36718, 
  "grand": 6276, 
  "Maske": 58736, 
  "itäten": 62577, 
  "gr@@": 5115, 
  "composition": 3995, 
  "Mauritania": 14897, 
  "awar@@": 35276, 
  "fatty": 19173, 
  "hinab@@": 71157, 
  "Mitverantwortung": 70746, 
  "dic@@": 8657, 
  "geschi@@": 55063, 
  "friends": 1332, 
  "youngsters": 21483, 
  "verlässt": 70747, 
  "Frei@@": 12089, 
  "Movies": 32333, 
  "001": 23265, 
  "000": 1421, 
  "erhebliche": 58737, 
  "Stag@@": 47572, 
  "lia": 7305, 
  "ingenious": 21484, 
  "mobi": 50547, 
  "lib": 26144, 
  "Kommunismus": 66901, 
  "Fan@@": 19425, 
  "Mord@@": 51300, 
  "obviously": 1621, 
  "Collector": 33932, 
  "calibrated": 25589, 
  "bour@@": 19699, 
  "ос@@": 38317, 
  "consistency": 5679, 
  "antine": 34509, 
  "Eingabe": 56556, 
  "Grafton": 37443, 
  "Kenntnis": 54682, 
  "Fas@@": 17215, 
  "Living": 15544, 
  "empowered": 17704, 
  "exploits": 21296, 
  "bearer": 26165, 
  "rechts": 46492, 
  "Cavallo": 38461, 
  "settlements": 7283, 
  "technicians": 10817, 
  "reviewed": 6417, 
  "rechte": 48945, 
  "will@@": 15637, 
  "UV-@@": 29059, 
  "Witz": 61946, 
  "Reconstruction": 19025, 
  "demag@@": 70750, 
  "wirkliches": 63730, 
  "Giulio": 43579, 
  "lit": 9608, 
  "PIM": 39346, 
  "PIN": 23919, 
  "disseminate": 20421, 
  "informal": 4476, 
  "Strandnähe": 70751, 
  "PIC": 36586, 
  "PID": 41018, 
  "sanft": 57503, 
  "shortcut": 19825, 
  "loqui@@": 28945, 
  "cherries": 32261, 
  "Landschafts@@": 58738, 
  "questioned": 11031, 
  "Commodore": 23472, 
  "Berkeley": 22386, 
  "wy@@": 16682, 
  "terungs@@": 65674, 
  "operators": 2515, 
  "Brig@@": 38462, 
  "Kazim@@": 53336, 
  "do-@@": 23076, 
  "Graphic": 32937, 
  "ight": 9602, 
  "Sicherheitssystem": 70884, 
  "showing": 2996, 
  "dentum": 66033, 
  "rufe": 58739, 
  "toll@@": 21416, 
  "esion": 55773, 
  "Lower": 11022, 
  "gewünscht": 58925, 
  "Diesel@@": 54411, 
  "1996-@@": 36341, 
  "logical": 4145, 
  "Antigua": 37690, 
  "dearly": 31871, 
  "Madeleine": 29564, 
  "gbar": 56575, 
  "Kulturhauptstadt": 65675, 
  "Nea": 43340, 
  "ponds": 21868, 
  "success": 658, 
  "Vorstands@@": 65676, 
  "Heim@@": 42935, 
  "Keynesian": 27817, 
  "multicultural": 16080, 
  "jack@@": 21696, 
  "ees": 12483, 
  "eer": 19826, 
  "eel": 21132, 
  "een": 7915, 
  "anony@@": 56576, 
  "fizierungen": 75378, 
  "beidseitig": 65677, 
  "popular": 1090, 
  "eed": 16622, 
  "terminology": 10103, 
  "Gebrauchs": 70755, 
  "premium": 4906, 
  "pt@@": 12954, 
  "sketch": 19656, 
  "cones": 27926, 
  "Dancing": 40516, 
  "Zah@@": 29697, 
  "radicalism": 31023, 
  "moo@@": 26799, 
  "dnisses": 74540, 
  "Zappalà": 40428, 
  "lips": 14705, 
  "dnissen": 70245, 
  "Laos": 15521, 
  "Herrschaft": 50811, 
  "äler": 65795, 
  "mor@@": 4413, 
  "Butterfly": 37545, 
  "kodex": 68342, 
  "Tapp@@": 40907, 
  "ѓ@@": 53337, 
  "schön": 44444, 
  "AMA": 21485, 
  "mediterran@@": 50081, 
  "AME": 26270, 
  "AMD": 23678, 
  "AMG": 43285, 
  "competitions": 7712, 
  "tubes": 9726, 
  "Verarbeitung": 56579, 
  "Davidson": 45953, 
  "depres@@": 38941, 
  "97@@": 28593, 
  "AMP": 36719, 
  "AMS": 36208, 
  "uniqué": 33003, 
  "shotels": 52416, 
  "straße": 12894, 
  "Antlitz": 70757, 
  "folios": 47912, 
  "Protestant": 18357, 
  "Bild": 37691, 
  "Strategien": 56580, 
  "systemati@@": 43440, 
  "Shalit": 33579, 
  "negativen": 65679, 
  "Hän@@": 40347, 
  "Berges": 65680, 
  "Economics": 12252, 
  "opposes": 19174, 
  "allegi@@": 46086, 
  "Scherz": 54412, 
  "gman": 49550, 
  "assists": 15704, 
  "viewpoints": 20060, 
  "negatives": 36473, 
  "Haw@@": 26551, 
  "14,@@": 34346, 
  "systemischen": 77529, 
  "spannender": 70758, 
  "Mekka": 55064, 
  "Taylor": 18130, 
  "Kell@@": 43286, 
  "岩@@": 70759, 
  "tse@@": 55065, 
  "samkeiten": 65682, 
  "sive-@@": 45020, 
  "ure@@": 37406, 
  "for@@": 3288, 
  "Distanz": 65683, 
  "rund@@": 51123, 
  "angry": 13587, 
  "silence": 5339, 
  "führen": 47913, 
  "efel@@": 41019, 
  "accessible": 2264, 
  "rats": 19471, 
  "Baron": 25882, 
  "spitze": 34371, 
  "Söl@@": 43237, 
  "Staatlichen": 55775, 
  "Schütz@@": 48575, 
  "watt": 24799, 
  "alpha": 17805, 
  "Steh@@": 57505, 
  "zu-@@": 53884, 
  "presupposes": 17713, 
  "Gershwin": 41185, 
  "würdigt": 75446, 
  "Sängerin": 59039, 
  "LIMIT@@": 28594, 
  "Ainardi": 42980, 
  "institut": 50812, 
  "Norman": 17392, 
  "Normal": 38144, 
  "tatsächliche": 62502, 
  "placing": 5032, 
  "6.7": 36099, 
  "Steg@@": 46216, 
  "Überlegungen": 55440, 
  "visas": 6627, 
  "getra@@": 62587, 
  "Koch": 26800, 
  "sich": 7809, 
  "Integration@@": 62588, 
  "Β@@": 53338, 
  "swi@@": 7726, 
  "ps@@": 21629, 
  "withholding": 20152, 
  "Comfort": 14322, 
  "PvP-@@": 55776, 
  "komfortable": 65685, 
  "Fragmente": 68411, 
  "tober": 33943, 
  "standardisierte": 70763, 
  "erlangen": 70764, 
  "arithme@@": 45963, 
  "Albufeira": 21451, 
  "tobel": 33094, 
  "tragically": 24225, 
  "scope": 1453, 
  "injection": 7683, 
  "nepo@@": 34044, 
  "SUN@@": 34045, 
  "zul@@": 45614, 
  "hero@@": 25121, 
  "Lay@@": 24998, 
  "Beibehaltung": 70766, 
  "Textform": 49551, 
  "vacancies": 18551, 
  "Rush@@": 39587, 
  "Nord-@@": 47573, 
  "Laf@@": 38463, 
  "effektiv": 63310, 
  "performances": 5578, 
  "politik": 36999, 
  "undered": 26076, 
  "similar": 1044, 
  "assassin@@": 21229, 
  "echner": 42604, 
  "broadened": 23058, 
  "ordered": 3857, 
  "interventions": 6790, 
  "Tv": 34756, 
  "Asyl@@": 65687, 
  "auszeichnet": 57506, 
  "accessibility": 7347, 
  "audible": 26249, 
  "Aviv": 20526, 
  "To": 6187, 
  "Edward": 15735, 
  "dding": 17295, 
  "Th": 45484, 
  "RM@@": 28360, 
  "evocative": 27699, 
  "PRIN@@": 39263, 
  "Redner": 63320, 
  "incen@@": 30628, 
  "ancestors": 15382, 
  "acceler@@": 35935, 
  "TX": 36328, 
  "TY": 32797, 
  "TV": 1029, 
  "thematisiert": 70772, 
  "TT": 27818, 
  "TU": 25179, 
  "fears": 5461, 
  "TS": 7221, 
  "TP": 29313, 
  "Siddharta": 29203, 
  "ega-@@": 45129, 
  "application": 525, 
  "TL": 38318, 
  "TM": 13685, 
  "d-": 37169, 
  "芦@@": 75511, 
  "TH": 30112, 
  "TI": 34993, 
  "department": 3169, 
  "Versicherung": 46723, 
  "Jaz@@": 48237, 
  "TE": 11509, 
  "TB": 16706, 
  "TC": 21486, 
  "arithmetic": 26906, 
  "TA": 10113, 
  "Customer": 4549, 
  "happens": 2628, 
  "Sta@@": 15326, 
  "Stanford": 29439, 
  "verfallen": 70774, 
  "23@@": 7077, 
  "wohl": 36209, 
  "；": 70775, 
  "T1": 41186, 
  "T.": 12253, 
  "Tiber@@": 38239, 
  "＄": 70776, 
  "graphically": 25883, 
  "jed@@": 21453, 
  "）": 56581, 
  "Mobiliar": 60347, 
  "，": 70777, 
  "ή@@": 41758, 
  "ausländische": 56582, 
  "e": 899, 
  "estro@@": 47254, 
  "Nennung": 70779, 
  "turbines": 18820, 
  "］": 70604, 
  "utilised": 14975, 
  "Per@@": 4014, 
  "membranes": 27100, 
  "eville": 38145, 
  "0.25": 36543, 
  "everywhere": 3864, 
  "opp@@": 11097, 
  "infringing": 24073, 
  "anbietern": 65691, 
  "Widerstandes": 70780, 
  "ovina": 43212, 
  "Tochter@@": 70781, 
  "zögerlich": 70782, 
  "Hintergrund": 54049, 
  "Gourmet@@": 51435, 
  "year@@": 14589, 
  "standort": 62591, 
  "Novi@@": 44555, 
  "hinweisen": 52865, 
  "umm@@": 42879, 
  "two@@": 31443, 
  "compact": 3683, 
  "gliedert": 74257, 
  "birthplace": 17254, 
  "100@@": 9795, 
  "resettlement": 16222, 
  "flü@@": 44445, 
  "Nog": 34296, 
  "Schadenersatz@@": 60348, 
  "Ritter@@": 48491, 
  "FirstSpirit": 41020, 
  "aussergewöhnliche": 70785, 
  "Cote": 40324, 
  "Absichtserklärungen": 75561, 
  "lichkeit": 47044, 
  "Not": 13419, 
  "Nou": 36856, 
  "Nov": 21357, 
  "Now": 7987, 
  "friendly": 1085, 
  "Nor": 34619, 
  "Nos": 3330, 
  "chts@@": 59760, 
  "shar@@": 10576, 
  "les-@@": 41187, 
  "Bergamo": 33210, 
  "KM@@": 23785, 
  "celebrities": 16300, 
  "Raab": 43161, 
  "genius": 16396, 
  "spielerisch": 70788, 
  "wave": 4533, 
  "pot@@": 11516, 
  "Solidarität": 58741, 
  "Großen": 60349, 
  "muscular": 24358, 
  "telling": 5690, 
  "yourselves": 10096, 
  "denomin@@": 39735, 
  "Acquisition": 36587, 
  "圓@@": 62592, 
  "Embryo": 53886, 
  "Charlotte": 29314, 
  "No.": 10792, 
  "豫@@": 72950, 
  "資": 70790, 
  "beliebt": 65693, 
  "Interessierte": 54104, 
  "positions": 1738, 
  "Cle@@": 24947, 
  "watered": 19226, 
  "angriff": 65684, 
  "Monopo@@": 47745, 
  "Großes": 57507, 
  "standard@@": 39433, 
  "flan@@": 25550, 
  "akut": 60350, 
  "Fürst": 48946, 
  "cloister": 32181, 
  "enforce": 7118, 
  "bean@@": 46217, 
  "Index": 13597, 
  "facilitating": 7520, 
  "touristischen": 76433, 
  "hilosophie": 70792, 
  "Inder": 70793, 
  "wordings": 29905, 
  "Mistral": 21989, 
  "vas@@": 28035, 
  "jump": 8491, 
  "concur@@": 18346, 
  "Camera": 19614, 
  "ò@@": 19751, 
  "notwithstanding": 10031, 
  "Mod@@": 22143, 
  "vince": 55418, 
  "Patch@@": 43580, 
  "pper@@": 45485, 
  "IGC": 6561, 
  "Mönch": 43959, 
  "neighbour@@": 37843, 
  "s-Ro@@": 56766, 
  "Geburtstag": 50813, 
  "legisl@@": 34046, 
  "einige": 41975, 
  "Grid": 33333, 
  "Totalit@@": 54467, 
  "Etagen@@": 65694, 
  "troly@@": 34994, 
  "Gian@@": 28947, 
  "stru@@": 15772, 
  "internationalen": 48238, 
  "auszusprechen": 70795, 
  "Steuer": 53887, 
  "sportive": 34086, 
  "bi@@": 2566, 
  "Freigabe": 65695, 
  "Madel@@": 52073, 
  "raff@@": 39218, 
  "Ausbildung": 48770, 
  "fikationen": 69805, 
  "Wohnhäuser": 65697, 
  "verbleibt": 60352, 
  "budd@@": 45486, 
  "fifteenth": 32798, 
  "radicals": 22755, 
  "Fish@@": 24639, 
  "vri@@": 34136, 
  "1.5@@": 38675, 
  "signposted": 28232, 
  "Off@@": 14188, 
  "vereinbart": 52074, 
  "د": 44869, 
  "Diskotheken": 70799, 
  "Scen@@": 38146, 
  "convert": 5945, 
  "genz": 57510, 
  "entn@@": 67323, 
  "Palace": 3342, 
  "Anwendungs@@": 56583, 
  "Fell@@": 36474, 
  "gent": 15992, 
  "net.@@": 40226, 
  "gens": 14812, 
  "Bach": 17332, 
  "blumen@@": 76091, 
  "Enhes@@": 58743, 
  "Freier": 57632, 
  "bereichs@@": 70800, 
  "Coel@@": 52465, 
  "Damp@@": 46789, 
  "Arti@@": 21775, 
  "gene": 11611, 
  "salvation": 16052, 
  "Constantin@@": 32484, 
  "patents": 4902, 
  "Voc@@": 38464, 
  "ء": 52776, 
  "foresee": 17427, 
  "airspace": 10565, 
  "Doctor": 11712, 
  "subsidi@@": 22724, 
  "Assistance": 14774, 
  "manage": 2023, 
  "Melan@@": 45487, 
  "Pionier": 60353, 
  "ا": 44336, 
  "gut@@": 28129, 
  "sunn@@": 58744, 
  "blog": 3601, 
  "Cornillet": 34995, 
  "wür@@": 55778, 
  "atedly": 30629, 
  "Fribourg": 25472, 
  "Open-Sour@@": 65698, 
  "iration": 50814, 
  "Lecce": 39898, 
  "überwachung": 57511, 
  "1,500": 17823, 
  "ظ": 71310, 
  "Seminare": 55603, 
  "symbolische": 70803, 
  "Pau@@": 20086, 
  "ranks": 7532, 
  "Bird-of-Prey": 39095, 
  "IGN": 35091, 
  "Bou@@": 10196, 
  "historically": 7884, 
  "Steuerung": 57084, 
  "Wellness@@": 48771, 
  "formally": 6725, 
  "Љ@@": 49610, 
  "Markus": 14446, 
  "advis@@": 25368, 
  "about": 69, 
  "visibility": 6904, 
  "charming": 2809, 
  "ystick": 35366, 
  "Dj@@": 24074, 
  "Direkt@@": 49552, 
  "س": 44296, 
  "stätten": 50548, 
  "Run@@": 26801, 
  "weitergehende": 60355, 
  "rivalry": 21998, 
  "appointed": 3203, 
  "resize": 33580, 
  "Benchmarking": 50815, 
  "fängt": 62593, 
  "Geschenke": 58745, 
  "medium-@@": 19951, 
  "poin@@": 24075, 
  "Kunden": 35148, 
  "е@@": 10505, 
  "lapse": 20221, 
  "averaged": 31444, 
  "leitenden": 58746, 
  "ط": 50473, 
  "recession": 4953, 
  "fänge": 66028, 
  "easier": 1823, 
  "incremental": 27212, 
  "business-@@": 18179, 
  "VIII": 17599, 
  "servants": 8707, 
  "Aceh": 28475, 
  "Sain@@": 31238, 
  "meet": 678, 
  "ص": 70804, 
  "verfahrens": 66255, 
  "stiegs@@": 74128, 
  "All-In-One": 30496, 
  "meer": 23644, 
  "fung@@": 17851, 
  "votre": 29566, 
  "Israeli": 3144, 
  "Notfall@@": 62594, 
  "links": 1268, 
  "dokumentiert": 55779, 
  "Osse@@": 45237, 
  "Karriere": 54415, 
  "tseller": 38147, 
  "PayPal": 12045, 
  "prioritise": 16369, 
  "Nou@@": 30630, 
  "ations-": 52075, 
  "234": 35846, 
  "Mr.": 4304, 
  "pulling": 14541, 
  "ieves": 44783, 
  "sought": 3705, 
  "geziel@@": 69518, 
  "bowl": 19827, 
  "Giard@@": 51751, 
  "Reifen": 54416, 
  "sically": 60356, 
  "Eindämmung": 70807, 
  "Apartament@@": 50817, 
  "embodiment": 30754, 
  "defective": 13065, 
  "picturesque": 4105, 
  "empfehlen": 48239, 
  "meanwhile": 4528, 
  "SCO@@": 37547, 
  "Böden": 65702, 
  "sentiments": 15638, 
  "232": 22446, 
  "Reservation": 28036, 
  "Hume": 30113, 
  "Beauty-@@": 55070, 
  "Anstoß": 77274, 
  "Lionel": 38006, 
  "fare": 7095, 
  "President-@@": 19417, 
  "führ@@": 58747, 
  "employee": 6057, 
  "Strategi@@": 69108, 
  "Bushill-@@": 65704, 
  "farm": 3141, 
  "peeling": 32938, 
  "Parallelen": 70809, 
  "ires": 11867, 
  "Mrs": 314, 
  "Burg@@": 26868, 
  "politisch": 58172, 
  "glieder": 70811, 
  "wake-up": 26306, 
  "trees": 2676, 
  "tland": 41021, 
  "Mrd": 51175, 
  "ired": 20471, 
  "ḏ": 70812, 
  "merklich": 70813, 
  "angesichts": 57094, 
  "Cabo": 33944, 
  "famous": 830, 
  "Institution@@": 52869, 
  "1930@@": 53265, 
  "streifen": 74708, 
  "Avaaz": 23604, 
  "Arzneimittel@@": 60358, 
  "Guard": 12585, 
  "Arrangements": 47402, 
  "fill@@": 20806, 
  "siger": 51124, 
  "favourites": 20746, 
  "plätze": 57512, 
  "akzeptierten": 65706, 
  "insofern": 60359, 
  "kursen": 70817, 
  "Verschuldung": 70818, 
  "Activ@@": 19057, 
  "fälle": 54417, 
  "Suanzes-Carpegna": 39736, 
  "klassi@@": 53888, 
  "usch@@": 51635, 
  "basement": 15405, 
  "ens": 4142, 
  "rati": 44865, 
  "Glasgo@@": 52870, 
  "ms@@": 18061, 
  "growers": 10344, 
  "egesellschaft": 51266, 
  "including": 236, 
  "costume": 19519, 
  "fällt": 53889, 
  "ų@@": 70819, 
  "ва@@": 23335, 
  "gion": 42166, 
  "pol@@": 5245, 
  "&apos;n&apos;@@": 31552, 
  "Nichteinhaltung": 61588, 
  "Distri@@": 34166, 
  "impres@@": 20061, 
  "Orchester@@": 60360, 
  "freigegeben": 65707, 
  "Blix": 36382, 
  "asi@@": 9092, 
  "RAC": 38319, 
  "ourn@@": 47403, 
  "thank@@": 35679, 
  "d&apos;état": 28476, 
  "RAL": 21812, 
  "RAM": 9618, 
  "objektiv": 70820, 
  "innovativsten": 75750, 
  "Jähr@@": 70821, 
  "RAI": 34996, 
  "RAW": 14611, 
  "nordöstlichen": 70822, 
  "ser@@": 4623, 
  "RAR": 37257, 
  "Seri@@": 30497, 
  "backpackers": 29832, 
  "bin": 7412, 
  "emark@@": 44061, 
  "Avail@@": 44088, 
  "stitut": 62774, 
  "iertesten": 65288, 
  "पर@@": 29183, 
  "-Station": 70823, 
  "eably": 46530, 
  "dź": 43022, 
  "quartered": 50240, 
  "articulation": 23147, 
  "frontal": 30346, 
  "reservoir": 19775, 
  "Brecht": 35897, 
  "訃@@": 70826, 
  "Alma@@": 34238, 
  "gewaltsam": 65709, 
  "ffle": 17428, 
  "mission@@": 32182, 
  "Sohn@@": 65710, 
  "optimal": 4406, 
  "left-wing": 14399, 
  "Venus": 20062, 
  "Wörtern": 65711, 
  "instrumenten": 70827, 
  "projekte": 52076, 
  "kilometres": 4134, 
  "Layer": 15639, 
  "withdraw@@": 53890, 
  "laun@@": 17168, 
  "Tinten@@": 65712, 
  "痴": 70828, 
  "university": 3392, 
  "enk@@": 14976, 
  "復@@": 70829, 
  "slide": 7585, 
  "Insi@@": 52871, 
  "agonal": 41977, 
  "taschen": 58750, 
  "TD@@": 40062, 
  "Käufer": 45843, 
  "prevailing": 9084, 
  "Statistics": 23847, 
  "female": 3747, 
  "ener@@": 38148, 
  "Schlach@@": 54418, 
  "Bertrand": 37844, 
  "stigen": 51938, 
  "Contractor": 17714, 
  "constitute": 3417, 
  "stiger": 62596, 
  "investigative": 23473, 
  "Tele@@": 37259, 
  "separating": 15705, 
  "Dire@@": 55781, 
  "multiple-@@": 30891, 
  "transitions": 20687, 
  "Prox@@": 45844, 
  "Gegenleistung": 57448, 
  "wartet": 52872, 
  "zione": 13705, 
  "depriving": 21602, 
  "CEE": 29060, 
  "zubehör": 55782, 
  "hervorragenden": 65714, 
  "sprinzip": 70830, 
  "entertainment": 2814, 
  "CEO": 6342, 
  "CEN": 42167, 
  "zioni": 28362, 
  "Anreize": 70831, 
  "bij": 28692, 
  "thoch@@": 56577, 
  "gepackt": 70832, 
  "CET": 15383, 
  "CES": 35540, 
  "1.4@@": 40075, 
  "hervorragender": 62597, 
  "gloves": 19666, 
  "irrevoc@@": 20923, 
  "cause": 1043, 
  "exo@@": 29315, 
  "Brüdern": 70833, 
  "aloge": 60083, 
  "post-crisis": 31503, 
  "Fleming": 35615, 
  "mois@@": 54784, 
  "entertain@@": 18750, 
  "Sachsenhausen": 42534, 
  "Nahr@@": 70836, 
  "galaxies": 14729, 
  "delegates": 11925, 
  "LAU@@": 44388, 
  "hihostels.com": 35444, 
  "Irr@@": 51606, 
  "Aurora": 29636, 
  "heime": 62598, 
  "delegated": 13250, 
  "Barceloneta": 36857, 
  "resumed": 6363, 
  "Gallag@@": 55354, 
  "Vorschrift": 68431, 
  "premier@@": 18270, 
  "determining": 6504, 
  "Formosa": 38291, 
  "Owen": 38943, 
  "stiftung": 43581, 
  "timer": 17941, 
  "times": 514, 
  "Ruhe@@": 65717, 
  "timen": 65718, 
  "confrontations": 29316, 
  "zuzüglich": 60361, 
  "timed": 27417, 
  "59-@@": 38625, 
  "Reproduktion": 57515, 
  "debian-@@": 16127, 
  "magnetischen": 70837, 
  "Fett": 70838, 
  "Prophet": 14466, 
  "Messung": 55783, 
  "confuse": 14656, 
  "seventeen": 25017, 
  "Personen-": 70340, 
  "geführtes": 59552, 
  "KEY@@": 31025, 
  "Rechtslage": 55074, 
  "Ide@@": 28712, 
  "lebhafte": 68442, 
  "Mehrwertsteuer@@": 62599, 
  "geführten": 60362, 
  "folge": 52873, 
  "Ced@@": 32485, 
  "Contracts": 34297, 
  "orthop@@": 33945, 
  "KED@@": 70840, 
  "echan@@": 26802, 
  "pay@@": 8325, 
  "erschienen": 51838, 
  "Frau": 37142, 
  "tarif@@": 43519, 
  "wrapped": 15545, 
  "Marketing-@@": 50183, 
  "survi@@": 21074, 
  "feder": 53891, 
  "Vorgehensweisen": 62600, 
  "unerträglich": 70841, 
  "釉@@": 60364, 
  "originating": 11041, 
  "parap@@": 21381, 
  "Bildergalerie": 62601, 
  "Kabel@@": 52466, 
  "Siro@@": 39936, 
  "lists": 3230, 
  "sort": 2064, 
  "chemicals": 4855, 
  ".png": 49265, 
  "막@@": 70842, 
  "verschwiegen": 73648, 
  "liste": 46496, 
  "natural": 558, 
  "Hauptanliegen": 70844, 
  "zag@@": 47746, 
  "catered": 24403, 
  "topbonus": 26705, 
  "Einsatz@@": 49553, 
  "osc@@": 34510, 
  "்@@": 58753, 
  "verbinden": 58754, 
  "unreliable": 25825, 
  "Gastgeber@@": 62603, 
  "景": 65601, 
  "submitted": 949, 
  "@@": 70845, 
  "ss": 7958, 
  "Djibouti": 34511, 
  "lusion": 24159, 
  "konstru@@": 52874, 
  "zugeben": 65722, 
  "verbindet": 55076, 
  "sq": 15142, 
  "Zink": 51436, 
  "crisis-@@": 25018, 
  "enforced": 8132, 
  "sp": 42535, 
  "sweeteners": 30498, 
  "Unfall": 70846, 
  "Flying": 24160, 
  "algorith@@": 44556, 
  "Fertigung": 50550, 
  "ordinarily": 44250, 
  "horrors": 20571, 
  "Other": 10120, 
  "Kaninchen": 62604, 
  "manchmal": 54574, 
  "Interview": 41978, 
  "Editions": 31026, 
  "CLE@@": 36330, 
  "sk": 10435, 
  "Administrator": 20472, 
  "besto@@": 27133, 
  "SIGN@@": 39588, 
  "herkömmlichen": 75923, 
  "Zwang@@": 70848, 
  "betreffen": 61625, 
  "grundsätzlicher": 70850, 
  "McKin@@": 37845, 
  "battles": 10645, 
  "relatives": 9179, 
  "Erreichbarkeit": 58756, 
  "7.7": 37282, 
  "grundsätzlichen": 65724, 
  "könig": 47019, 
  "Abstra@@": 45021, 
  "Nachteile": 62605, 
  "Kälte": 65725, 
  "Λ@@": 59372, 
  "Babysitting": 12787, 
  "Pueblo": 40623, 
  "schiffe": 65726, 
  "sm": 14092, 
  "Drehen": 70851, 
  "PIN@@": 42860, 
  "regt": 65727, 
  "discos": 16870, 
  "Prozed@@": 70852, 
  "schlä@@": 52079, 
  "Pop@@": 17130, 
  "vengeance": 31148, 
  "counterbalance": 32799, 
  "Centres": 19828, 
  "stock-@@": 30196, 
  "zeugnissen": 75947, 
  "rege": 70478, 
  "intrinsic": 17333, 
  "gallery": 3632, 
  "probable": 14606, 
  "indu": 62606, 
  "ure": 4596, 
  "urg": 32183, 
  "科": 62607, 
  "ura": 9566, 
  "url": 32184, 
  "denburg": 42509, 
  "urn": 21358, 
  "uro": 19427, 
  "uri": 22145, 
  "brought": 1081, 
  "Fellow": 35542, 
  "astonishing": 12072, 
  "uru": 33581, 
  "pologie": 53341, 
  "fluor@@": 15930, 
  "inda": 35936, 
  "Bauweise": 70853, 
  "urs": 6158, 
  "种": 65728, 
  "gest": 24640, 
  "bia": 15178, 
  "Islam": 5538, 
  "indi": 34879, 
  "ury": 15052, 
  "秋": 70854, 
  "Turmes": 25083, 
  "scheid": 39737, 
  "underpins": 26166, 
  "kühlt": 65729, 
  "Park": 1590, 
  "TUIfly": 29440, 
  "schein": 44089, 
  "Rande": 55077, 
  "halting": 24404, 
  "south-east": 14629, 
  "fores@@": 19472, 
  "Wetter": 51437, 
  "underdevelopment": 30631, 
  "echt@@": 48773, 
  "kühle": 68490, 
  "übertrieben": 70858, 
  "Agam@@": 39096, 
  "skosten": 62608, 
  "abstentions": 27109, 
  "bestanden": 60210, 
  "Alkohol@@": 70859, 
  "Lumix": 22060, 
  "unfinished": 20572, 
  "übersichtlichen": 70860, 
  "nes@@": 22695, 
  "brighter": 25473, 
  "destabilisation": 30632, 
  "Part": 10536, 
  "Verhandlungs@@": 65731, 
  "übersichtlicher": 70861, 
  "inherited": 12254, 
  "Befestigungs@@": 70862, 
  "emon@@": 37143, 
  "bestandes": 65732, 
  "FYROM": 16720, 
  "achieve": 554, 
  "betriebene": 74785, 
  "menschliches": 70863, 
  "menschlicher": 70864, 
  "Galax@@": 44667, 
  "Marquis": 40833, 
  "LAB@@": 24862, 
  "Wall@@": 14127, 
  "kopf": 44446, 
  "maritime": 3245, 
  "decentralisation": 16527, 
  "verbesser@@": 70865, 
  "Rosner": 36720, 
  "shoch@@": 55078, 
  "Fitness": 12761, 
  "starred": 16432, 
  "dwellings": 29441, 
  "menschlichen": 58759, 
  "professors": 17715, 
  "susp@@": 34482, 
  "Bezirke": 60365, 
  "trucks": 8793, 
  "Bowis": 18473, 
  "themen@@": 65733, 
  "tuned": 13866, 
  "experiments": 7309, 
  "embracing": 15726, 
  "tunes": 24405, 
  "Austrian": 2268, 
  "löst": 57240, 
  "LEONARDO": 48240, 
  "embryonic": 16930, 
  "Spin@@": 33334, 
  "widow": 29980, 
  "oi@@": 33095, 
  "punkt": 47017, 
  "multiplying": 27221, 
  "römischen": 57518, 
  "shot@@": 36858, 
  "Montepulciano": 25884, 
  "Fahrt@@": 62610, 
  "Theor@@": 48407, 
  "Sohnes": 76025, 
  "Billig@@": 70869, 
  "Send": 21180, 
  "immigrant": 10918, 
  "officials": 2598, 
  "faces": 4485, 
  "ocracy": 27608, 
  "operated": 4315, 
  "marken@@": 57519, 
  "Seychelles": 15355, 
  "Neut@@": 31504, 
  "conductivity": 32939, 
  "Apartamentos": 17302, 
  "Wisconsin": 38615, 
  "Regionen": 53342, 
  "oted": 13193, 
  "Homosexu@@": 55079, 
  "nightmare": 16487, 
  "illusory": 32024, 
  "tene": 50818, 
  "tend": 4767, 
  "Cau@@": 35784, 
  "macros": 27121, 
  "Verges@@": 70870, 
  "Andalusi@@": 49148, 
  "alteten": 70871, 
  "minim@@": 8781, 
  "tyre": 17892, 
  "Verschulden": 52046, 
  "tens": 6098, 
  "auszutauschen": 62612, 
  "Citi@@": 35937, 
  "Herstellers": 53893, 
  "tent": 10782, 
  "ken": 8159, 
  "diversi@@": 24285, 
  "kel": 23077, 
  "conditional": 8896, 
  "200-@@": 22347, 
  "Sit@@": 25084, 
  "Goldener": 40625, 
  "ked": 9896, 
  "Emirate": 49600, 
  "indiscriminate": 20256, 
  "kicking": 31028, 
  "X.@@": 32486, 
  "verw@@": 62613, 
  "Spazier@@": 65734, 
  "key": 495, 
  "Parallel@@": 55784, 
  "one-stop": 19176, 
  "gestellte": 60366, 
  "ket": 24458, 
  "kes": 8533, 
  "ker": 5830, 
  "mage": 25085, 
  "süß": 70873, 
  "hits": 10070, 
  "Venedig": 52467, 
  "internationally": 3650, 
  "limits": 2146, 
  "situ@@": 15805, 
  "vn@@": 43521, 
  "entry": 1659, 
  "PA-@@": 43522, 
  "Tian@@": 47256, 
  "strains": 18306, 
  "kans": 56474, 
  "Quebec": 18746, 
  "Institutionen": 57520, 
  "83@@": 35336, 
  "estimation": 22281, 
  "has@@": 34168, 
  "17@@": 2504, 
  "lierungen": 70855, 
  "Karls@@": 49354, 
  "diplomats": 13744, 
  "15.00": 18665, 
  "Differ@@": 26706, 
  "Kne@@": 44902, 
  "discar@@": 38727, 
  "Agencies": 32925, 
  "3G": 15433, 
  "periode": 52468, 
  "laim@@": 27079, 
  "-Bus": 46153, 
  "ulen": 43287, 
  "Einleitung": 55469, 
  "gesprochen": 65737, 
  "ographie": 47575, 
  "Diskussionen": 58761, 
  "erased": 26167, 
  "Leist@@": 54264, 
  "sin@@": 6093, 
  "thanked": 23211, 
  "zelt": 51753, 
  "ков@@": 42333, 
  "a2@@": 41022, 
  "Alle@@": 47576, 
  "immense": 6835, 
  "liberals": 16401, 
  "ri@@": 1857, 
  "Lily": 40984, 
  "lage@@": 45310, 
  "ship": 1999, 
  "Conserv@@": 33582, 
  "Chiem@@": 39264, 
  "aler@@": 34620, 
  "Bail@@": 44784, 
  "ausgestatteten": 71939, 
  "shoulders": 13114, 
  "optionally": 15532, 
  "controlled": 2667, 
  "constitutes": 4221, 
  "retrospective": 26271, 
  "ärztlichen": 77008, 
  "Ostsee": 55785, 
  "ucc@@": 30499, 
  "Themen@@": 58762, 
  "Wellington": 34406, 
  "begrenzungen": 70877, 
  "Courses": 27927, 
  "controller": 6002, 
  "-LSB-": 255, 
  "abortions": 28130, 
  "illar": 49355, 
  "smoking": 4913, 
  "ausgestattetes": 62616, 
  "zentrums": 57522, 
  "debtor": 21487, 
  "Sturm": 45727, 
  "adores": 36109, 
  "Inclusive": 31239, 
  "Jean-@@": 20277, 
  "13,@@": 30699, 
  "Einstell@@": 62617, 
  "形@@": 70879, 
  "Sturz": 56590, 
  "dynamism": 10506, 
  "broadly": 7001, 
  "orgas@@": 49356, 
  "forfei@@": 31446, 
  "Kompromiss": 65740, 
  "zusehen": 70880, 
  "enken": 66265, 
  "Kalender": 53343, 
  "conveni@@": 44967, 
  "Repräsent@@": 57523, 
  "Konstruktion": 49692, 
  "examines": 16053, 
  "quired": 28713, 
  "Qaddafi": 26168, 
  "bark@@": 38781, 
  "900@@": 24052, 
  "arm@@": 13166, 
  "zeitschrift": 62618, 
  "asiatische": 65554, 
  "ive": 21658, 
  "Square": 3260, 
  "examined": 4411, 
  "hearted": 18552, 
  "jord@@": 46953, 
  "cometh": 24907, 
  "gespräche": 56226, 
  "endgültigen": 64402, 
  "inciner@@": 19923, 
  "Eurogroup": 23757, 
  "Typen": 62619, 
  "stimmungs@@": 65742, 
  "thereby": 2258, 
  "Spart@@": 33211, 
  "szen@@": 52083, 
  "divergences": 27928, 
  "kler@@": 55190, 
  "Flusses": 65743, 
  "Leitfaden": 68573, 
  "Bangkok": 11395, 
  "parts": 750, 
  "speaker": 2969, 
  "northwest": 15254, 
  "Vor-": 60368, 
  "Autoren@@": 65744, 
  "atop@@": 36069, 
  "party": 880, 
  "Ecu@@": 50551, 
  "massa@@": 51754, 
  "sprin@@": 17429, 
  "handic@@": 49980, 
  "http": 3954, 
  "estadt": 50285, 
  "Abkommen": 65745, 
  "regul@@": 19700, 
  "ieties": 51864, 
  "Grosch": 26387, 
  "buy-@@": 20864, 
  "colouring": 32185, 
  "Evi@@": 44557, 
  "Schneeschuh@@": 60369, 
  "impeccable": 19473, 
  "Cardassia": 38946, 
  "destruction": 3138, 
  "rift": 17893, 
  "scarcely": 11368, 
  "Kazon": 38214, 
  "Experimente": 51755, 
  "ू@@": 13189, 
  "els-@@": 46417, 
  "grenzten": 70882, 
  "dissip@@": 25474, 
  "ské": 19720, 
  "suppl@@": 20747, 
  "rife": 28597, 
  "insurmountable": 29317, 
  "riff": 47114, 
  "40-@@": 16239, 
  "Taxifahrer": 75804, 
  "Neuigkeit": 62623, 
  "corporation": 10163, 
  "Vorderseite": 60370, 
  "grenzung": 70883, 
  "Milch": 56591, 
  "Gordon": 16637, 
  "advertiser": 28012, 
  "MacOS": 26707, 
  "Flower": 33335, 
  "emaking": 20153, 
  "Ambient": 40013, 
  "increasingly": 1435, 
  "す@@": 52256, 
  "Rechtsstreitigkeiten": 77955, 
  "egender": 65746, 
  "UNIF@@": 41979, 
  "Zei@@": 44903, 
  "concluded": 2997, 
  "InstallShield": 37289, 
  "distant": 6589, 
  "CS@@": 8894, 
  "möglichkeit": 55081, 
  "advertised": 18493, 
  "lecker": 56592, 
  "41": 5239, 
  "geschafft": 57524, 
  "pat@@": 7146, 
  "Gaming": 17699, 
  "Bellevue": 25278, 
  "Osten": 50033, 
  "density": 7956, 
  "large-scale": 5589, 
  "akon@@": 49305, 
  "Auge": 51440, 
  "maladministration": 22750, 
  "a.@@": 7180, 
  "梁": 70885, 
  "4-": 45794, 
  "Divi@@": 42705, 
  "Reiset@@": 57526, 
  "み@@": 55505, 
  "Guantánamo": 11510, 
  "indignation": 16528, 
  "HKD": 42861, 
  "Industriestand@@": 67600, 
  "hin@@": 14231, 
  "zusammenhängenden": 65747, 
  "Check-out": 52472, 
  "GWN": 36859, 
  "disappearance": 11926, 
  "Ak@@": 7568, 
  "vener@@": 25645, 
  "WAR@@": 36860, 
  "ALTENER": 37144, 
  "vorstehenden": 57527, 
  "압@@": 70886, 
  "Limit": 27418, 
  "Nelson": 16871, 
  "ierbar": 65748, 
  "propeller": 34169, 
  "intersection": 16214, 
  "ierten@@": 53895, 
  "motivating": 25339, 
  "Final@@": 55960, 
  "demic": 52821, 
  "loss": 1700, 
  "Cookies": 26169, 
  "necessary": 273, 
  "Proper@@": 48651, 
  "lost": 1411, 
  "header": 11705, 
  "tles": 41573, 
  "tler": 34298, 
  "rots": 25181, 
  "rott": 49149, 
  "Hitze": 60371, 
  "Embedded-@@": 65749, 
  "payments": 2040, 
  "Canadi@@": 34047, 
  "lose": 2554, 
  "Clam@@": 43162, 
  "dresser": 45728, 
  "Ril@@": 41761, 
  "awes@@": 44214, 
  "likes": 8773, 
  "leere": 65750, 
  "cer@@": 7460, 
  "irgendwie": 53896, 
  "Nützlichkeit": 70888, 
  "Folie": 55082, 
  "Thunder": 39589, 
  "lizenz@@": 55787, 
  "Mayan": 32025, 
  "unterschiedlichste": 66403, 
  "U2": 33212, 
  "U-": 54420, 
  "U.": 36861, 
  "enforc@@": 33462, 
  "EEK": 40742, 
  "omateri@@": 64478, 
  "EEE": 51126, 
  "home": 511, 
  "unlautere": 65752, 
  "EEF": 65753, 
  "EEA": 21417, 
  "EEC": 7634, 
  "Bohemia": 15966, 
  "solving": 5740, 
  "moderates": 30574, 
  "overlay": 26388, 
  "contributing": 5078, 
  "demonstrates": 4949, 
  "objected": 27222, 
  "jewell@@": 46791, 
  "Kulturen": 39738, 
  "overlap": 16963, 
  "cradle": 19227, 
  "moderated": 29442, 
  "inflammation": 20961, 
  "deprivation": 24258, 
  "Strang": 58763, 
  "demonstrated": 2947, 
  "Blauen": 56569, 
  "limitations": 6302, 
  "弄@@": 65755, 
  "块": 75484, 
  "CI@@": 13706, 
  "Trib@@": 40063, 
  "parquet": 20857, 
  "Hansestadt": 55705, 
  "Straight": 41574, 
  "mal@@": 5096, 
  "Up": 11007, 
  "rasch": 72241, 
  "Um": 50819, 
  "Un": 43163, 
  "Tenerife": 11118, 
  "モ@@": 65337, 
  "tripwolf": 29443, 
  "glichem": 62625, 
  "Dreh@@": 53897, 
  "mac@@": 12656, 
  "amnesty": 31075, 
  "Textil@@": 51738, 
  "Euratom": 11153, 
  "az@@": 6086, 
  "Miteinander": 60372, 
  "ao@@": 43843, 
  "UT": 13707, 
  "UV": 12173, 
  "UP": 19921, 
  "US": 433, 
  "UR": 16124, 
  "UM": 12657, 
  "UL": 21230, 
  "zauber@@": 65594, 
  "UI": 28363, 
  "UK": 1635, 
  "UE": 22696, 
  "Jordi": 39265, 
  "UG": 36862, 
  "Statistik": 54692, 
  "UA": 38149, 
  "UC": 28948, 
  "UB": 31589, 
  "Garibaldi": 35106, 
  "Communists": 21257, 
  "Katholiken": 67956, 
  "开@@": 62627, 
  "fettered": 57528, 
  "previously": 2228, 
  "Buen@@": 45465, 
  "PREMI@@": 37261, 
  "Rosa@@": 48577, 
  "Klamt": 35543, 
  "gramm": 51671, 
  "cocoa": 14042, 
  "ultrasound": 27819, 
  "Internal": 4816, 
  "scharfe": 60373, 
  "victim@@": 28477, 
  "pointless": 12569, 
  "4D": 34575, 
  "Straße": 17533, 
  "lasting": 3805, 
  "Theorin": 37362, 
  "Jamie": 42840, 
  "gruppe": 38783, 
  "weges": 65443, 
  "ité": 17296, 
  "itä": 65758, 
  "共@@": 64989, 
  "ità": 19963, 
  "Ehepaar": 78055, 
  "afrika": 65759, 
  "Ritu@@": 53344, 
  "ernannt": 70038, 
  "Daphne": 15806, 
  "Queb@@": 47914, 
  "acquis@@": 46954, 
  "4A": 42459, 
  "⁄@@": 56593, 
  "Apri": 63524, 
  "Seuchen": 70897, 
  "ausstellungen": 58764, 
  "north": 2396, 
  "itably": 27820, 
  "melden": 55788, 
  "tor-@@": 30215, 
  "echter": 51624, 
  "inspirieren": 65290, 
  "fountains": 17563, 
  "blaming": 27008, 
  "Chamber": 2542, 
  "Feinsten": 62632, 
  "strawberries": 32487, 
  "gain": 2042, 
  "García-@@": 47683, 
  "Ergebnis@@": 63235, 
  "Austr@@": 40626, 
  "itable": 15080, 
  "highest": 1217, 
  "Metro@@": 22216, 
  "fassten": 70898, 
  "astra": 41575, 
  "安@@": 53898, 
  "extra@@": 20633, 
  "Sitzung": 58766, 
  "Astrid": 36886, 
  "ausbau": 70899, 
  "itin": 49357, 
  "Kinnock": 9139, 
  "King@@": 18982, 
  "Forstwirtschaft": 70901, 
  "Einstein": 16683, 
  "CON@@": 12208, 
  "itis": 21231, 
  "display": 1814, 
  "urging": 11980, 
  "bacter@@": 28017, 
  "diligently": 30115, 
  "marketplace": 10745, 
  "künften": 68662, 
  "devis@@": 50034, 
  "Söhne": 49191, 
  "universal": 2874, 
  "Doorn": 40064, 
  "Regional-": 76355, 
  "Brosch@@": 61538, 
  "re-@@": 1731, 
  "beats": 15469, 
  "Kozlodu@@": 33946, 
  "hun@@": 19428, 
  "390@@": 39266, 
  "Xia@@": 46955, 
  "education": 640, 
  "Function": 34407, 
  "functions": 1569, 
  "phthal@@": 45342, 
  "Kabila": 33714, 
  "acle": 18794, 
  "Geneva": 3801, 
  "ingredients": 4341, 
  "vertrags": 60374, 
  "Jr.": 35785, 
  "circul@@": 23336, 
  "Million": 25641, 
  "lur@@": 23474, 
  "Jamendo": 29567, 
  "Wells": 36722, 
  "Kittelmann": 38618, 
  "Delivery": 19786, 
  "orienti@@": 62634, 
  "old": 429, 
  "顾@@": 70904, 
  "cardboard": 16115, 
  "Geschmack": 51127, 
  "Welle": 44785, 
  "al-Assad": 35389, 
  "proclaim": 22461, 
  "finca": 34170, 
  "7,00": 49066, 
  "edian": 38784, 
  "Hin@@": 20112, 
  "stat": 27523, 
  "star": 2253, 
  "Regionale": 51757, 
  "unge": 42536, 
  "्र@@": 12586, 
  "hasen": 70907, 
  "stay": 311, 
  "Personnel": 32903, 
  "stag": 42341, 
  "foil": 14657, 
  "Added": 34924, 
  "stab": 38320, 
  "Њ@@": 50552, 
  "additionally": 4166, 
  "stan": 36333, 
  "Ray@@": 25086, 
  "ceas@@": 26486, 
  "else": 1617, 
  "8000": 25885, 
  "kHz": 24999, 
  "accidents": 4034, 
  "hne": 51441, 
  "Nachbarländern": 74415, 
  "Nation@@": 22242, 
  "Lamp@@": 43023, 
  "Gry@@": 48948, 
  "olf": 27009, 
  "Papoutsis": 34513, 
  "Pharmac@@": 44668, 
  "15-20": 30347, 
  "indirectly": 6579, 
  "abhängi@@": 70911, 
  "Corsica": 16931, 
  "aided": 15913, 
  "Wich@@": 45846, 
  "Frontier": 34514, 
  "psychiat@@": 25886, 
  "commercialisation": 22146, 
  "Consoli@@": 49358, 
  "HOL@@": 26970, 
  "perverted": 24641, 
  "CIDE@@": 60376, 
  "Bailey": 39256, 
  "र@@": 7216, 
  "emul@@": 14898, 
  "Gasth@@": 62635, 
  "schmuck": 76508, 
  "ensored": 62636, 
  "Unterbrechung": 70913, 
  "Phu@@": 51442, 
  "analogen": 70914, 
  "involves": 2935, 
  "aud": 15578, 
  "langu@@": 17674, 
  "auf": 5451, 
  "Honda": 17034, 
  "disability": 8596, 
  "pensions": 4511, 
  "Kori@@": 51758, 
  "painters": 18632, 
  "Crus@@": 27700, 
  "aus": 6520, 
  "bays": 12750, 
  "Ph.D.": 29981, 
  "aut": 14880, 
  "Vorgabe": 70915, 
  "recycle": 24311, 
  "aux": 8359, 
  "sorry": 4032, 
  "sway": 26487, 
  "lu@@": 4698, 
  "marsh@@": 18021, 
  "dilu@@": 19950, 
  "collaborate": 12370, 
  "kündigt": 58768, 
  "wirksamkeit": 70916, 
  "t-oriented": 41381, 
  "kraft@@": 54421, 
  "void": 11353, 
  "Harley-Davidson": 40343, 
  "iSC": 41087, 
  "Arab@@": 17534, 
  "1000@@": 17297, 
  "浮@@": 70917, 
  "persönlicher": 57530, 
  "oves": 44068, 
  "voir": 27223, 
  "Brescia": 25785, 
  "Laufenden": 62182, 
  "Ehud": 38785, 
  "agen@@": 21813, 
  "crops": 5232, 
  "120@@": 13952, 
  "Diamantopoulou": 23002, 
  "subsidising": 25991, 
  "unrelated": 18358, 
  "enhance": 3217, 
  "Helms-Burton": 22627, 
  "Colosseum": 34239, 
  "deplorable": 16529, 
  "Urbino": 39435, 
  "Wohnwagen": 70918, 
  "Ek@@": 28131, 
  "Cuisine": 31590, 
  "pendi@@": 36372, 
  "ppm": 34304, 
  "Unterrichts@@": 56594, 
  "Bro@@": 7674, 
  "bescheiden": 62637, 
  "likely": 1591, 
  "trifft": 55583, 
  "EULEX": 39590, 
  "vergol@@": 70919, 
  "subordinate": 16081, 
  "appetite": 16491, 
  "Arizona": 29833, 
  "Kindheit": 76473, 
  "predec@@": 57697, 
  "Sparten": 62639, 
  "Wellness-": 60377, 
  "steinen": 61749, 
  "spokesman": 17894, 
  "fjord": 21869, 
  "Fette": 61908, 
  "propri": 54422, 
  "foodstuffs": 7286, 
  "Wasser": 45201, 
  "Queen": 8483, 
  "reviving": 22147, 
  "metadata": 20847, 
  "mee": 37549, 
  "med": 8216, 
  "niche": 15914, 
  "20,@@": 34408, 
  "mea": 46219, 
  "Dong": 24334, 
  "substitutes": 22445, 
  "linien@@": 56595, 
  "Spedi@@": 56572, 
  "men": 940, 
  "disposable": 22412, 
  "ミ": 75821, 
  "Stecker": 65769, 
  "met": 1577, 
  "nicht": 7495, 
  "Runes": 41023, 
  "Götz@@": 48774, 
  "mes": 11071, 
  "mer": 6125, 
  "bewertung": 69706, 
  "Waffen@@": 47407, 
  "Camcorder": 47408, 
  "contraction": 22556, 
  "Motivation": 53900, 
  "grenze": 60378, 
  "sign@@": 7088, 
  "Versand": 47257, 
  "Extra": 31447, 
  "weiterentwickelt": 70926, 
  "recordings": 8370, 
  "breath@@": 12942, 
  "Packaging": 18022, 
  "jog@@": 42706, 
  "grenzt": 65770, 
  "Issues": 36373, 
  "crises": 4125, 
  "Stadtr@@": 60379, 
  "lucrative": 16932, 
  "Taus@@": 61758, 
  "rafting": 16082, 
  "Ferienwohnung": 54423, 
  "erup@@": 24642, 
  "4x@@": 41485, 
  "Lyon": 13998, 
  "icop@@": 63896, 
  "Werkzeug@@": 52876, 
  "Russians": 8069, 
  "mobility": 2524, 
  "fear@@": 26803, 
  "Nationalgalerie": 47748, 
  "東": 68930, 
  "Erschließung": 62640, 
  "disposes": 22818, 
  "objectively": 13504, 
  "sliced": 31289, 
  "Mineral@@": 55507, 
  "loyment": 43325, 
  "guests": 572, 
  "jackets": 23921, 
  "-Back@@": 52080, 
  "Freuden": 70927, 
  "Piano": 18062, 
  "ötz@@": 54783, 
  "Häuser@@": 62641, 
  "tertiary": 29834, 
  "tnamen": 65774, 
  "ommissar": 54424, 
  "Gramm": 55355, 
  "öffnen": 54425, 
  "ätte": 57532, 
  "carpet": 12476, 
  "ej@@": 31448, 
  "WHO": 11425, 
  "eci@@": 16684, 
  "Libertas": 41626, 
  "anwendungen": 65775, 
  "izvo@@": 55085, 
  "survive": 5640, 
  "möge": 65776, 
  "overlooked": 10568, 
  "klore": 70930, 
  "öffnet": 60381, 
  "involvement": 2615, 
  "вЂ": 30893, 
  "tra@@": 4491, 
  "inflammatory": 20110, 
  "erkenn@@": 57533, 
  "Lech": 25125, 
  "Ger@@": 5543, 
  "istor@@": 43960, 
  "dogma": 20620, 
  "Giscard": 20573, 
  "scal@@": 15304, 
  "Requi@@": 44786, 
  "Marfil": 37407, 
  "Energiever@@": 62642, 
  "room": 268, 
  "roof": 4624, 
  "Steering": 31155, 
  "movies": 5594, 
  "Erfindungen": 62631, 
  "Nipp@@": 40834, 
  "proper@@": 35314, 
  "ә@@": 56596, 
  "exceptions": 5472, 
  "ations@@": 25254, 
  "root": 3912, 
  "nisch": 57534, 
  "Dorf@@": 42632, 
  "Sp@@": 4399, 
  "Not@@": 15042, 
  "Athleten": 58770, 
  "Chrome": 17461, 
  "Corporation": 7022, 
  "climax": 30117, 
  "Wizard": 17207, 
  "stressing": 12697, 
  "implementations": 21936, 
  "10,000": 9035, 
  "foods": 5680, 
  "ssier": 54426, 
  "ሽ@@": 70931, 
  "rump@@": 53901, 
  "mitglieder": 71220, 
  "Silken": 37262, 
  "autonomy": 5503, 
  "Spit@@": 33041, 
  "auti@@": 40430, 
  "Abhaltung": 76590, 
  "nachgefragt": 65778, 
  "pps": 49150, 
  "amazing": 4321, 
  "Fortsch@@": 65779, 
  "dispense": 25095, 
  "morgan@@": 61679, 
  "atmosphär@@": 62645, 
  "config": 15664, 
  "autonome": 55086, 
  "Läh@@": 70262, 
  "XPress": 48408, 
  "市": 52081, 
  "Lucas": 16215, 
  "Spinelli": 28037, 
  "element@@": 44811, 
  "believers": 15807, 
  "provis@@": 30757, 
  "manuals": 12188, 
  "ovy": 29184, 
  "differ@@": 22697, 
  "loyalty": 9036, 
  "ova": 10162, 
  "schoolchildren": 32026, 
  "esten": 49396, 
  "帝": 61782, 
  "ovo": 11199, 
  "Neuanfang": 65783, 
  "defen@@": 22413, 
  "Trilog": 62648, 
  "帥": 65785, 
  "ry-@@": 24161, 
  "third": 403, 
  "傳@@": 75827, 
  "Trek": 4864, 
  "ения": 33888, 
  "schwierigkeiten": 62595, 
  "Touring": 34880, 
  "Fris@@": 26078, 
  "circu@@": 22756, 
  "otten@@": 45023, 
  "Verwaltungs-": 56597, 
  "goodbye": 24816, 
[...]
