{
  "kalk@@": 28484, 
  "verschiedentlich": 41500, 
  "Stakeholder": 50289, 
  "ebet@@": 24647, 
  "Szczecin": 59908, 
  "Signalen": 41211, 
  "-Reihe": 25708, 
  "reichende": 18535, 
  "menü": 11832, 
  "Herstellungsverfahren": 45258, 
  "Pronk": 45401, 
  "coni@@": 69720, 
  "woods": 65504, 
  "üppige": 34156, 
  "hanging": 74281, 
  "Prof@@": 14692, 
  "woody": 74340, 
  "nieder": 14269, 
  "Beschäftigung": 943, 
  "sation": 63873, 
  "EU-US": 81007, 
  "canes": 71145, 
  "Mitte-R@@": 50681, 
  "Moreira": 57227, 
  "gefäl@@": 14677, 
  "stät@@": 62713, 
  "kraftvolle": 44377, 
  "leidete": 47220, 
  "originality": 81008, 
  "Grundrechtecharta": 21966, 
  "ei@@": 1630, 
  "zweifelsohne": 10508, 
  "beteiligung": 14683, 
  "Western": 5243, 
  "Kurdenfrage": 46245, 
  "Bruttoinlandsprodukts": 25657, 
  "Fremdenfeindlichkeit": 11567, 
  "Euro": 346, 
  "Vitamine": 33823, 
  "ี@@": 76749, 
  "Gest@@": 9281, 
  "ellation": 67405, 
  "Reformierung": 22951, 
  "umsetzung": 48015, 
  "Valle": 20226, 
  "Schre@@": 63311, 
  "Blade": 62282, 
  "Infektion@@": 61878, 
  "Ministerkonferenz": 23627, 
  "touristen": 45187, 
  "Nahen": 2530, 
  "replaces": 81011, 
  "vollautomatisch": 43281, 
  "athed@@": 55896, 
  "politician": 81012, 
  "Zábor@@": 75995, 
  "bringing": 81013, 
  "showroom": 75996, 
  "Meinungsunterschiede": 48512, 
  "Gärtner": 55499, 
  "Partnerschafts-": 22845, 
  "bef@@": 16434, 
  "besorgniserregend": 15814, 
  "Fé@@": 43805, 
  "Miert": 43457, 
  "Erzählungen": 34399, 
  "Sack": 50258, 
  "viable": 83698, 
  "schung": 16577, 
  "trieb@@": 24572, 
  "gleichzeitige": 23388, 
  "verbandes": 23985, 
  "haltener": 44810, 
  "überholten": 47803, 
  "removing": 83771, 
  "Kompromiss@@": 25777, 
  "letzten@@": 53640, 
  "Signaturen": 28796, 
  "gabe@@": 18206, 
  "lätz@@": 75360, 
  "ная": 57229, 
  "aufwirft": 31077, 
  "insular": 73624, 
  "unermü@@": 42176, 
  "weiterentwickeln": 15638, 
  "anstehende": 26253, 
  "27.": 6144, 
  "Time@@": 40109, 
  "weiterentwickelt": 8930, 
  "271": 55897, 
  "272": 53264, 
  "273": 52612, 
  "274": 59190, 
  "mehrfacher": 45402, 
  "276": 55069, 
  "277": 61686, 
  "278": 60872, 
  "279": 59012, 
  "vervielfäl@@": 70060, 
  "Schlim@@": 38303, 
  "lächerlich": 15019, 
  "Verteidigungsministerium": 51760, 
  "errors": 70456, 
  "dialogs": 48513, 
  "auseinander@@": 20265, 
  "Erzeuger": 6314, 
  "niederländische": 10716, 
  "cooking": 72480, 
  "Sebastián": 57228, 
  "distingu@@": 73469, 
  "Schlösser": 21141, 
  "Jungfern@@": 52026, 
  "Hamilton": 40445, 
  "übrig@@": 38304, 
  "homo@@": 25674, 
  "zufrieden@@": 18518, 
  "erhobenen": 18902, 
  "ylen": 44996, 
  "regierenden": 38895, 
  "shocks": 79157, 
  "Breiten": 46847, 
  "Kernfusion": 47804, 
  "letzten": 255, 
  "Synonym": 24020, 
  "vorgeb@@": 41501, 
  "Foundation": 6387, 
  "Frühwarn@@": 34157, 
  "鋑@@": 81443, 
  "derweise": 39820, 
  "chter": 9570, 
  "Sozialschutzes": 42545, 
  "affiliates": 75997, 
  "Hour": 54655, 
  "Umzug": 17688, 
  "ching": 34054, 
  "wärtstrend": 46028, 
  "china": 41321, 
  "athan": 71628, 
  "Lan@@": 9246, 
  "Asylsystem": 44997, 
  "employability": 75999, 
  "Mauritius": 28708, 
  "健@@": 79011, 
  "kids": 68959, 
  "Certific@@": 70686, 
  "Fotok@@": 46975, 
  "Muro": 56469, 
  "Lordaeron": 63313, 
  "Supermacht": 27059, 
  "ERGY": 62496, 
  "akzeptieren": 1350, 
  "Kommentaren": 21023, 
  "闻@@": 79012, 
  "ueber": 8852, 
  "Männern": 3168, 
  "geschuldet": 29265, 
  "Überfluss": 42546, 
  "Avira": 31361, 
  "ausgebauten": 51761, 
  "Isler": 56785, 
  "Isles": 66491, 
  "Mangel": 3201, 
  "Stand": 1597, 
  "gastein": 60075, 
  "golden": 64205, 
  "treibenden": 48761, 
  "Knowled@@": 61485, 
  "anheben": 34867, 
  "jäger": 43631, 
  "sters": 17845, 
  "Smar@@": 31965, 
  "wohlwollend": 37252, 
  "ätzt": 57478, 
  "zerbrechen": 38604, 
  "Körper@@": 4708, 
  "stern": 13295, 
  "Küst@@": 23010, 
  "genommenen": 22492, 
  "wo@@": 10180, 
  "andalus@@": 36229, 
  "Aktualisierungen": 17907, 
  "Integrität": 6997, 
  "KTOR": 73112, 
  "insecurity": 79014, 
  "42": 4924, 
  "Schwellen@@": 18378, 
  "Mannschaft": 8891, 
  "33-@@": 56470, 
  "Vorbehaltsware": 24405, 
  "ity@@": 24512, 
  "ländischen": 17027, 
  "employ@@": 75909, 
  "gemu@@": 29449, 
  "therefore": 76000, 
  "Enttäuschung": 9854, 
  "Franciacorta": 63107, 
  "Self-@@": 58186, 
  "musik": 7519, 
  "züglich": 66637, 
  "Diabetes": 19197, 
  "Änderungsanträge": 599, 
  "hinzu@@": 8592, 
  "verschwendet": 22101, 
  "Ambi@@": 24076, 
  "Aufnahme@@": 13194, 
  "UNITA": 62283, 
  "Clients": 12287, 
  "Deutschland": 430, 
  "zugehörige": 29493, 
  "reproduktive": 28101, 
  "Lot@@": 22347, 
  "gün@@": 66642, 
  "cardassianischen": 47309, 
  "pflanzung": 53138, 
  "fremden@@": 26850, 
  "SPA": 19871, 
  "verschwenden": 23563, 
  "Umverteilung": 15639, 
  "volum@@": 37396, 
  "St-@@": 38469, 
  "Pre-@@": 48016, 
  "Delg@@": 63258, 
  "locked": 77718, 
  "tic-@@": 65017, 
  "zeichnet": 3827, 
  "locken": 12640, 
  "Kärnten": 38896, 
  "Sainjon": 61970, 
  "locker": 26787, 
  "intakt": 44007, 
  "Ricci@@": 69294, 
  "Klicken": 14140, 
  "wertungen": 50502, 
  "simpel": 46648, 
  "Subprime-@@": 50259, 
  "Jeggle": 50591, 
  "Rei@@": 3437, 
  "Le": 3499, 
  "wang": 52854, 
  "wand": 10466, 
  "La": 1545, 
  "holl@@": 44008, 
  "reduc@@": 74788, 
  "Prison": 68352, 
  "wann": 825, 
  "Li": 36504, 
  "Tandberg": 59743, 
  "ABAP": 43097, 
  "Lu": 65385, 
  "sterben": 5022, 
  "grenzübergreifenden": 26519, 
  "want": 65982, 
  "überflüssigen": 50021, 
  "mail": 14223, 
  "prinzipi@@": 55205, 
  "Komposition": 18025, 
  "absolute": 5401, 
  "LG": 24707, 
  "Zucker": 8394, 
  "LE": 10842, 
  "LB": 59519, 
  "LC": 48017, 
  "LA": 13478, 
  "glet@@": 55067, 
  "LO": 59909, 
  "travel": 60474, 
  "Zweig": 20937, 
  "Bescheinigung": 33105, 
  "Jetzt": 26195, 
  "Besei@@": 66363, 
  "LV": 33564, 
  "vertritt": 4782, 
  "playback": 76001, 
  "LR": 58517, 
  "vorausgesetzt": 7354, 
  "LP": 54024, 
  "Christdemokraten": 7066, 
  "-off": 70266, 
  "Falcon": 59910, 
  "晏@@": 81020, 
  "Untergrund@@": 40801, 
  "事": 78420, 
  "LY": 66996, 
  "Pestizi@@": 36505, 
  "Berufsk@@": 45600, 
  "weiße": 10414, 
  "erlebnisreichen": 31078, 
  "L.": 20938, 
  "Film@@": 3435, 
  "Verf@@": 21693, 
  "wrong": 76754, 
  "Londoner": 12059, 
  "L2": 62917, 
  "L3": 58348, 
  "Nährstoffe": 41969, 
  "weißt": 32867, 
  "zzanine": 67559, 
  "Städ@@": 14751, 
  "ergreifenden": 44009, 
  "fleiß@@": 46926, 
  "CFO": 55206, 
  "Reduzierung": 3328, 
  "murder@@": 83044, 
  "Lachs@@": 44010, 
  "elnden": 29630, 
  "reibt": 44811, 
  "Stereo@@": 33068, 
  "Rol@@": 30330, 
  "Raumplanung": 44677, 
  "Personalpolitik": 44011, 
  "18th": 76755, 
  "ergibt": 3500, 
  "Brel@@": 62097, 
  "Navigator": 39343, 
  "essin": 52428, 
  "CFR": 67266, 
  "CFP": 74885, 
  "Fokus": 7706, 
  "Verhalten@@": 39949, 
  "Nachbarschaft": 8039, 
  "sätz@@": 58349, 
  "Produktpalette": 10931, 
  "fremde": 14161, 
  "swa@@": 74690, 
  "Sánchez": 44378, 
  "welcomed": 81023, 
  "verbindlich": 8052, 
  "ortiment": 40283, 
  "Niederlassungsfreiheit": 42358, 
  "Willi": 55898, 
  "Entwicklungs@@": 1969, 
  "朝": 81001, 
  "TRAKTOR": 54537, 
  "vertik@@": 54495, 
  "Abkommens": 2700, 
  "Wille": 6135, 
  "Schwester@@": 28709, 
  "welcomes": 81025, 
  "Geschäftsverkehr": 20227, 
  "木": 76003, 
  "bedeutungs@@": 30522, 
  "His": 71741, 
  "Hit": 29189, 
  "本": 75689, 
  "fit": 18197, 
  "benign": 77388, 
  "Schroeder": 71389, 
  "fix": 15521, 
  "occupations": 78384, 
  "inar": 69509, 
  "inas": 40621, 
  "ergonom@@": 29796, 
  "kaz@@": 61687, 
  "kam@@": 16748, 
  "fic": 66638, 
  "Pv@@": 59704, 
  "fia": 69694, 
  "fig": 17653, 
  "Kundendienst": 13667, 
  "pulsi@@": 81026, 
  "fik": 27467, 
  "gebildet": 5570, 
  "Him": 77720, 
  "Hin": 44210, 
  "tik-@@": 36230, 
  "Lak@@": 20266, 
  "zucker": 25192, 
  "spruchs": 28290, 
  "reibe": 45444, 
  "Zusatznutzen": 50309, 
  "Mitro@@": 62715, 
  "ussel@@": 50515, 
  "antum": 70061, 
  "rezept": 46848, 
  "Indones@@": 62918, 
  "verwöh@@": 44767, 
  "Instru": 81553, 
  "streck@@": 25953, 
  "2x@@": 56160, 
  "Mestre": 41300, 
  "angestre@@": 69878, 
  "bure@@": 79015, 
  "klingen": 16749, 
  "Verwundbarkeit": 23241, 
  "arbeitungs@@": 53768, 
  "korro@@": 41502, 
  "Bundeswehr": 38152, 
  "Bé@@": 33616, 
  "terminology": 84194, 
  "Unterhaltung": 5967, 
  "averse": 68356, 
  "Gänze": 32920, 
  "befürwortete": 46849, 
  "Informati@@": 31769, 
  "präzisiert": 28330, 
  "wägung": 67721, 
  "haushalts": 45924, 
  "identifiziert": 10515, 
  "rhein@@": 49259, 
  "Statute": 72535, 
  "Haushaltskontrollausschuss": 28876, 
  "Gründe": 1881, 
  "allah": 60873, 
  "Bediensteten": 17750, 
  "osis": 64499, 
  "Konkurrenzfähigkeit": 47305, 
  "allas": 66639, 
  "mühelos": 19596, 
  "391": 61487, 
  "390": 44998, 
  "Gegenseitigkeit": 14604, 
  "Verlauf@@": 44768, 
  "Pufferüberlauf": 35491, 
  "wäl@@": 24077, 
  "gewonnene": 33829, 
  "größ@@": 48995, 
  "Quot@@": 26851, 
  "Werbem@@": 23153, 
  "GA@@": 26980, 
  "halbe": 9643, 
  "Haute-@@": 57700, 
  "grundlegendes": 14930, 
  "ädern": 47813, 
  "Kriminalisierung": 45538, 
  "乗@@": 76781, 
  "erbringt": 25744, 
  "zauberhafte": 34158, 
  "adapt": 78120, 
  "doppeltem": 51247, 
  "ль@@": 15625, 
  "size": 48351, 
  "benannt": 7076, 
  "aktuellen": 963, 
  "stamping": 76758, 
  "gebundenen": 19953, 
  "endi@@": 49483, 
  "MEDIA": 32553, 
  "IE@@": 31787, 
  "Eto@@": 70876, 
  "Passwor@@": 20896, 
  "strata": 74295, 
  "Haushaltsverfahrens": 28253, 
  "geliebt": 44769, 
  "fairen": 5819, 
  "Reut@@": 57778, 
  "Verkehrssicherheit": 21414, 
  "sheet": 68405, 
  "estimate": 77765, 
  "oberstes": 25456, 
  "bach@@": 27781, 
  "IJ@@": 61688, 
  "aktueller": 15218, 
  "aktuelles": 18410, 
  "Informationssysteme": 32092, 
  "auszudrücken": 15107, 
  "dische": 9609, 
  "Zerem@@": 67865, 
  "Aufenthaltsraum": 25538, 
  "dortigen": 12206, 
  "neutralen": 25011, 
  "ministries": 81032, 
  "Ländern": 237, 
  "Modellierung": 28407, 
  "Kohlendiox@@": 45006, 
  "zubringen": 32819, 
  "Niger": 35709, 
  "mischungen": 35834, 
  "vieto": 81034, 
  "Gb@@": 72592, 
  "bör@@": 54797, 
  "Anwender@@": 21415, 
  "Lond@@": 65032, 
  "Kirsch@@": 40110, 
  "Kommissionsmitglieder": 13453, 
  "orre@@": 29610, 
  "-Spe@@": 53265, 
  "giftigen": 40802, 
  "prei@@": 16581, 
  "klär@@": 22545, 
  "bl@@": 5883, 
  "žá@@": 64027, 
  "endlich": 1136, 
  "Ärztin": 33069, 
  "getötet": 5988, 
  "LAND": 52990, 
  "Aktionsplattform": 45601, 
  "mündliche": 6459, 
  "service": 3804, 
  "Laughter": 81035, 
  "russischen": 2915, 
  "Antriebstechnik": 39958, 
  "comp@@": 28714, 
  "master": 37253, 
  "Stabilis@@": 57076, 
  "russischer": 18471, 
  "Catto@@": 73470, 
  "Vertrauens@@": 12247, 
  "Sparen": 43098, 
  "kontrollierter": 39821, 
  "Aristo@@": 51762, 
  "Studiengänge": 42178, 
  "PvP": 58012, 
  "rewards": 76004, 
  "gefol@@": 67030, 
  "Desinf@@": 39134, 
  "versagt": 14194, 
  "unbestreitbar": 22743, 
  "GMOs": 73883, 
  "Blan@@": 18277, 
  "task": 66135, 
  "Agadir": 61269, 
  "vorsätzlich": 29180, 
  "Oracle": 17359, 
  "sea-@@": 72171, 
  "mann-K@@": 77617, 
  "clean-@@": 73471, 
  "Vorgangs": 51161, 
  "270": 24573, 
  "ehood": 77725, 
  "orientierung": 25971, 
  "ACK@@": 55068, 
  "SPAM": 64229, 
  "ahmen": 13454, 
  "ferien": 23154, 
  "Catalunya": 18974, 
  "Verletzten": 35229, 
  "install@@": 50369, 
  "serhö@@": 51763, 
  "idle": 74282, 
  "beruhende": 27707, 
  "Città": 57077, 
  "SPAR": 61488, 
  "Champion": 27255, 
  "feeling": 67169, 
  "fuehrt": 51456, 
  "Schweizerischen": 31282, 
  "müh@@": 16556, 
  "275": 45810, 
  "6819": 48263, 
  "kontrollierten": 15238, 
  "aufträge": 16483, 
  "Chicago": 14282, 
  "besichtigen": 7621, 
  "6815": 57078, 
  "Pilot@@": 9855, 
  "Rekord@@": 13430, 
  "Є@@": 73472, 
  "ὁ": 81036, 
  "Flugzeu@@": 20870, 
  "či@@": 37538, 
  "З@@": 63875, 
  "tale": 67965, 
  "miniatur@@": 66116, 
  "ugn@@": 71346, 
  "Theo": 59911, 
  "OSZE": 10707, 
  "gebotenen": 18478, 
  "imstande": 9930, 
  "sitio": 81037, 
  "Fontaine": 20385, 
  "kollegen": 28952, 
  "Jiabao": 61067, 
  "Stimmabgabe": 15005, 
  "Facetten": 21866, 
  "Unternehmensk@@": 50261, 
  "invali@@": 70689, 
  "Dial@@": 26707, 
  "Begrüß@@": 61270, 
  "y-@@": 3025, 
  "Session-@@": 38569, 
  "jahres@@": 15128, 
  "They": 71884, 
  "ist-@@": 56306, 
  "simp@@": 40623, 
  "begab@@": 25481, 
  "Erlernen": 24298, 
  "Yokohama": 62807, 
  "segeln": 32764, 
  "führt": 539, 
  "DEM@@": 59520, 
  "ful@@": 40284, 
  "Seit": 27138, 
  "echnik": 14893, 
  "Hor@@": 8298, 
  "kommerzielle": 6524, 
  "pauschal": 44999, 
  "metrics": 65983, 
  "venti@@": 36617, 
  "door-@@": 55401, 
  "ὺ": 81038, 
  "DER@@": 23935, 
  "fertiger": 42125, 
  "Pandora": 52613, 
  "amps": 58284, 
  "beleuchteten": 50023, 
  "two-@@": 67867, 
  "Election": 74686, 
  "Wirtschaftsin@@": 24078, 
  "Sein": 28953, 
  "mosa@@": 59706, 
  "Erkrankungen": 8249, 
  "singer": 61068, 
  "DiskRecovery": 63312, 
  "夕@@": 81039, 
  "HER@@": 33281, 
  "Moo@@": 31882, 
  "besagt": 7426, 
  "Kons@@": 57382, 
  "Teilnahme@@": 27217, 
  "arbeitern": 17846, 
  "tech": 18607, 
  "tilien": 29901, 
  "Avat@@": 53266, 
  "zeh@@": 58812, 
  "yl@@": 7389, 
  "singen": 17029, 
  "Mor@@": 3731, 
  "schafter": 36734, 
  "Marke": 3187, 
  "Züge": 9761, 
  "minimale": 17689, 
  "abel@@": 15739, 
  "ヒ@@": 81040, 
  "Buchar@@": 69023, 
  "bewußt": 4665, 
  "monat@@": 54539, 
  "berühmten": 2344, 
  "dicken": 18443, 
  "berühmter": 28877, 
  "berühmtes": 51521, 
  "Enthaltung": 46650, 
  "Markter@@": 37539, 
  "Template": 26499, 
  "Marks": 59707, 
  "A5-00@@": 14390, 
  "tenden@@": 59349, 
  "ὶ": 81041, 
  "schaften": 5767, 
  "eingestellt": 3768, 
  "Resources": 43820, 
  "arbeitn@@": 42544, 
  "Pomm@@": 35710, 
  "tibe@@": 64636, 
  "Vla@@": 45000, 
  "excavator": 81042, 
  "レ@@": 76005, 
  "kerns": 51522, 
  "Reisen": 3898, 
  "rics": 62716, 
  "than": 22284, 
  "Wiederhol@@": 37862, 
  "rico": 61069, 
  "LIVE": 55233, 
  "Cashman": 25371, 
  "höchste": 2167, 
  "rick": 39346, 
  "rich": 42179, 
  "Geste": 15547, 
  "Strömung": 39981, 
  "trün@@": 65386, 
  "rice": 67170, 
  "verkehr@@": 14476, 
  "Versäumnis": 28954, 
  "rica": 61880, 
  "nebenan": 27615, 
  "beschneiden": 27304, 
  "abgehalten": 7439, 
  "а@@": 9617, 
  "Entlastungs@@": 27139, 
  "dream@@": 73116, 
  "Pöt@@": 74806, 
  "千@@": 81043, 
  "Vok@@": 25671, 
  "Tricks": 15711, 
  "angesp@@": 22548, 
  "öffentlichem": 31283, 
  "öffentlichen": 424, 
  "iate": 69879, 
  "öffentlicher": 4793, 
  "öffentliches": 12907, 
  "蝦@@": 81044, 
  "择@@": 81045, 
  "Wartung": 6701, 
  "bevorzugt": 9878, 
  "XLSTAT": 29024, 
  "platz": 2602, 
  "Schleim@@": 44403, 
  "vill@@": 59199, 
  "medic@@": 70894, 
  "PVC-@@": 37699, 
  "gen-@@": 10922, 
  "boarder": 65622, 
  "Riu": 59708, 
  "Reise-": 44211, 
  "Rio": 7804, 
  "stol@@": 25714, 
  "Expan@@": 31938, 
  "ara-@@": 42937, 
  "電@@": 79021, 
  "gehe": 5791, 
  "Email-@@": 38417, 
  "Investitions@@": 4241, 
  "kodi@@": 16629, 
  "extrem@@": 40631, 
  "Höhepunkte": 29541, 
  "Gründen": 984, 
  "Zuck@@": 42360, 
  "izil": 53586, 
  "mangelt": 10167, 
  "behebung": 41206, 
  "point-@@": 63702, 
  "zahlen": 1286, 
  "Chron@@": 19287, 
  "acienda": 79022, 
  "kr@@": 6998, 
  "EU-Mitglieder": 37398, 
  "Gewis@@": 65927, 
  "modularen": 28710, 
  "Jahres@@": 3563, 
  "Monster": 14301, 
  "individuelle": 2870, 
  "osity": 73405, 
  "Gründer": 9630, 
  ".it": 40111, 
  "entschlossen@@": 55899, 
  "Wassersportarten": 37067, 
  "lots": 68193, 
  "Kenyan": 76006, 
  "irr": 48763, 
  "irs": 28955, 
  "Internetnutzer": 44564, 
  "Informationsaustausch": 10494, 
  "iri": 61881, 
  "Vollstreckung": 25140, 
  "rumor@@": 76760, 
  "iro": 36050, 
  "ations": 15129, 
  "ira": 23389, 
  "auffallend": 35835, 
  "ire": 11232, 
  "Advanced": 17906, 
  "Buff@@": 35024, 
  "Work@@": 12102, 
  "Heimatländer": 51258, 
  "Ausflug": 10391, 
  "Männer": 2170, 
  "extend": 79024, 
  "nature": 66881, 
  "leist@@": 18715, 
  "massagen": 52170, 
  "Robustheit": 41665, 
  "equ@@": 27359, 
  "atei": 46031, 
  "glanz@@": 32738, 
  "ulierten": 25715, 
  "Schauspieler": 10545, 
  "mäh@@": 36365, 
  "butions": 72173, 
  "Shel@@": 31679, 
  "cus": 53267, 
  "rell": 54391, 
  "Gewalttaten": 20312, 
  "weitläufige": 40448, 
  "Turm": 9162, 
  "firm@@": 42743, 
  "PHARE": 25951, 
  "enkreis": 37172, 
  "Vertragsbestimmungen": 51259, 
  "zes@@": 20008, 
  "dow@@": 43895, 
  "heating": 75363, 
  "Laura": 39950, 
  "Staat": 1197, 
  "negative": 4749, 
  "welche": 222, 
  "Weihnachts@@": 7142, 
  "Neuchâtel": 67701, 
  "geraumer": 24279, 
  "Straß@@": 12540, 
  "Forschungen": 12116, 
  "ausgewogene": 7166, 
  "esis": 50024, 
  "Argum@@": 38768, 
  "Apartment": 4191, 
  "sierungs@@": 28181, 
  "ppets": 65019, 
  "Kurier@@": 50618, 
  "unterstreichen": 3394, 
  "seu@@": 55501, 
  "Government": 43424, 
  "Schlafzimmern": 13226, 
  "Dokumentations@@": 35363, 
  "esia": 40449, 
  "esie": 52751, 
  "DIM@@": 62284, 
  "Entschließung": 679, 
  "blonde": 67171, 
  "歌@@": 81049, 
  "occ@@": 66245, 
  "Kosten-@@": 62919, 
  "Ō@@": 68366, 
  "fra": 64207, 
  "Beruh@@": 61071, 
  "Mitspieler": 51524, 
  "intuitiv": 23101, 
  "Vertretungen": 18446, 
  "union": 12541, 
  "Harrachov": 62497, 
  "fri": 76762, 
  "Mitgliedsländern": 10411, 
  "erinnerte": 26406, 
  "kasten": 18501, 
  ".": 4, 
  "beratungen": 45188, 
  "fru": 72758, 
  "Energiegewinnung": 41322, 
  "Halten": 47306, 
  "Haushaltskontroll@@": 50262, 
  "trock@@": 30690, 
  "Poseidon": 63510, 
  "IStGH": 44222, 
  "Kunststoff@@": 8220, 
  "Arnaud": 63877, 
  "guil@@": 70268, 
  "Konflikt@@": 13333, 
  "haft@@": 28331, 
  "tibility": 77729, 
  "TO@@": 12738, 
  "Consensus": 65846, 
  "fahrenden": 39543, 
  "TZ@@": 33169, 
  "Charakteren": 47819, 
  "Auktion@@": 26708, 
  "Parlam@@": 73756, 
  "Durão": 63108, 
  "Kloster": 8532, 
  "spin": 72802, 
  "coo@@": 73474, 
  "Wiersma": 54395, 
  "TDI": 54025, 
  "Auszahlung": 14825, 
  "Flach@@": 15980, 
  "MY@@": 46250, 
  "Ÿ@@": 71893, 
  "Lagerung": 10035, 
  "präzisen": 16623, 
  "Osti@@": 60078, 
  "employ": 81050, 
  "Vorreiter": 25778, 
  "vorzubringen": 33523, 
  "Eingestän@@": 49260, 
  "umsteigen": 26319, 
  "真@@": 77731, 
  "vorschrift": 50997, 
  "Vorjahres@@": 16511, 
  "deste": 50516, 
  "canoeing": 79030, 
  "Hauptaufgabe": 21879, 
  "wachsen@@": 61489, 
  "Select": 49910, 
  "desto": 4615, 
  "uneingeschränkte": 8966, 
  "Hirsch@@": 42361, 
  "Zwischenstopp": 47067, 
  "alisten": 9038, 
  "Trinken": 26520, 
  "Cala": 11971, 
  "rutschen": 35971, 
  "conditioner": 79031, 
  "Tourism@@": 50998, 
  "Genugtuung": 12314, 
  "komponiert": 38897, 
  "numerische": 47307, 
  "memorial": 79032, 
  "Valley": 18826, 
  "angehoben": 19562, 
  "rechenschaftspflich@@": 64637, 
  "zah@@": 14111, 
  "Thailands": 41503, 
  "strengere": 9723, 
  "feind@@": 31966, 
  "devo@@": 72804, 
  "Videok@@": 24763, 
  "detailliertere": 38682, 
  "split": 60702, 
  "Zusammenlegung": 44770, 
  "substanti@@": 35575, 
  "lipp@@": 70691, 
  "junge": 2043, 
  "tensive": 53641, 
  "boiled": 81053, 
  "vierten": 6584, 
  "viertel": 7530, 
  "publiz@@": 45151, 
  "Erwachsene": 4604, 
  "hochauflösenden": 51764, 
  "zugewiesenen": 28255, 
  "ary-@@": 63511, 
  "Commons": 27384, 
  "-Seiten": 18290, 
  "Schocks": 23057, 
  "Subsembly": 63314, 
  "M.@@": 21980, 
  "erzi@@": 23058, 
  "Tak@@": 12499, 
  "Traces": 65847, 
  "Lebensformen": 44155, 
  "überarbeitet": 9508, 
  "EBA": 60874, 
  "路@@": 81055, 
  "Darstellungs@@": 37854, 
  "ität@@": 24829, 
  "Modul": 4666, 
  "Zustände": 15944, 
  "Ungewissheit": 23834, 
  "Wod@@": 65725, 
  "Freizeiteinrichtungen": 35364, 
  "einhergehen": 12601, 
  "verschiedenste": 14567, 
  "Elfen": 46050, 
  "mittragen": 31284, 
  "Modus": 5253, 
  "桂": 81056, 
  "inc@@": 22165, 
  "dk@@": 62498, 
  "corporate": 66747, 
  "plaque": 81057, 
  "Zollunion": 14548, 
  "Populismus": 27060, 
  "Rapid": 45403, 
  "zurzeit": 4007, 
  "Noval@@": 64638, 
  "roll@@": 15960, 
  "stream@@": 64329, 
  "Florentiner": 51462, 
  "FL@@": 14549, 
  "vermietung": 34651, 
  "Dexter": 62717, 
  "Vorhang": 24546, 
  "body": 61468, 
  "wiederholten": 14640, 
  "lasse": 10923, 
  "Jurys": 58959, 
  "IAO-@@": 41995, 
  "weltberühmten": 19686, 
  "loo@@": 62718, 
  "fonds": 4735, 
  "FC@@": 55772, 
  "religi@@": 41832, 
  "gleichberechtigt": 20569, 
  "Zugeständnis": 47308, 
  "hai": 25141, 
  "polis@@": 56629, 
  "hak": 62857, 
  "hal": 58518, 
  "ham": 13823, 
  "han": 20570, 
  "endum": 70458, 
  "Oscar": 22247, 
  "umfangreiche": 3393, 
  "Weltgipfel": 41903, 
  "had": 30166, 
  "Immobilienmarkt": 43282, 
  "hay": 71390, 
  "Connecticut": 62499, 
  "beloved": 81058, 
  "fielen": 12811, 
  "Schicksals": 45404, 
  "ด@@": 77734, 
  "har": 32765, 
  "Passagieren": 21670, 
  "hat": 44, 
  "Eure": 21294, 
  "End-@@": 26320, 
  "Great": 22681, 
  "wr@@": 54752, 
  "Boots@@": 15522, 
  "priesen": 39951, 
  "inging": 68353, 
  "knock": 72481, 
  "elders": 79033, 
  "Setup": 23857, 
  "Lampedusa": 25890, 
  "Risikof@@": 60079, 
  "Mich@@": 21142, 
  "Mitterr@@": 71391, 
  "unequivocally": 81059, 
  "objective": 76009, 
  "Brücke": 5417, 
  "vorteilhafte": 18835, 
  "Sonnenunter@@": 59007, 
  "Risikok@@": 36366, 
  "shadow": 68514, 
  "commodi@@": 79035, 
  "beherbergt": 8525, 
  "Selbstregulierung": 28956, 
  "schienen": 17602, 
  "ǒ@@": 77735, 
  "Subjek@@": 19630, 
  "semi": 72369, 
  "egelung": 11722, 
  "igrants": 79036, 
  "ähert": 35231, 
  "abhält": 44565, 
  "Comic@@": 46052, 
  "baskets": 79037, 
  "certified": 73504, 
  "ähern": 74791, 
  "Steven": 39347, 
  "Frames": 34991, 
  "ateg@@": 50999, 
  "reduzieren": 3019, 
  "Pentagon": 55208, 
  "ス@@": 72805, 
  "tsprech@@": 60703, 
  "Swedish": 71148, 
  "attorney": 79038, 
  "hau@@": 9591, 
  "Lagerhaltung": 44212, 
  "Klassifikation": 41146, 
  "crowd": 81063, 
  "billiger": 11401, 
  "Tó@@": 63701, 
  "Wohnen": 21967, 
  "crown": 77736, 
  "ianischen": 47550, 
  "Druck@@": 2180, 
  "lebigkeit": 67869, 
  "Lenkungs@@": 37855, 
  "Mittelmeeres": 33835, 
  "Wies@@": 25954, 
  "Nordosten": 17439, 
  "angu@@": 54540, 
  "Plit@@": 58100, 
  "Queenst@@": 76763, 
  "darüberhinaus": 22198, 
  "zeugt": 11363, 
  "geografischen": 10486, 
  "Antal@@": 68354, 
  "Erweiter@@": 20071, 
  "nachlässi@@": 58682, 
  "zeugs": 35836, 
  "Golfplätzen": 29192, 
  "inhuman": 68694, 
  "Garda": 22476, 
  "unting": 80777, 
  "zeuge": 24134, 
  "stands@@": 10476, 
  "Facebook": 16482, 
  "Spalte": 11543, 
  "Ray": 34044, 
  "sprach": 3492, 
  "Übersetzer": 10249, 
  "Leitungs@@": 19720, 
  "Watts": 40450, 
  "sing@@": 32807, 
  "Tiermehl": 46878, 
  "Erfüllungsgehilfen": 29902, 
  "ausgehende": 27981, 
  "Multilateralismus": 21968, 
  "Johan@@": 61882, 
  "barcode": 79039, 
  "Menschenrechtsaktivisten": 21458, 
  "binden": 10197, 
  "minimalen": 20833, 
  "Calle": 20072, 
  "binder": 53269, 
  "interpre@@": 31379, 
  "bindet": 19121, 
  "starring": 79040, 
  "Fe@@": 9605, 
  "Bündel": 37254, 
  "endor@@": 41996, 
  "grü": 79065, 
  "industrialisierten": 34516, 
  "adet": 56026, 
  "fernseh@@": 45811, 
  "Barri@@": 34127, 
  "acom": 64762, 
  "Mitspracher@@": 68695, 
  "ader": 13431, 
  "ades": 19332, 
  "chemisch": 44213, 
  "Zulassungs@@": 17173, 
  "cular": 67696, 
  "Menüs": 11195, 
  "President-in-Office": 79041, 
  "aded": 61490, 
  "entier@@": 25716, 
  "Schub": 38470, 
  "Schadenspunkt": 46652, 
  "klarzustellen": 22744, 
  "Schuh": 27391, 
  "aden": 4897, 
  "Hip@@": 33466, 
  "teles@@": 71631, 
  "Etik@@": 50762, 
  "Hauptverantwortung": 30691, 
  "schlu@@": 30331, 
  "-Laufwerk": 34517, 
  "onien": 16671, 
  "Pragmatismus": 32260, 
  "Formulierung": 5246, 
  "pandem@@": 67268, 
  "honeymoon": 81330, 
  "lieber": 3364, 
  "formulierten": 21492, 
  "Aaron": 47806, 
  "Klasse": 2898, 
  "Gemeinschaft": 429, 
  "anisch": 20352, 
  "Förderungen": 34868, 
  "anbieter": 10042, 
  "einzuziehen": 45405, 
  "shoots": 79043, 
  "Dai@@": 57867, 
  "Beutel": 41492, 
  "Elastizität": 39516, 
  "anbietet": 7036, 
  "hammo@@": 81122, 
  "dick@@": 24513, 
  "Ebro": 55049, 
  "addington": 73884, 
  "mbH": 30901, 
  "exek@@": 59716, 
  "Entscheidungsprozessen": 39348, 
  "lenk@@": 35487, 
  "ernstes": 18482, 
  "valu@@": 70692, 
  "fabrik": 12315, 
  "Weltwirtschaft": 5631, 
  "betonte": 12740, 
  "Heidel@@": 55071, 
  "Erwerb": 8075, 
  "Ende": 307, 
  "Kommun@@": 37700, 
  "Abfragen": 26636, 
  "music": 53818, 
  "ve@@": 8711, 
  "isl@@": 28498, 
  "luxuriö@@": 51000, 
  "wände": 14601, 
  "öglich": 76765, 
  "pfen": 10544, 
  "normaler": 19597, 
  "normales": 22745, 
  "Aufschub": 22986, 
  "ersticken": 37701, 
  "vorbildlich": 33283, 
  "е": 9644, 
  "strike": 73885, 
  "Warn@@": 12895, 
  "verde": 58519, 
  "normalen": 3662, 
  "Messestand": 28628, 
  "Pich@@": 47807, 
  "生@@": 74284, 
  "safeguard": 77738, 
  "envis@@": 69024, 
  "Gerichtsverfahren": 13185, 
  "other@@": 57230, 
  "geteil@@": 56161, 
  "年@@": 77739, 
  "amerikanischen": 1499, 
  "echo@@": 70475, 
  "auszuräumen": 31080, 
  "amerikanischem": 41833, 
  "arrays": 72483, 
  "aza": 45018, 
  "anco": 49261, 
  "endete": 11440, 
  "County": 25893, 
  "azz": 74285, 
  "Málaga": 17259, 
  "Wahn@@": 45002, 
  "Haus@@": 3472, 
  "amerikanischer": 10288, 
  "amerikanisches": 27061, 
  "Honig": 16799, 
  "Isabel": 47150, 
  "dues": 74830, 
  "pricing": 71517, 
  "Vorsitzende": 6741, 
  "zusammenleben": 45618, 
  "auswahl": 9385, 
  "kontrollier@@": 31728, 
  "moderne": 1230, 
  "Terror@@": 7663, 
  "minibar": 67407, 
  "tis@@": 37856, 
  "Tales": 34009, 
  "IME@@": 57889, 
  "Cap@@": 7321, 
  "minal": 51001, 
  "bular": 79998, 
  "überbringen": 51525, 
  "religiöser": 13865, 
  "hauses": 12299, 
  "Befehlen": 51260, 
  "Tool@@": 18836, 
  "Badewanne": 9782, 
  "ECOFIN": 55354, 
  "fließt": 11521, 
  "kostbaren": 38305, 
  "unterschiedlich": 3748, 
  "fungierte": 51002, 
  "Her@@": 3171, 
  "quick@@": 54070, 
  "Schü": 79045, 
  "billig@@": 23684, 
  "Chinesischen": 48764, 
  "ritte": 32450, 
  "Visitenkarten": 40803, 
  "LateRooms.com": 11463, 
  "IC-@@": 32102, 
  "Betäub@@": 37741, 
  "stürzen": 10039, 
  "italienische": 4375, 
  "Antidiskriminierungs@@": 35972, 
  "Weizen": 28327, 
  "Fasern": 23788, 
  "roll": 51261, 
  "konkrete": 1531, 
  "kontro@@": 34275, 
  "ßes": 18411, 
  "ßer": 11430, 
  "E": 1923, 
  "transporten": 47552, 
  "palms": 77970, 
  "amerikanische": 2721, 
  "milde": 21540, 
  "Gardena": 60704, 
  "Melbourne": 36735, 
  "ham@@": 26583, 
  "intent": 79046, 
  "sage@@": 28329, 
  "OV@@": 57231, 
  "variable": 21366, 
  "transporter": 61491, 
  "veröffent@@": 36367, 
  "Gardens": 30124, 
  "halb": 9853, 
  "ßen": 5867, 
  "Kraus@@": 59013, 
  "PostgreSQL": 41147, 
  "gegenübersteht": 26196, 
  "Wirtschaftspolitik": 4314, 
  "Free@@": 15442, 
  "Massenentlassungen": 40804, 
  "eBay": 22843, 
  "ren": 5971, 
  "kämpf@@": 24514, 
  "Decree": 76766, 
  "Rechn@@": 27312, 
  "Wahlmöglichkeit": 46032, 
  "green@@": 69697, 
  "G20-Gipfel": 35973, 
  "chain": 62106, 
  "whoever": 81068, 
  "3st": 60876, 
  "anhaltend": 30607, 
  "entrepreneur@@": 77740, 
  "wahrnimmt": 28629, 
  "ost": 37412, 
  "谢@@": 82512, 
  "osi": 61072, 
  "osk": 70459, 
  "digungen": 13988, 
  "oso": 56027, 
  "abgaben": 21202, 
  "osa": 23932, 
  "chair": 72806, 
  "ose": 11687, 
  "Kra@@": 11248, 
  "Krebs@@": 11157, 
  "hän@@": 7343, 
  "macht": 426, 
  "voc@@": 54169, 
  "fro@@": 9536, 
  "gnung": 45189, 
  "Tourist": 23390, 
  "schaftspflich@@": 81073, 
  "schöner": 7509, 
  "schönes": 6247, 
  "Rassen": 26637, 
  "unterstützende": 30798, 
  "crates": 76767, 
  "Bourdi@@": 56805, 
  "mache": 7498, 
  "schönen": 1712, 
  "schönem": 17772, 
  "ikrobi@@": 79047, 
  "circumstances": 81074, 
  "Tourism": 51263, 
  "Vorjahres": 34869, 
  "Hammer@@": 45406, 
  "Tall@@": 47826, 
  "Österreichische": 54817, 
  "beleg@@": 45407, 
  "Karo@@": 57541, 
  "läufer@@": 47553, 
  "Funk@@": 7943, 
  "engagierte": 14041, 
  "verwandten": 23558, 
  "geachtet": 7977, 
  "gloomy": 81076, 
  "ümm@@": 32349, 
  "geflossen": 36368, 
  "Barrel": 37857, 
  "Gesamthaushalt": 51407, 
  "exact": 76011, 
  "dahin@@": 29896, 
  "minute": 35711, 
  "riebene": 27782, 
  "Tat": 1052, 
  "Tau": 59193, 
  "Hausaufgaben": 22952, 
  "Tap": 25683, 
  "signal": 19172, 
  "gewachsene": 35712, 
  "undene": 25894, 
  "Mitte": 1688, 
  "Tax": 60265, 
  "Blätter": 16155, 
  "PA@@": 16659, 
  "Tag": 340, 
  "Habit@@": 55355, 
  "Tab": 43633, 
  "unveräußer@@": 35975, 
  "Tal": 4475, 
  "Verbund": 18412, 
  "Tan": 56630, 
  "Tao": 58350, 
  "drakon@@": 46033, 
  "Antragsteller": 18732, 
  "Mädchen": 4464, 
  "Silvio": 45408, 
  "Luftverschmutzung": 15459, 
  "Stockwerke": 16183, 
  "format@@": 46851, 
  "trails": 73158, 
  "Silvia": 58536, 
  "M.": 9802, 
  "Flugzeugen": 11196, 
  "mauern": 24708, 
  "Ap@@": 7106, 
  "M5": 56631, 
  "Meeresspiegel": 18379, 
  "M6": 63703, 
  "M1": 42182, 
  "shirts": 66494, 
  "M3": 40112, 
  "beäng@@": 78041, 
  "berfläche": 42547, 
  "Ernst": 10764, 
  "cherer": 52614, 
  "grösseren": 29450, 
  "googletag.display": 27934, 
  "echnologie": 23391, 
  "Handelsbeziehungen": 11779, 
  "C-@@": 3126, 
  "Mario": 16502, 
  "fiziertes": 40975, 
  "belä@@": 31383, 
  "köstliches": 35233, 
  "terroristische": 14069, 
  "Inhalten": 5026, 
  "evorschriften": 51900, 
  "CMYK": 64680, 
  "Benennung": 22162, 
  "Quinta": 38856, 
  "Konflikt": 2710, 
  "Magna": 43283, 
  "gewahrt": 9075, 
  "fizierten": 16875, 
  "stärkste": 16831, 
  "Lopez": 59350, 
  "Fraktion": 401, 
  "bewachsen@@": 51264, 
  "Me": 24888, 
  "parlament@@": 37400, 
  "Ma": 37858, 
  "Konzep@@": 36092, 
  "Mb": 63513, 
  "kino": 51302, 
  "Mo": 34631, 
  "Lebensart": 33892, 
  "Paket@@": 10654, 
  "Phantasie": 17803, 
  "Ansatzes": 11305, 
  "aku@@": 33170, 
  "Mt": 25012, 
  "MAD@@": 51051, 
  "vorsätzliches": 46875, 
  "Ms": 38003, 
  "Mr": 69510, 
  "Sitzplatz": 32208, 
  "zylinder": 36231, 
  "vestitionen": 35929, 
  "My": 20678, 
  "Recre@@": 65726, 
  "Daten": 267, 
  "ME": 12558, 
  "MD": 56307, 
  "Lang@@": 6611, 
  "MF": 57232, 
  "MA": 11533, 
  "abends": 6273, 
  "MC": 26087, 
  "MB": 6499, 
  "MM": 55226, 
  "ML": 32362, 
  "legungs@@": 13118, 
  "partments": 64742, 
  "MI": 49262, 
  "kreislauf": 33836, 
  "queue": 73118, 
  "MT": 27475, 
  "MW": 42744, 
  "abende": 24889, 
  "itäten": 8811, 
  "MP": 27616, 
  "MS": 6602, 
  "MR": 51265, 
  "vorgeschrieben": 12618, 
  "anna": 14638, 
  "HV@@": 48766, 
  "Annahme": 1225, 
  "MY": 55607, 
  "Auswirkung": 9779, 
  "verwundert": 25013, 
  "iertem": 11628, 
  "info@@": 36860, 
  "UV-@@": 18608, 
  "Giulio": 62515, 
  "liance": 64331, 
  "Jum@@": 39822, 
  "Giulia": 64874, 
  "fortführen": 23011, 
  "Biog@@": 65507, 
  "umpf": 55356, 
  "Vorstands@@": 24893, 
  "bestimmt": 1364, 
  "Jong": 53140, 
  "Wes@@": 11575, 
  "Kyo@@": 70271, 
  "Root@@": 41679, 
  "made-@@": 73887, 
  "Nei@@": 32656, 
  "mak@@": 27617, 
  "August": 1676, 
  "working": 66749, 
  "aine": 62678, 
  "hГ": 40805, 
  "Baskenland": 24831, 
  "Person@@": 9118, 
  "Ermittlungen": 12602, 
  "Verordnungen": 5143, 
  "ausbeuten": 49476, 
  "gefahr@@": 29451, 
  "Mosaik": 43100, 
  "Lo": 51190, 
  "aufgebür@@": 77078, 
  "geschwä@@": 49504, 
  "ad@@": 1937, 
  "Millim@@": 54541, 
  "effektiv": 3084, 
  "USB@@": 31883, 
  "Iris": 54288, 
  "unvermei@@": 44180, 
  "Klaus": 12500, 
  "Fernen": 44214, 
  "opädie": 59015, 
  "liere": 46423, 
  "nas@@": 44215, 
  "nad@@": 38606, 
  "JR": 66464, 
  "wünsch@@": 24764, 
  "milli@@": 26981, 
  "Belichtung": 50241, 
  "Rechtsstaatlichkeit": 3769, 
  "Mobiliar": 22199, 
  "Zentrum": 644, 
  "Management-@@": 13095, 
  "prefer@@": 78212, 
  "Genuß": 26143, 
  "Liegen@@": 36736, 
  "ى@@": 81082, 
  "Mozilla": 16416, 
  "Abrüstung": 15300, 
  "Nord-Süd-@@": 30428, 
  "iederlassung": 50026, 
  "riders": 65138, 
  "Noti@@": 27935, 
  "Bart": 46034, 
  "Träger@@": 18139, 
  "Marques": 38057, 
  "MASCHINE": 64814, 
  "portugiesische": 10471, 
  "ABAS": 61073, 
  "baths": 78031, 
  "Pays": 62720, 
  "abortion": 78128, 
  "subst@@": 67697, 
  "niederlän@@": 45190, 
  "auszusprechen": 13479, 
  "Wörter": 10404, 
  "engra@@": 71620, 
  "altertüm@@": 38769, 
  "Ls": 61209, 
  "craft@@": 64064, 
  "Conservatory": 70576, 
  "Einteilung": 30080, 
  "heimgesucht": 16800, 
  "sover@@": 68195, 
  "mirrors": 71886, 
  "Building": 25294, 
  "fliegt": 16512, 
  "sprün@@": 56715, 
  "darstellt": 1248, 
  "Punk@@": 11131, 
  "reitungen": 75368, 
  "Hilfsleistungen": 33284, 
  "kreuzt": 39061, 
  "Symphony": 53141, 
  "Verteidigungspolitik": 5835, 
  "lockt": 15884, 
  "günstigsten": 17358, 
  "Segmente": 30429, 
  "Hume": 46253, 
  "litre": 79049, 
  "-Software": 5448, 
  "septic": 79592, 
  "Notfall": 25598, 
  "Marathon@@": 50263, 
  "Neugier": 33525, 
  "assung": 26852, 
  "Orchester@@": 28711, 
  "Rangliste": 41148, 
  "锋@@": 81088, 
  "sprüch@@": 52615, 
  "Skinner": 54928, 
  "einbezogen": 3441, 
  "Bord": 4083, 
  "LAN-@@": 55774, 
  "Pinsel": 35113, 
  "erschwinglichen": 21143, 
  "erneuerbarer": 9923, 
  "Dör@@": 53270, 
  "Transformations@@": 39410, 
  "atal": 32184, 
  "STA": 62920, 
  "scales": 84440, 
  "STM": 62500, 
  "Duma": 39293, 
  "LD": 66495, 
  "Accord": 73456, 
  "Bari": 44218, 
  "pünktlich": 18440, 
  "schweb@@": 37255, 
  "Messung": 10158, 
  "gebnisse": 21933, 
  "atar": 56503, 
  "atas": 65265, 
  "Corporate": 6999, 
  "Korps": 50027, 
  "釉@@": 76770, 
  "Gesetzgebung": 2142, 
  "transportieren": 13933, 
  ".png": 54365, 
  "spannend": 22953, 
  "conscious": 81089, 
  "x-@@": 5820, 
  "Berichterstatter": 544, 
  "acional": 57702, 
  "subsi@@": 81090, 
  "LN": 65727, 
  "mango": 76012, 
  "Moll": 54566, 
  "wolves": 79050, 
  "denburg": 63317, 
  "Nachfolge@@": 30415, 
  "essors": 59710, 
  "Wetter": 5785, 
  "orch@@": 61493, 
  "Novel@@": 26136, 
  "webpage": 79051, 
  "-Linie": 22371, 
  "LIN": 54542, 
  "Auswärtigen": 13805, 
  "years": 72174, 
  "SM@@": 10242, 
  "Bowis": 27783, 
  "episodes": 79052, 
  "Trustees": 61515, 
  "希@@": 79053, 
  "Elias": 55085, 
  "food-@@": 64208, 
  "ergänzen": 4239, 
  "Wetten": 12669, 
  "Posselt": 15595, 
  "bescheiden": 21367, 
  "vertrauensvolle": 47326, 
  "jin": 55072, 
  "östlichen": 7269, 
  "Assist": 62285, 
  "Differ@@": 40452, 
  "LT": 8821, 
  "getäuscht": 35592, 
  "Gil@@": 13676, 
  "widri@@": 33945, 
  "Gitarristen": 45191, 
  "gleichmäßige": 36861, 
  "Assisi": 41325, 
  "illas": 31586, 
  "Nichtnutzung": 41326, 
  "Pad": 42728, 
  "Cederschi@@": 75369, 
  "LS": 48020, 
  "sperspektiven": 62921, 
  "recipients": 83510, 
  "Architektur@@": 12251, 
  "Autoren@@": 40976, 
  "殊@@": 81092, 
  "Deutsche": 3663, 
  "schilder": 38306, 
  "grenzten": 43473, 
  "祝@@": 81093, 
  "registrierte": 14302, 
  "sorten": 13682, 
  "Gordon": 23798, 
  "Ponti@@": 56632, 
  "\\": 5377, 
  "repräsentiert": 10442, 
  "zusammenhängenden": 17153, 
  "ussion": 50518, 
  "5.000": 10091, 
  "constituent": 84900, 
  "plung": 32554, 
  "Kosmetika": 30081, 
  "unterhaltsam": 50763, 
  "jected": 78060, 
  "Erkennen": 41149, 
  "Yellow": 62096, 
  "Kleider": 25895, 
  "stolze": 38621, 
  "Grundi@@": 46035, 
  "Lloyd": 31158, 
  "durchsetzen": 6691, 
  "quarter": 67172, 
  "Bell@@": 15336, 
  "hochentwickelten": 40625, 
  "Produktions-": 18138, 
  "retrieve": 81095, 
  "verließen": 38153, 
  "weges": 41150, 
  "Flugverkehrs@@": 30051, 
  "ernannt": 7855, 
  "receipt": 79054, 
  "Konventionen": 14956, 
  "u.v.@@": 57233, 
  "Live": 7553, 
  "typen": 10181, 
  "gefühl": 7562, 
  "sponsor": 67562, 
  "entering": 81096, 
  "Mok@@": 60412, 
  "Theorie": 5516, 
  "wegen": 567, 
  "Domus": 58844, 
  "Deborah": 59354, 
  "Aushöh@@": 75370, 
  "Brüssel": 1786, 
  "flamm@@": 40626, 
  "traums": 52029, 
  "Rumäniens": 12561, 
  "CPUs": 50475, 
  "Michigan": 40453, 
  "angeflogen": 38453, 
  "internen": 3380, 
  "mpfen": 43101, 
  "internes": 35837, 
  "interner": 21487, 
  "seriously": 81098, 
  "Rundfunk": 19410, 
  "trauma": 72807, 
  "tägliches": 29158, 
  "wirksamkeit": 30987, 
  "internet": 39141, 
  "Transfers": 17773, 
  "Chillon": 58837, 
  "12-@@": 15872, 
  "Details": 2447, 
  "Lipi@@": 66119, 
  "та": 34966, 
  "Kapitel": 3069, 
  "Sy@@": 8765, 
  "counter@@": 69881, 
  "intoler@@": 56163, 
  "hairdresser": 81099, 
  "Verfechter": 15910, 
  "Recital": 72808, 
  "maschinen": 3906, 
  "Konver@@": 18975, 
  "lucrative": 81100, 
  "unvergleichlichen": 27062, 
  "Travelodge": 62722, 
  "forma@@": 52030, 
  "ET-@@": 29025, 
  "byte": 55900, 
  "al-@@": 3081, 
  "añ@@": 34755, 
  "Olivenöl@@": 41327, 
  "Ohr@@": 21295, 
  "beabsichtigte": 25014, 
  "DSL": 32854, 
  "VQF": 60323, 
  "bedeutendste": 18077, 
  "Hi-@@": 54690, 
  "tö": 77745, 
  "Elbe": 36013, 
  "Kepler": 64065, 
  "Bananen": 12542, 
  "Läh@@": 67283, 
  "Meh@@": 27445, 
  "anzen": 13945, 
  "Street": 4621, 
  "unruh@@": 69345, 
  "einsetzt": 7725, 
  "Parkmöglichkeiten": 22768, 
  "emotion": 72809, 
  "info": 8176, 
  "Lieb@@": 12207, 
  "oni": 8817, 
  "saving": 77746, 
  "ono": 45602, 
  "Wanderer": 18253, 
  "Zustandekommen": 26274, 
  "Duisen@@": 72810, 
  "OS-@@": 25658, 
  "L1": 56045, 
  "ong": 10210, 
  "ond": 19203, 
  "one": 2622, 
  "eingebrachten": 11618, 
  "Calderón": 55503, 
  "ony": 37401, 
  "ormen": 58187, 
  "Aufklärungs@@": 24351, 
  "Tiefe": 8996, 
  "ons": 2983, 
  "family-@@": 81101, 
  "ont": 15712, 
  "schließe": 5790, 
  "justiti@@": 36979, 
  "less-@@": 70694, 
  "hundertprozentig": 34632, 
  "Mal@@": 3788, 
  "Überein@@": 30711, 
  "Hisbollah": 14621, 
  "And": 44012, 
  "schließt": 4081, 
  "types": 70563, 
  "Asylantrag": 50592, 
  "Ihrerseits": 39823, 
  "steam@@": 79057, 
  "Bombe": 33526, 
  "Meile": 50519, 
  "kaltes": 44971, 
  "Rückverfol@@": 68355, 
  "automatisch": 1212, 
  "Vögeln": 32657, 
  "erischen": 11108, 
  "ausgeübt": 7661, 
  "günstige": 4748, 
  "shutt@@": 68292, 
  "erisches": 37256, 
  "erischer": 20756, 
  "Zimmerpreises": 23596, 
  "exzellenter": 27936, 
  "inden": 51712, 
  "Benzin@@": 33409, 
  "zusammenzuführen": 38449, 
  "Aufbau@@": 20822, 
  "Kampagnen": 9996, 
  "begrüßen": 1191, 
  "Mittel@@": 2624, 
  "finanzierungs@@": 25896, 
  "inflic@@": 81104, 
  "Anzeige@@": 38154, 
  "schnitts": 25897, 
  "wettbewerbsfähige": 17973, 
  "non-stop": 69698, 
  "crossroads": 81545, 
  "Leich@@": 27937, 
  "Easy-Forex": 52616, 
  "Forschungsergebnisse": 20386, 
  "gely": 71110, 
  "Tennisplätze": 20989, 
  "ball@@": 11237, 
  "schnitte": 22016, 
  "substan@@": 32666, 
  "wandering": 79058, 
  "erwartet": 1208, 
  "Auftrags@@": 8794, 
  "PT@@": 15301, 
  "emen": 21752, 
  "Disziplinen": 17058, 
  "musik@@": 18976, 
  "Bedrän@@": 36232, 
  "Grü@@": 41328, 
  "emed": 75371, 
  "combin@@": 71392, 
  "turned": 83913, 
  "Seminaren": 21637, 
  "Vir@@": 14195, 
  "schloss": 11312, 
  "Repressalien": 44380, 
  "Vig@@": 30082, 
  "smart@@": 67269, 
  "Kul@@": 15239, 
  "borough": 39824, 
  "tourismus@@": 48021, 
  "utable": 70064, 
  "benutzung": 44566, 
  "hochwertiges": 20537, 
  "hochwertiger": 11249, 
  "bekräftigen": 7700, 
  "antworten": 3695, 
  "Dosis": 23608, 
  "Halt": 18502, 
  "wegzudenken": 49263, 
  "zog": 6195, 
  "jahr": 6460, 
  "ض@@": 67026, 
  "brück@@": 46254, 
  "grösser@@": 39876, 
  "zon": 48022, 
  "Fahr@@": 2389, 
  "Mangel@@": 29542, 
  "Zahlen@@": 21671, 
  "Half": 67270, 
  "-in-law": 81482, 
  "Kompromissänderungsanträge": 39953, 
  "hochwertigen": 4614, 
  "hochwertigem": 28261, 
  "imperatives": 77747, 
  "schwerpunkt": 28102, 
  "easy@@": 48768, 
  "Entscheidungsfindungs@@": 36755, 
  "transm@@": 73476, 
  "gestattet": 3317, 
  "Haar@@": 7914, 
  "Nachfolger": 8363, 
  "Gleit@@": 35688, 
  "buffet": 16699, 
  "vorherseh@@": 53087, 
  "enhafte": 47310, 
  "gestatten": 2670, 
  "EP@@": 9848, 
  "Meilenstein": 12582, 
  "printed": 76028, 
  "atro@@": 59001, 
  "benachrichtigen": 25077, 
  "ungewöhnlichen": 21794, 
  "Allergikerzimmer": 26088, 
  "abre@@": 76015, 
  "Kuppel": 41504, 
  "aut@@": 13989, 
  "phic": 73891, 
  "phia": 72175, 
  "markt": 1981, 
  "phin": 59356, 
  "Treibstoff@@": 24890, 
  "bew@@": 22954, 
  "TEC@@": 44013, 
  "Granit": 34068, 
  "Chef": 9259, 
  "Waldbränden": 32452, 
  "auk@@": 62098, 
  "Lande": 9294, 
  "Chen": 37859, 
  "fizierte": 13625, 
  "Geh@@": 8418, 
  "parallelen": 35109, 
  "event": 42508, 
  "Artef@@": 30705, 
  "oppos@@": 81108, 
  "Heiligen": 6555, 
  "stark@@": 63514, 
  "Sonntag@@": 46156, 
  "Entscheidungsträger": 9312, 
  "übergangen": 36219, 
  "leisch@@": 39099, 
  "Boli@@": 51266, 
  "Sky": 19135, 
  "distill@@": 79060, 
  "verworfen": 28630, 
  "Gebirg@@": 27938, 
  "mountains": 80797, 
  "bereits": 130, 
  "Führung": 2042, 
  "Schärfe": 27532, 
  "aggressive": 22292, 
  "Ski": 10311, 
  "Ökonomen": 12126, 
  "øn@@": 59522, 
  "betrachten": 1816, 
  "Paradigm": 62922, 
  "presst": 51766, 
  "zahl": 5457, 
  "Ankunfts@@": 28551, 
  "ausgearbeitete": 50520, 
  "Spanisch@@": 37702, 
  "Topo@@": 47968, 
  "Dienstes": 7810, 
  "Unterbringung": 12777, 
  "Diensten": 6719, 
  "Leadership": 52032, 
  "presse": 18866, 
  "jagt": 48308, 
  "Sach@@": 5649, 
  "betrachtet": 1564, 
  "spezialisierte": 13822, 
  "Busut@@": 76772, 
  "Antoni@@": 33727, 
  "veröffentlichte": 7758, 
  "Speicherk@@": 40162, 
  "Bah@@": 35504, 
  "beschränken": 3679, 
  "assing": 73721, 
  "monds": 67027, 
  "Assets": 55504, 
  "Gruy@@": 67285, 
  "Mik@@": 13423, 
  "Szenario": 12172, 
  "Prinzen": 37660, 
  "stas@@": 69025, 
  "Tony": 13875, 
  "antrieb": 31596, 
  "Barn@@": 52855, 
  "dasselbe": 3928, 
  "ordnungsgemäßen": 16750, 
  "platte": 10655, 
  "Ann": 54366, 
  "akter@@": 53899, 
  "hät@@": 46506, 
  "Ostrava": 59711, 
  "laufender": 32767, 
  "-Karte": 43821, 
  "rondis@@": 65921, 
  "endeten": 18026, 
  "т@@": 8719, 
  "lica": 36233, 
  "Facilities": 69520, 
  "Magento": 63704, 
  "Solidaritäts@@": 18827, 
  "architekt@@": 79063, 
  "tika": 22493, 
  "Übertragungs@@": 13099, 
  "YER": 54158, 
  "Alters@@": 9948, 
  "vision": 22847, 
  "laufenden": 3544, 
  "Pfandbrief@@": 45409, 
  "Besseren": 35221, 
  "unzureichend": 6184, 
  "Kindersterblichkeit": 50246, 
  "exchange-@@": 81110, 
  "Rings": 65387, 
  "freute": 44804, 
  "empfindlicher": 45812, 
  "John@@": 61884, 
  "empfindlichen": 21711, 
  "ausgenommen": 7531, 
  "gefüllte": 49286, 
  "Düngemittel": 49264, 
  "impressions": 77753, 
  "Ringe": 38898, 
  "Keram@@": 36886, 
  "Kosten@@": 4161, 
  "Stadtentwicklung": 47809, 
  "Worldwide": 50766, 
  "planet": 65266, 
  "830": 62924, 
  "Frucht": 17939, 
  "Slobo@@": 72485, 
  "Bruch@@": 34518, 
  "Ludwig": 17374, 
  "Gehör@@": 35135, 
  "Designated": 66750, 
  "Shi@@": 15258, 
  "Stil@@": 12256, 
  "Cli@@": 13214, 
  "enttäuscht": 6091, 
  "Resonanz": 25351, 
  "ki-@@": 35838, 
  "Effizi@@": 68029, 
  "gespon@@": 33837, 
  "Mitsubishi": 53900, 
  "agieren": 7668, 
  "Onlineshop": 37402, 
  "Stütze": 35976, 
  "Hip": 53271, 
  "Impfung": 24767, 
  "Rost@@": 55066, 
  "flut@@": 55358, 
  "Vorhersage": 35490, 
  "aversion": 63922, 
  "entspann@@": 20651, 
  "Inhalts@@": 16606, 
  "auftrag": 14257, 
  "Anspruch": 1443, 
  "tigkeiten": 18903, 
  "Elef@@": 36618, 
  "Járóka": 63319, 
  "uc@@": 40454, 
  "札": 81010, 
  "Charakteristika": 40455, 
  "bereithält": 48810, 
  "194@@": 32453, 
  "concentrated": 81112, 
  "räger": 37540, 
  "small@@": 72811, 
  "fes@@": 10954, 
  "Hauptsp@@": 27940, 
  "alistischen": 11864, 
  "eboarding": 65985, 
  "Sessions": 40287, 
  "emergency": 73478, 
  "cle-@@": 59016, 
  "Seer@@": 25482, 
  "Stability": 68030, 
  "Re-@@": 46852, 
  "s": 239, 
  "fel@@": 10017, 
  "workplace": 81603, 
  "logistischen": 31884, 
  "Plooij-van": 57542, 
  "alistischer": 16722, 
  "alistisches": 34402, 
  "UN@@": 4158, 
  "Terasse": 27547, 
  "alpen@@": 45192, 
  "versand@@": 35793, 
  "Patienten": 1919, 
  "PPE-DE-Fraktion": 7458, 
  "schließung": 30431, 
  "baden": 23155, 
  "idyll@@": 37703, 
  "Führungen": 14786, 
  "improvis@@": 32869, 
  "guitar@@": 74292, 
  "Forschungsaktivitäten": 48024, 
  "Smiths": 53901, 
  "grundlage": 12257, 
  "zahlenmäßig": 43284, 
  "korrekter": 42634, 
  "entschied@@": 36619, 
  "Prozesses": 3635, 
  "Österrei@@": 36738, 
  "Diskrepan@@": 81115, 
  "Veto": 21296, 
  "isierende": 35114, 
  "bitions": 81116, 
  "ausgeschaltet": 22919, 
  "inal": 62723, 
  "klausel": 9811, 
  "akkredi@@": 25835, 
  "Führungsrolle": 12074, 
  "vertrau@@": 22333, 
  "Wirtschaftswachstum": 3415, 
  "Lebensweise": 15248, 
  "名@@": 79317, 
  "motives": 81612, 
  "präsenz": 24191, 
  "präsent": 9578, 
  "Ghrai@@": 74293, 
  "Balz@@": 55505, 
  "wants": 77755, 
  "formen": 3065, 
  "formel": 36739, 
  "Dolderer": 56500, 
  "isations@@": 27534, 
  "Empfänger@@": 18601, 
  "spektive": 39058, 
  "Offiziere": 28104, 
  "readings": 81118, 
  "photos": 66364, 
  "Rückmeldungen": 33838, 
  "VHS": 61885, 
  "Grundvoraussetzungen": 51004, 
  "gged": 72486, 
  "EU-Organe": 34870, 
  "Arri@@": 57703, 
  "former": 32454, 
  "Briefen": 44567, 
  "groß@@": 8878, 
  "buses": 75936, 
  "fГјr": 20524, 
  "Krau@@": 55209, 
  "gehörten": 11504, 
  "Cesenatico": 39187, 
  "Erzeugung": 5454, 
  "bootable": 76017, 
  "до@@": 24475, 
  "Prep@@": 36369, 
  "Überalterung": 31385, 
  "ja@@": 13932, 
  "Commander": 15946, 
  "biomedi@@": 55775, 
  "Hamm@@": 58522, 
  "cure": 74294, 
  "Voreinstellungen": 48994, 
  "fil": 66117, 
  "Anforderung": 11203, 
  "Meeres": 9875, 
  "newspaper": 77756, 
  "situation": 6842, 
  "vernetzte": 49505, 
  "Inhaf@@": 43634, 
  "Komm@@": 8618, 
  "Size": 57384, 
  "Fassade": 11907, 
  "appel@@": 54929, 
  "Prei": 74793, 
  "aufrufen": 8372, 
  "ESPRiT": 52766, 
  "technologi": 79068, 
  "Nagoya": 55506, 
  "Elevator": 63515, 
  "&@@": 71636, 
  "ansteigen@@": 31299, 
  "Prey": 72487, 
  "Workflow": 23296, 
  "Herrlichkeit": 28957, 
  "technology": 64640, 
  "Admiral": 23502, 
  "Preiserhöhungen": 44668, 
  "Profile": 12729, 
  "Sot@@": 41999, 
  "verified": 74794, 
  "Tra@@": 3300, 
  "ÿ@@": 66118, 
  "Forschungsarbeit": 39954, 
  "Deinem": 24460, 
  "Swar@@": 60478, 
  "Deinen": 16576, 
  "otti": 30332, 
  "songwriter": 77757, 
  "Deines": 51044, 
  "Deiner": 13505, 
  "Sok@@": 42367, 
  "gre@@": 13734, 
  "otto": 28251, 
  "elem@@": 61692, 
  "otta": 48508, 
  "übergeordneten": 30783, 
  "Van@@": 14550, 
  "semiti@@": 69891, 
  "otte": 22899, 
  "Verschulden": 22419, 
  "UTC": 53642, 
  "wires": 78901, 
  "abandoned": 80487, 
  "eling": 37541, 
  "eline": 43285, 
  "IRT": 63320, 
  "Commissioner": 70314, 
  "-Reform": 54544, 
  "ventions": 74888, 
  "edges": 71151, 
  "wired": 76019, 
  "Sklaven": 21584, 
  "Clean": 45410, 
  "XVN": 58043, 
  "Neuseeland": 13348, 
  "IRA": 26861, 
  "IRC": 23835, 
  "IRE": 40979, 
  "Militäre@@": 49775, 
  "Islantilla": 61886, 
  "tracking": 68196, 
  "wane": 54795, 
  "berichtet": 4742, 
  "60,000": 68197, 
  "befrie@@": 64501, 
  "ingung": 46854, 
  "dargelegten": 21672, 
  "NUTS": 64875, 
  "Dü": 83207, 
  "Sekretariat": 14445, 
  "nuklear@@": 56787, 
  "Beurteilungen": 33411, 
  "Will@@": 22156, 
  "AOM@@": 68031, 
  "North@@": 51049, 
  "jetzigen": 3617, 
  "Membran": 51700, 
  "Frühstück": 1040, 
  "nearby": 74795, 
  "NR@@": 52988, 
  "Port": 6506, 
  "berichten": 3813, 
  "BOX": 57860, 
  "PAN@@": 53902, 
  "Stay@@": 52618, 
  "spekul@@": 30167, 
  "Spi@@": 13683, 
  "being": 69882, 
  "Diesel": 25898, 
  "COS": 22389, 
  "Merlot": 60244, 
  "Fat@@": 22746, 
  "NAS": 57606, 
  "Dieser": 16398, 
  "Dieses": 18796, 
  "Vorgängerin": 47068, 
  "Soft@@": 17874, 
  "Joseph": 8212, 
  "Speicher@@": 6040, 
  "generator": 33728, 
  "übereinstimmend": 48770, 
  "Maler": 13623, 
  "Einstellungs@@": 21550, 
  "dicke": 21488, 
  "setzung": 6863, 
  "Galaxien": 21585, 
  "priori": 49690, 
  "leder@@": 49265, 
  "konzipierte": 37830, 
  ".The": 73120, 
  "Guantanamo": 38607, 
  "лен@@": 58351, 
  "besetzt": 7240, 
  "IP-Adresse": 11390, 
  "Zyklus@@": 49506, 
  "Proxy": 28597, 
  "erbit@@": 34159, 
  "加@@": 81127, 
  "Minnesota": 60648, 
  "ellem": 7963, 
  "einreisen": 28887, 
  "erachten": 19437, 
  "-Link": 33527, 
  "Montparnasse": 41151, 
  "sums": 64526, 
  "äusserst": 24876, 
  "gestures": 81128, 
  "Merkmale": 5887, 
  "erachtet": 13455, 
  "ehem@@": 42448, 
  "Schuhe": 10871, 
  "preference": 81130, 
  "secon@@": 72177, 
  "Stilllegung": 18612, 
  "günsti@@": 53772, 
  "ukov@@": 76775, 
  "kont@@": 32351, 
  "Pik@@": 41667, 
  "sensational": 81666, 
  "demü@@": 23976, 
  "Ra@@": 6327, 
  "confine": 79459, 
  "kons@@": 26769, 
  "maßen": 18905, 
  "Valent@@": 32352, 
  "ahem@@": 72178, 
  "letztendlich": 2853, 
  "atz@@": 22057, 
  "än@@": 3196, 
  "maßes": 62725, 
  "gefär@@": 41505, 
  "Kulturzentrum": 35112, 
  "Geschäftswelt": 34160, 
  "Man": 14209, 
  "Fujim@@": 69170, 
  "COD": 16587, 
  "Sozialversicherung": 22049, 
  "Chil@@": 20387, 
  "arbeits@@": 6708, 
  "grub": 60706, 
  "tierung": 8642, 
  "Authentifizierung": 28147, 
  "rüfungen": 26255, 
  "30": 492, 
  "AR-@@": 36370, 
  "betrags": 36825, 
  "Bowles": 58684, 
  "udev": 61496, 
  "atorin": 25085, 
  "Engel": 14171, 
  "Murter": 50521, 
  "Großstadt": 29026, 
  "-Sal@@": 29199, 
  "treffende": 28712, 
  "kauft": 11055, 
  "umgebende": 45411, 
  "志@@": 80709, 
  "entfernten": 9129, 
  "privatisiert": 45241, 
  "Allgemeinheit": 18733, 
  "Dio@@": 50265, 
  "Rechtsrahmen": 8720, 
  "ın@@": 54694, 
  "präsentation": 29543, 
  "Heiz@@": 8643, 
  "cavity": 76776, 
  "diplomatische": 11570, 
  "bedenkt": 11512, 
  "Prinz@@": 67290, 
  "酒@@": 81134, 
  "ät": 15981, 
  "äu": 70065, 
  "erneuerbaren": 5668, 
  "wälte": 34246, 
  "Schaldemo@@": 63302, 
  "är": 6368, 
  "refundable": 76021, 
  "다": 81137, 
  "dustri@@": 41506, 
  "911": 60878, 
  "Affin@@": 52619, 
  "übermittelte": 43102, 
  "Peripherie": 18963, 
  "arrow": 79445, 
  "tigh@@": 58523, 
  "finanziert": 3243, 
  "Gehen": 40980, 
  "Literatur": 7961, 
  "ought": 71591, 
  "Cash": 19954, 
  "erias": 56927, 
  "leadership": 73893, 
  "volcano": 79390, 
  "Pazifik": 21246, 
  "Out@@": 9898, 
  "Anmerk@@": 75374, 
  "gelistet": 30168, 
  "konsultieren": 14586, 
  "angestellte": 38471, 
  "Quecksilber": 16045, 
  "apit@@": 19438, 
  "Revolution": 3970, 
  "pir@@": 54398, 
  "Teller": 25418, 
  "pig@@": 50028, 
  "ä.": 63321, 
  "bekistan": 76022, 
  "atives": 13589, 
  "Zeichen@@": 14160, 
  "ativen": 5575, 
  "ativem": 26584, 
  "ländern": 6889, 
  "Borne": 58103, 
  "KG": 11494, 
  "einzuräumen": 10695, 
  "auten": 20614, 
  "host@@": 48025, 
  "infizierten": 34056, 
  "bekannteste": 16117, 
  "market-@@": 70688, 
  "formung": 32353, 
  "No": 20679, 
  "18-@@": 22285, 
  "TECHN@@": 52856, 
  "stört": 23055, 
  "Dienst@@": 5975, 
  "Hinweise": 4159, 
  "wans": 73114, 
  "Paint": 42183, 
  "aktualisierte": 19500, 
  "bedaure": 8688, 
  "Connec@@": 35840, 
  "Résidence": 43374, 
  "mechan@@": 41291, 
  "Wasserpolitik": 40981, 
  "24,@@": 51526, 
  "NH": 15656, 
  "ю@@": 25070, 
  "Sitzungen": 5793, 
  "Stirn": 27233, 
  "NL": 4902, 
  "meldete": 43765, 
  "akademische": 22749, 
  "NO": 40627, 
  "Elektrotechnik": 36725, 
  "NA": 21557, 
  "NB": 55073, 
  "NC": 52464, 
  "NE": 21969, 
  "ön@@": 7592, 
  "ley@@": 28713, 
  "len@@": 5466, 
  "NY": 55507, 
  "DAX@@": 57079, 
  "erläu@@": 36740, 
  "otoren": 42746, 
  "Entfaltung": 23934, 
  "danach": 1253, 
  "NP": 61497, 
  "Con@@": 3247, 
  "NS": 49783, 
  "NT": 19123, 
  "ve-@@": 21368, 
  "NV": 57861, 
  "Kohlen@@": 29631, 
  "witt": 68357, 
  "durchdacht": 25719, 
  "Hannover": 9679, 
  "Überarbeitung": 6168, 
  "N.": 36741, 
  "bran@@": 20228, 
  "neoliberalen": 17624, 
  "wiederkehrenden": 42747, 
  "spiritu@@": 36113, 
  "witz": 27784, 
  "Coma": 62099, 
  "biomet@@": 70695, 
  "singul@@": 64067, 
  "ghter": 75375, 
  "Erkrankung": 14338, 
  "遝@@": 76778, 
  "N1": 65623, 
  "erwähnte": 5857, 
  "with": 27140, 
  "Abkling@@": 70737, 
  "vorwiegend": 9260, 
  "Spaniens": 9460, 
  "Nahverkehr": 20276, 
  "pull": 79073, 
  "asso": 41186, 
  "parli@@": 81707, 
  "kostenfreies": 14446, 
  "kostenfreier": 34277, 
  "rage": 30169, 
  "asse": 6750, 
  "änger": 24169, 
  "Klö@@": 42022, 
  "lehr@@": 12966, 
  "Spielers": 22955, 
  "Spielern": 7815, 
  "Faszination": 18867, 
  "assy": 68667, 
  "Tropfen": 18254, 
  "ragt": 40807, 
  "abwechslungs@@": 52485, 
  "kostenfreien": 9018, 
  "kostenfreiem": 17204, 
  "frauen": 30603, 
  "trips": 62956, 
  "rust": 75376, 
  "bißchen": 18731, 
  "Ud@@": 63242, 
  "Segel@@": 7113, 
  "Ufern": 25599, 
  "arbeitungen": 39825, 
  "jährliches": 40458, 
  "jährlicher": 45814, 
  "Lac@@": 25600, 
  "traumhafte": 20730, 
  "watches": 75466, 
  "wenigsten": 7040, 
  "EU-Mitteln": 28798, 
  "Richtige": 14911, 
  "MEPs": 73482, 
  "follow-up": 72179, 
  "formulation": 76779, 
  "energe@@": 55359, 
  "4km": 64788, 
  "jährlichen": 4890, 
  "eele": 42501, 
  "Humanity": 67560, 
  "cream": 77760, 
  "Beteiligung": 1886, 
  "Sarawak": 63705, 
  "Absicherung": 12997, 
  "emm@@": 22585, 
  "Read": 40114, 
  "Erkenn@@": 53261, 
  "Passwort": 3832, 
  "freunde": 16371, 
  "zweifle": 39112, 
  "1441": 61272, 
  "schwank@@": 35214, 
  "Nein@@": 46074, 
  "sowieso": 15885, 
  "puppy": 81071, 
  "Lady": 19833, 
  "enheit": 8137, 
  "Kult": 48996, 
  "ection": 60269, 
  "Molek@@": 57385, 
  "Seins": 46479, 
  "conceptu@@": 79078, 
  "Eliz@@": 67028, 
  "Eck@@": 13104, 
  "heit@@": 28779, 
  "konsultiert": 12291, 
  "Filmindustrie": 49507, 
  "Sing@@": 17285, 
  "zuträglich": 50522, 
  "Durch": 27385, 
  "schlecht@@": 65728, 
  "trichtlinie": 51768, 
  "Luftfahrts@@": 38472, 
  "Verhaltensko@@": 53773, 
  "Bürokratie@@": 47812, 
  "tricky": 73895, 
  "Ausflu@@": 46480, 
  "konkurrierenden": 43669, 
  "Wagen": 9249, 
  "Pfalz": 45395, 
  "9.@@": 9270, 
  "skanal": 46658, 
  "natur@@": 9212, 
  "temporäre": 25899, 
  "eigt": 67173, 
  "Hardware": 5180, 
  "möbel": 16396, 
  "anteile": 39349, 
  "Gardasee": 20764, 
  "eign": 81524, 
  "Bewilligung": 33839, 
  "Bernardo": 55508, 
  "gebot": 18479, 
  "onlin@@": 47555, 
  "Generalsekre@@": 54796, 
  "mentale": 51113, 
  "Entspannungs@@": 29266, 
  "Kay@@": 34536, 
  "sch": 2635, 
  "Fit": 51809, 
  "Kriegsverbrechen": 17335, 
  "caused": 76780, 
  "Fix": 58010, 
  "LUM@@": 60513, 
  "Améri@@": 54930, 
  "verträ@@": 23799, 
  "stereot@@": 54289, 
  "Ski@@": 5508, 
  "Synergieeffekte": 38899, 
  "nigh@@": 72812, 
  "Fig": 67289, 
  "neigung": 61694, 
  "Storn@@": 66365, 
  "arktischen": 36093, 
  "Kriegsverbrecher": 38500, 
  "Fin": 62287, 
  "hetero@@": 25015, 
  "dissemin@@": 73245, 
  "lizen@@": 28105, 
  "Ghil@@": 75380, 
  "acry@@": 71637, 
  "fundamentalistischen": 40982, 
  "sylv@@": 73896, 
  "chener": 43289, 
  "Finger@@": 21909, 
  "Woo@@": 44772, 
  "schränkt": 40115, 
  "Schalt@@": 9068, 
  "Ruheraum": 50199, 
  "Dod@@": 57235, 
  "medizinischer": 15664, 
  "Ottom@@": 62288, 
  "city-@@": 66623, 
  "begrüßt": 2858, 
  "ereignisreichen": 34055, 
  "schränke": 31386, 
  "loß": 43543, 
  "norm": 39189, 
  "ra": 4020, 
  "ussia": 69348, 
  "Nordo@@": 38473, 
  "gehörig": 40628, 
  "Pazi@@": 43459, 
  "ahme": 35713, 
  "erhielt": 3258, 
  "fehlten": 31682, 
  "begeh@@": 31683, 
  "Kommen": 30263, 
  "ungspartner": 49268, 
  "Grossetête": 34161, 
  "frastrukturen": 36235, 
  "ahmt": 31486, 
  "Wirtschaftsprü@@": 31193, 
  "24th": 77764, 
  "Handbuchs": 50523, 
  "Kondi@@": 64209, 
  "Schach": 31770, 
  "verfügen": 746, 
  "begleitet": 3740, 
  "alismus": 4539, 
  "begleiter": 48267, 
  "4-6": 51585, 
  "Rating-@@": 59194, 
  "adina": 61074, 
  "ading": 58011, 
  "bracht": 58352, 
  "Kompatibilitäts@@": 50769, 
  "ξ@@": 65729, 
  "sang": 33528, 
  "sand": 50770, 
  "getrieben": 11167, 
  "importiert": 13345, 
  "cker@@": 19755, 
  "invol@@": 39956, 
  "begleiten": 6058, 
  "Schlosses": 17997, 
  "sank": 27697, 
  "verleihen": 2799, 
  "Beratung": 2522, 
  "emet@@": 58188, 
  "199": 41835, 
  "198": 52465, 
  "Ergebnissen": 4169, 
  "195": 39517, 
  "194": 51267, 
  "197": 53774, 
  "Russischen": 12630, 
  "躇@@": 81264, 
  "190": 20482, 
  "itive": 73053, 
  "192": 34871, 
  "past": 70696, 
  "19.": 2125, 
  "eingeb@@": 12486, 
  "Richtungs@@": 34759, 
  "Sanierung": 14372, 
  "Reyes": 58378, 
  "komfortabler": 25352, 
  "komfortables": 17663, 
  "Siegen": 38327, 
  "Fruehstu@@": 60220, 
  "prinzipien": 34278, 
  "handicapped": 78365, 
  "städter": 38257, 
  "Worf": 31172, 
  "basierter": 28553, 
  "basiertes": 25096, 
  "astr@@": 23338, 
  "geschmackvolle": 34760, 
  "Verbänden": 21753, 
  "spaket": 19501, 
  "Dermat@@": 52919, 
  "Fraunhofer-@@": 55901, 
  "io@@": 14551, 
  "Ruder@@": 40116, 
  "lein": 26256, 
  "Mitgliedsländer": 8558, 
  "Machtübernahme": 40809, 
  "basierten": 7934, 
  "Malat@@": 59523, 
  "leid": 10736, 
  "Ablauf@@": 28318, 
  "spy@@": 58516, 
  "verschoben": 7058, 
  "hash": 70066, 
  "heben": 10235, 
  "regelmäßige": 7204, 
  "eingespielt": 41266, 
  "abbau@@": 28550, 
  "geschätzten": 13745, 
  "hasa": 81765, 
  "faces": 74764, 
  "Erneuerung": 7839, 
  "Gross@@": 14082, 
  "zuliefer@@": 45004, 
  "gespi@@": 65986, 
  "Westfalen": 55527, 
  "hast": 3963, 
  "methoden": 5192, 
  "Spencer": 31968, 
  "Dipl@@": 28184, 
  "AN-@@": 32658, 
  "Visby": 61498, 
  "34": 4327, 
  "traditionelle": 3077, 
  "Kosmetik@@": 13085, 
  "Security": 10069, 
  "Bonds": 52033, 
  "Küsten": 12071, 
  "nuklearer": 44773, 
  "knapp": 4052, 
  "otive": 65267, 
  "prior": 69699, 
  "nuklearen": 11085, 
  "periodic": 79085, 
  "Überschneidungen": 33131, 
  "Reina": 47814, 
  "kurz@@": 13570, 
  "behör@@": 39957, 
  "i.@@": 16652, 
  "beachtlichen": 27469, 
  "ermassen": 51006, 
  "Shim@@": 40810, 
  "balls": 31566, 
  "Pension": 5866, 
  "rov@@": 35714, 
  "Teher@@": 66643, 
  "VEST": 63879, 
  "wohnen": 2903, 
  "depart": 84666, 
  "Italien@@": 29797, 
  "adidas": 12463, 
  "plain": 69008, 
  "mitzuwirken": 21292, 
  "entwürfe": 27305, 
  "GM@@": 16388, 
  "Unik@@": 38474, 
  "Feng": 57862, 
  "-Skript": 36620, 
  "Richmond": 60270, 
  "Frühjahrstagung": 30692, 
  "Dies@@": 45005, 
  "timmungen": 35841, 
  "crowned": 82819, 
  "aufs": 3476, 
  "auft": 54026, 
  "Niveaus": 18170, 
  "empfohlen": 3831, 
  "Crash": 50029, 
  "Mé@@": 18347, 
  "gameplay": 78661, 
  "geöffneten": 25340, 
  "andro": 52264, 
  "insi@@": 67046, 
  "theastern": 79086, 
  "automate": 72490, 
  "contro@@": 66153, 
  "Verpack@@": 23503, 
  "füllten": 24762, 
  "Provence": 24296, 
  "ø@@": 12967, 
  "mord": 52034, 
  "more": 25193, 
  "marsch": 34993, 
  "niedergelegt": 31099, 
  "Frühjahr": 6159, 
  "Knappheit": 44774, 
  "door": 47311, 
  "testes": 53142, 
  "tester": 31487, 
  "Kärntner": 54399, 
  "chemische": 4777, 
  "materieller": 25364, 
  "Wiederaufbaus": 27698, 
  "adern": 48773, 
  "Vaku@@": 31274, 
  "aders": 40117, 
  "tested": 79087, 
  "unigen": 68033, 
  "gewogen": 59018, 
  "ü.M.": 44195, 
  "ANT@@": 14055, 
  "materiellen": 14216, 
  "security-@@": 72180, 
  "Nigel": 63880, 
  "testen": 3502, 
  "farb@@": 24178, 
  "branchen@@": 15402, 
  "Qaida": 53389, 
  "Geschäftsjahr": 14389, 
  "beschworen": 42824, 
  "tank@@": 49784, 
  "Stauner": 55074, 
  "Jahrhundert": 906, 
  "wärts@@": 15507, 
  "strömt": 41208, 
  "讯": 81148, 
  "记": 81801, 
  "bias": 65184, 
  "Staunen": 52298, 
  "Gob@@": 26726, 
  "Wiederkäu@@": 48140, 
  "Uruguay-Runde": 45475, 
  "Otta@@": 57386, 
  "ong@@": 12881, 
  "Übernacht@@": 35481, 
  "Befol@@": 68842, 
  "Panasonic": 11619, 
  "mehl": 24768, 
  "DC@@": 22217, 
  "wieder": 173, 
  "extrac@@": 81150, 
  "ще@@": 59132, 
  "Ewi@@": 37476, 
  "geni@@": 19439, 
  "wissenschaftlern": 51007, 
  "Garderobe": 47312, 
  "ete@@": 59359, 
  "unzweifelhaft": 45303, 
  "trivi@@": 57236, 
  "Musharraf": 29544, 
  "ram": 28834, 
  "ologne": 71196, 
  "Propag@@": 37704, 
  "Tauch@@": 5001, 
  "wettbewerbsfäh@@": 30902, 
  "mehr": 84, 
  "Glasgow": 25539, 
  "bonded": 81152, 
  "huge": 79088, 
  "微@@": 79089, 
  "hens": 73244, 
  "Stiftungs@@": 27210, 
  "enlarge": 81153, 
  "Fusion": 12464, 
  "klarere": 27699, 
  "zaubern": 40248, 
  "AF-@@": 33963, 
  "tsysteme": 40288, 
  "smug@@": 75378, 
  "neutraler": 50022, 
  "í@@": 4234, 
  "Fresken": 25601, 
  "träglich": 55075, 
  "weitreichender": 50030, 
  "Emil": 50524, 
  "bereinigt": 30249, 
  "mender": 49508, 
  "Lande@@": 39344, 
  "brett": 16648, 
  "umstritt@@": 32263, 
  "Manuskript": 35842, 
  "Wasserqualität": 27402, 
  "weitreichenden": 22372, 
  "menden": 12852, 
  "lanka": 75379, 
  "abbauen": 24461, 
  "Hoffnungen": 7948, 
  "Biokraftstoffe": 17463, 
  "Grundfreiheiten": 7136, 
  "lizenziert": 31587, 
  "entage": 35492, 
  "П@@": 36506, 
  "jiang": 60480, 
  "Trinkwasser": 12946, 
  "Ereignisse": 1936, 
  "Vertragsverhältnis": 34403, 
  "topo@@": 46037, 
  "West@@": 4062, 
  "Moleküle": 50772, 
  "Nero": 7787, 
  "media": 20013, 
  "DP@@": 41836, 
  "Х@@": 68466, 
  "Kohärenz": 6671, 
  "pässe": 31402, 
  "Jel@@": 30903, 
  "geschä@@": 33243, 
  "kognitiven": 46443, 
  "ohydr@@": 71396, 
  "Sour@@": 46258, 
  "Von@@": 38389, 
  "installed": 74902, 
  "ausgewählte": 7633, 
  "Veranstalter": 10824, 
  "gleichsam": 19761, 
  "irakischen": 10182, 
  "Instandhaltung": 17908, 
  "lenkt": 25483, 
  "signs": 81155, 
  "Wärmebehand@@": 52620, 
  "installer": 67410, 
  "smiling": 81156, 
  "DKK": 58685, 
  "anschließt": 29564, 
  "ausserhalb": 12583, 
  "Konkurs": 25016, 
  "Pinheiro": 54027, 
  "smitglieder": 20695, 
  "Hero@@": 39664, 
  "bummel": 45815, 
  "Sprich@@": 67866, 
  "B1": 53273, 
  "Portugals": 15460, 
  "Fisheries": 74298, 
  "Lidos": 61499, 
  "nostalg@@": 58191, 
  "bypass": 79090, 
  "angepackt": 37403, 
  "Brussels": 54291, 
  "sauce": 67411, 
  "Löschen": 19330, 
  "focussed": 81158, 
  "gepflegte": 15358, 
  "tann@@": 71153, 
  "bilateralen": 5905, 
  "oram@@": 64333, 
  "Banken": 1867, 
  "MS-DOS": 64334, 
  "Elektronik": 11783, 
  "fülle": 38307, 
  "leuchtend": 39518, 
  "leistung": 4247, 
  "ersatz@@": 45007, 
  "Banker": 31194, 
  "ersetzt": 3013, 
  "Schwarz-@@": 49176, 
  "engüter@@": 51769, 
  "Wiederer@@": 46855, 
  "anstelle": 6117, 
  "ablehnen": 5439, 
  "füllt": 14983, 
  "zugeschickt": 31969, 
  "Mitwirkung": 7274, 
  "Treiben": 28485, 
  "child@@": 72552, 
  "sorgfältigen": 21982, 
  "ahm@@": 39665, 
  "Obst": 8178, 
  "Quoten": 6676, 
  "compensation": 75983, 
  "Authority": 41152, 
  "zulernen": 69349, 
  "Schröder": 20104, 
  "Stabilitäts@@": 17625, 
  "Republic@@": 73483, 
  "Treiber": 8801, 
  "Messing": 41330, 
  "aganda": 74797, 
  "Whisky": 33053, 
  "oph@@": 33530, 
  "Verschmutzungen": 36371, 
  "architekton@@": 39059, 
  "te@@": 4010, 
  "enh@@": 9680, 
  "つ@@": 76839, 
  "numeric": 73484, 
  "Straßenbahnen": 45816, 
  "Köstlichkeiten": 12229, 
  "geschweige": 22538, 
  "Professor": 6383, 
  "euten": 49785, 
  "task@@": 66004, 
  "TR@@": 7816, 
  "Kriegs@@": 4828, 
  "populäre": 26982, 
  "Ima@@": 20615, 
  "Autost@@": 49786, 
  "mail@@": 21459, 
  "lebender": 24574, 
  "Standards": 1561, 
  "errei@@": 16954, 
  "athie": 45817, 
  "nordamerikanischen": 29923, 
  "鰀@@": 81159, 
  "ändischen": 53559, 
  "research": 58353, 
  "Th@@": 4556, 
  "conut": 71397, 
  "Zielgruppe": 14073, 
  "saugen": 50031, 
  "Report": 19331, 
  "lebenden": 6066, 
  "offline": 28332, 
  "Brun@@": 20415, 
  "Prof.": 8215, 
  "bestellt": 7254, 
  "politisch-@@": 31423, 
  "Anlä@@": 76293, 
  "Messag@@": 53143, 
  "Freihandel": 20821, 
  "Vertragsparteien": 14172, 
  "Prozentsatz": 11380, 
  "17,@@": 31382, 
  "homosexu@@": 28554, 
  "Builder": 36864, 
  "zusammenarbeit": 22058, 
  "Anato@@": 52989, 
  "umwelt@@": 6292, 
  "Nina": 51580, 
  "Energiek@@": 22547, 
  "beglück@@": 60076, 
  "Nine": 36095, 
  "Witwe": 51528, 
  "Lebensmittel-": 24484, 
  "Verstößen": 19124, 
  "Astro@@": 24769, 
  "McCain": 51181, 
  "aussagekräftige": 46856, 
  "Ales@@": 62289, 
  "ユ@@": 77828, 
  "definition": 26927, 
  "pairs": 72813, 
  "gewässer": 19687, 
  "Screenshot": 41838, 
  "speziell": 1397, 
  "stellern": 18322, 
  "ceasefire": 79092, 
  "Lorenz": 59379, 
  "havens": 77772, 
  "bedeutsam": 12998, 
  "plers": 64359, 
  "zufrieden": 1920, 
  "Thyssen": 29452, 
  "stellers": 20616, 
  "Kurven": 23885, 
  "Economist": 54798, 
  "verkehrs@@": 7634, 
  "ocity": 68359, 
  "Qualitätskontrolle": 22103, 
  "Benutzerkonto": 34057, 
  "pH-@@": 52752, 
  "12.30": 40460, 
  "Fri": 68386, 
  "Cache": 17205, 
  "Dalai": 17137, 
  "Hack@@": 17993, 
  "Planet@@": 26983, 
  "anzun@@": 62925, 
  "Χ": 78913, 
  "zunächst": 446, 
  "hegt": 36372, 
  "Fru": 73579, 
  "umfangreich@@": 24622, 
  "ADSL": 42086, 
  "Guss@@": 33946, 
  "Belgrad": 15761, 
  "SL@@": 11830, 
  "Starten": 24770, 
  "Layout@@": 36982, 
  "graphie": 23420, 
  "ographen": 36865, 
  "Byrne": 19563, 
  "wirksamere": 21024, 
  "Vorrechte": 22641, 
  "Einkommens@@": 6264, 
  "anzunähern": 40622, 
  "ographer": 72182, 
  "Neoliberalismus": 36507, 
  "saint": 71154, 
  "erschein@@": 31652, 
  "aver": 50266, 
  "aves": 67563, 
  "essays": 76783, 
  "Handelsp@@": 51770, 
  "session@@": 66249, 
  "Starter": 48997, 
  "Kinderhandel": 45008, 
  "bestei@@": 34043, 
  "Astur@@": 45592, 
  "hinzugefügt": 4091, 
  "Ž@@": 21025, 
  "aufwands": 30147, 
  "Ū@@": 81163, 
  "Autonomiebehörde": 14373, 
  "Gewinnspiel": 38287, 
  "Bugs": 26476, 
  "Kleinen": 14116, 
  "Schlupf@@": 54159, 
  "mittelfristigen": 26247, 
  "ellina": 59196, 
  "elling": 47070, 
  "pum@@": 56164, 
  "sicher@@": 12292, 
  "geäußert": 3798, 
  "Friedensnobelpreis": 47216, 
  "Inhaltsangabe": 37117, 
  "beimessen": 17456, 
  "traps": 75589, 
  "ise@@": 52300, 
  "Vertriebs@@": 9119, 
  "Serv@@": 39959, 
  "vorwärts": 13735, 
  "eiling": 70274, 
  "Cancer": 67029, 
  "Galway": 40880, 
  "Nachfragen": 46481, 
  "Flugzeuge": 6099, 
  "erstadt": 37543, 
  "igkeits@@": 22373, 
  "patchwork": 82252, 
  "Brün@@": 53531, 
  "dismantling": 81164, 
  "empfahl": 38664, 
  "Usbekistan": 19216, 
  "Telekommunikation@@": 42705, 
  "Flugzeugs": 32082, 
  "ommenen": 56634, 
  "Faso": 48539, 
  "setag": 70275, 
  "File@@": 52466, 
  "vely": 74300, 
  "andinav@@": 71155, 
  "Secchi": 58681, 
  "Club@@": 11796, 
  "3L": 62028, 
  "organisations": 76030, 
  "Bundesp@@": 38834, 
  "Napolitano": 32244, 
  "nahme@@": 13380, 
  "graffiti": 76784, 
  "weggenommen": 51846, 
  "gliche": 13195, 
  "Andre@@": 50964, 
  "Stru@@": 22902, 
  "Management": 1584, 
  "büros": 10554, 
  "-Lin@@": 36703, 
  "ﬁ": 81167, 
  "seln": 8627, 
  "Triangle": 65268, 
  "Messina": 51949, 
  "Rijeka": 41839, 
  "SATA": 57080, 
  "Food": 19792, 
  "3G": 34280, 
  "Orchester": 13200, 
  "grundsätzlich": 2441, 
  "cco": 55076, 
  "also": 213, 
  "260": 25504, 
  "geschichte": 4939, 
  "Dampf": 29995, 
  "selt": 25194, 
  "spannungen": 31195, 
  "3D": 7798, 
  "港@@": 79097, 
  "-Fraktion": 59987, 
  "alts@@": 62727, 
  "sels": 42031, 
  "Haushaltsdisziplin": 14571, 
  "singles": 72815, 
  "Verstän@@": 32455, 
  "lehnen": 6234, 
  "virus": 43822, 
  "bom@@": 34825, 
  "Tische": 20657, 
  "luck@@": 72491, 
  "Trekking": 31221, 
  "heb@@": 15609, 
  "gehei@@": 16929, 
  "inu@@": 26984, 
  "Zuschauer": 10132, 
  "sektoralen": 36866, 
  "omin@@": 39646, 
  "Capitol": 61076, 
  "Verbesserungs@@": 31196, 
  "herrschenden": 14200, 
  "desch@@": 22896, 
  "-Version": 26480, 
  "edlen": 16184, 
  "Ermittlungs@@": 27941, 
  "edler": 45818, 
  "Voll@@": 3892, 
  "sulph@@": 81173, 
  "barren": 64505, 
  "Portfolio": 9987, 
  "verantwortungsvoll": 25305, 
  "arten": 3424, 
  "artei": 49270, 
  "pipes": 71440, 
  "reckt": 34162, 
  "technik": 3572, 
  "blenden": 20939, 
  "Han": 65270, 
  "Übrigen": 4288, 
  "blended": 72877, 
  "uga": 61275, 
  "lungen": 6653, 
  "i-@@": 4928, 
  "prä": 79099, 
  "Umweg": 45819, 
  "fürchter@@": 33725, 
  "australische": 35117, 
  "passiven": 31735, 
  "entwicklung": 3287, 
  "Distributoren": 14056, 
  "zugutek@@": 47206, 
  "Finanzverwaltung": 43636, 
  "Behold": 81174, 
  "Has": 72183, 
  "Hat": 14880, 
  "genaueren": 45605, 
  "Schauf@@": 47988, 
  "follow@@": 74799, 
  "Khamenei": 62728, 
  "Bulgarian": 73124, 
  "Dunn": 59197, 
  "Melodie": 36373, 
  "Palast": 8955, 
  "Premiere": 16801, 
  "gesamt@@": 15174, 
  "malerischen": 7120, 
  "Dune": 53532, 
  "-Spezialisten": 30432, 
  "00-@@": 12968, 
  "Base": 22374, 
  "ějo@@": 69007, 
  "installieren": 2854, 
  "knowledgeable": 81395, 
  "Dirk": 35977, 
  "rundherum": 50267, 
  "愛": 79102, 
  "Ausnahmer@@": 67564, 
  "columns": 75381, 
  "hafter": 11605, 
  "haftes": 14881, 
  "dancers": 81175, 
  "haftet": 7421, 
  "Repair": 67873, 
  "künstlichen": 17059, 
  "Ungleichbehandlung": 35843, 
  "Wifi": 53144, 
  "Stanis@@": 54799, 
  "ingrad": 60481, 
  "Kunststoffen": 32768, 
  "stests": 30333, 
  "überragende": 45820, 
  "compass": 79462, 
  "Büro@@": 7862, 
  "onger": 75382, 
  "haften": 4132, 
  "Tren@@": 34872, 
  "haftem": 31970, 
  "Überschrift": 22752, 
  "AutoCAD": 55360, 
  "tanken": 22113, 
  "istinnen": 49510, 
  "gehilfen": 69172, 
  "Telefonnummern": 26321, 
  "bytes": 65848, 
  "Null@@": 11284, 
  "Instrumenten": 6568, 
  "Oett@@": 73125, 
  "tanker": 58013, 
  "rechtlichen": 2086, 
  "chtest": 67272, 
  "GROUP": 40662, 
  "ausdrucks@@": 39190, 
  "Kapazitäts@@": 25956, 
  "Glacier": 31506, 
  "312": 45606, 
  "wahrnehm@@": 40819, 
  "310": 34520, 
  "Des@@": 5893, 
  "315": 60273, 
  "pay-@@": 72515, 
  "Akteure": 4447, 
  "Fiori": 42186, 
  "31.": 4744, 
  "moun@@": 37041, 
  "analog": 20483, 
  "Westeuropa": 12154, 
  "Resol@@": 61066, 
  "forec@@": 81177, 
  "MON@@": 30433, 
  "unverz@@": 66120, 
  "Konsistenz": 21182, 
  "Europarat": 11761, 
  "bedauerliche": 44046, 
  "erbauten": 38004, 
  "Pablo": 43450, 
  "Progres@@": 54677, 
  "sentim@@": 64571, 
  "Unsere": 16361, 
  "Abfahrts@@": 33204, 
  "alization": 64069, 
  "eins@@": 30250, 
  "zurückführen": 35715, 
  "kompletten": 6612, 
  "Simul@@": 29538, 
  "15th": 77776, 
  "Seiden@@": 27306, 
  "440": 39009, 
  "naïve": 77777, 
  "就@@": 81178, 
  "Rollen@@": 14587, 
  "Prü@@": 13488, 
  "faul@@": 66250, 
  "präsentierte": 14978, 
  "Pré@@": 57705, 
  "専@@": 81179, 
  "ZOW": 38807, 
  "Dämon@@": 53644, 
  "Long@@": 23504, 
  "platt@@": 62291, 
  "wechselseitigen": 43460, 
  "gewissem": 17030, 
  "einfachsten": 19688, 
  "Bür@@": 17553, 
  "chalets": 73179, 
  "last": 10415, 
  "gnaden@@": 37118, 
  "Nein": 2693, 
  "小@@": 73485, 
  "Treue": 25738, 
  "best-@@": 65621, 
  "flä@@": 30127, 
  "zurückfallen": 48776, 
  "Neid": 51771, 
  "packing": 73899, 
  "deaf": 84256, 
  "emeal": 81180, 
  "connection": 69885, 
  "Dokument": 1691, 
  "Wilde": 58192, 
  "antin": 46676, 
  "azza": 58193, 
  "azzo": 54460, 
  "Query": 54931, 
  "Poggio": 62503, 
  "krä@@": 26853, 
  "mitteln": 5188, 
  "gewisses": 13590, 
  "gewisser": 6050, 
  "dder": 72907, 
  "beln": 22458, 
  "ausgezeichnete": 2442, 
  "Dick@@": 24406, 
  "ometer": 24575, 
  "acted": 81181, 
  "olle": 16094, 
  "profitieren": 1502, 
  "empfehle": 9509, 
  "Chávez": 20871, 
  "adaptation": 79263, 
  "überschü@@": 28017, 
  "bels": 34404, 
  "olls": 56165, 
  "oppel@@": 34192, 
  "dden": 63942, 
  "belt": 38900, 
  "8,@@": 10932, 
  "mittelt": 62065, 
  "Fördermittel": 24944, 
  "kämpfer": 30136, 
  "geformt": 23886, 
  "schere": 20940, 
  "SFAA": 60574, 
  "Cars": 42667, 
  "Obertauern": 60708, 
  "onies": 72184, 
  "schern": 39960, 
  "Cart": 65508, 
  "IMAP": 59198, 
  "schers": 43484, 
  "ähr@@": 17909, 
  "initiation": 79491, 
  "zigsten": 48268, 
  "Muster@@": 13968, 
  "untermau@@": 66121, 
  "Schreib@@": 10209, 
  "Freizeitpark": 52858, 
  "Wechselwirkungen": 42118, 
  "EU-@@": 609, 
  "Care": 23517, 
  "terminger@@": 39386, 
  "jun@@": 37119, 
  "unschuldig": 33730, 
  "Demokrati@@": 18442, 
  "top-down": 74801, 
  "privilegierten": 19955, 
  "della": 11546, 
  "6@@": 1542, 
  "Reise@@": 3952, 
  "Toaster": 44912, 
  "es.@@": 34761, 
  "lessly": 81971, 
  "messungen": 26953, 
  "moderation": 76786, 
  "38": 5164, 
  "XX@@": 19872, 
  "Tsat@@": 74303, 
  "FS-@@": 46039, 
  "Hiroshima": 57237, 
  "Michel": 9080, 
  "Bemüh@@": 63235, 
  "presses": 76032, 
  "economy": 66652, 
  "Marken": 3789, 
  "Beiträgen": 11962, 
  "Anla@@": 18266, 
  "ANSI": 56308, 
  "IP-@@": 12236, 
  "expanded": 74879, 
  "aushalt": 27201, 
  "budget": 26585, 
  "Maystadt": 59913, 
  "ু@@": 77480, 
  "pressed": 78419, 
  "Intelligence": 32870, 
  "Beschwerde": 12267, 
  "geholt": 15289, 
  "materialien": 7664, 
  "Market": 13914, 
  "pressen": 17554, 
  "Arten@@": 31829, 
  "real": 11191, 
  "Rechtsdurch@@": 50033, 
  "iser@@": 62346, 
  "Lärmbelästigung": 35382, 
  "sicherer": 6095, 
  "kontraproduktiv": 16608, 
  "Drucker": 9190, 
  "Gäste@@": 40476, 
  "vom": 95, 
  "von": 10, 
  "05.@@": 17969, 
  "übergreifend": 16557, 
  "vok": 73486, 
  "Ausstattungs@@": 33532, 
  "Tschechischen": 6434, 
  "kens": 38297, 
  "htt@@": 57706, 
  "vor": 66, 
  "vos": 50773, 
  "Besuch": 1381, 
  "sicheren": 3567, 
  "äuser": 14660, 
  "Drucken": 21428, 
  "voy": 72185, 
  "Tali@@": 69513, 
  "Gedankenaustausch": 39060, 
  "kommuniziert": 28843, 
  "Safe@@": 57863, 
  "kur@@": 4716, 
  "Norwich": 58498, 
  "Geistes": 16046, 
  "gesetzgeber": 67412, 
  "nachträgliche": 40629, 
  "ное": 58194, 
  "personellen": 27618, 
  "vermuten": 17597, 
  "Einrichtung": 1219, 
  "Nordatlan@@": 44777, 
  "Meilen": 9367, 
  "Beistand": 26640, 
  "limitation": 83512, 
  "ной": 44220, 
  "trin@@": 39351, 
  "spartei": 22494, 
  "städte": 17579, 
  "Aufschlag": 47313, 
  "DC-@@": 46699, 
  "Then": 75022, 
  "lateinischen": 32871, 
  "Lohn-": 48055, 
  "Verunsicherung": 45413, 
  "Ruf@@": 32173, 
  "Kipp@@": 54028, 
  "Raphael": 57081, 
  "material@@": 50269, 
  "Anschein": 10813, 
  "relax@@": 54545, 
  "ner-@@": 40289, 
  "Damas@@": 72186, 
  "bemühen": 2886, 
  "nickname": 75859, 
  "Tig@@": 26322, 
  "kompetent": 13710, 
  "geeignete": 3746, 
  "läufen": 20904, 
  "Programmen": 2703, 
  "Namen": 253, 
  "Listen@@": 33841, 
  "Kang": 56855, 
  "kompetenz": 12584, 
  "Tasten": 14244, 
  "Beauftragte": 49787, 
  "indirek@@": 68699, 
  "morgigen": 13883, 
  "Seeblick": 48393, 
  "Rechts@@": 1445, 
  "Umweltz@@": 47071, 
  "Erziehungs@@": 19564, 
  "Programmes": 36173, 
  "etzes": 44967, 
  "meres": 51009, 
  "Karl": 9346, 
  "-Seite": 7741, 
  "O.": 27852, 
  "KS": 37536, 
  "r@@": 1174, 
  "Anwendbarkeit": 34163, 
  "Component": 68517, 
  "erlebnisse": 51530, 
  "Zuschüsse": 17988, 
  "bedingungs@@": 42187, 
  "FWB": 55362, 
  "Tastat@@": 52991, 
  "defin@@": 20038, 
  "princip@@": 73127, 
  "unglaub@@": 30784, 
  "abilität": 18027, 
  "ክ@@": 81186, 
  "alternativer": 16752, 
  "toster@@": 58981, 
  "ore@@": 22956, 
  "Licht@@": 3954, 
  "Grundsätze": 2318, 
  "mandat": 64335, 
  "ierender": 12763, 
  "ierendes": 20514, 
  "genossenschaft": 40290, 
  "geschoss": 25142, 
  "greg@@": 35844, 
  "beheiz@@": 26197, 
  "komprimiert": 32660, 
  "jährigen": 4596, 
  "Hydromassage": 42750, 
  "jähriges": 15886, 
  "jähriger": 10570, 
  "pfeiler": 55249, 
  "eers": 70108, 
  "behand@@": 24407, 
  "Marino": 31809, 
  "Marina": 6136, 
  "art@@": 6934, 
  "Marine": 13036, 
  "einräumt": 17764, 
  "ierenden": 6185, 
  "Brandt": 59361, 
  "On": 13699, 
  "Geltungsdauer": 46040, 
  "nachgieb@@": 41666, 
  "Fuengiro@@": 77863, 
  "Juwel@@": 45414, 
  "CAD-@@": 30024, 
  "Of": 20353, 
  "Restriktionen": 27387, 
  "Truppen": 4753, 
  "wives": 73993, 
  "heilige": 18222, 
  "seligen": 32174, 
  "dchen": 27470, 
  "emergence": 74305, 
  "Os": 34521, 
  "Or": 39191, 
  "Glaubens@@": 13308, 
  "ON": 8968, 
  "OM": 15863, 
  "OL": 24297, 
  "OK": 8698, 
  "genossen": 12465, 
  "einzigartig": 6503, 
  "Eigenheiten": 35493, 
  "OF": 30171, 
  "vermute": 24238, 
  "dürfe": 30172, 
  "OB": 63111, 
  "veranschaulicht": 25248, 
  "chorus": 77779, 
  "Ship@@": 68744, 
  "individuals": 74802, 
  "Potenzial": 4051, 
  "Südtirols": 28503, 
  "markieren": 12528, 
  "OU": 62927, 
  "OT": 47558, 
  "technologie": 7567, 
  "OR": 12380, 
  "kirche": 11513, 
  "OP": 28423, 
  "Inspec@@": 69350, 
  "Capture": 49623, 
  "einmalige": 6935, 
  "dokumentation": 30545, 
  "bi-@@": 54828, 
  "Angriffen": 14658, 
  "pflegt": 19558, 
  "postkommunistischen": 51268, 
  "zijn": 31971, 
  "ital@@": 50270, 
  "Ötz@@": 55510, 
  "semin@@": 42369, 
  "Abspaltung": 51010, 
  "methode": 7310, 
  "Abwägung": 48540, 
  "tisch": 3220, 
  "WTO@@": 35365, 
  "Wärm@@": 51011, 
  "ቐ@@": 81305, 
  "Nap@@": 38475, 
  "Übereinkunft": 8551, 
  "Westbal@@": 35235, 
  "Jün@@": 21322, 
  "lüssen": 21412, 
  "-Lite": 63343, 
  "unterstellen": 32625, 
  "drücklich": 64336, 
  "Frank": 13684, 
  "measurements": 81191, 
  "Menschenrecht@@": 33629, 
  "Wohnbereich": 16876, 
  "Brabant": 63116, 
  "bitt@@": 62928, 
  "spaltung": 42693, 
  "behave": 81192, 
  "anschaulich": 30434, 
  "cool@@": 46041, 
  "Reisepass": 26788, 
  "rifying": 81193, 
  "Franz": 11469, 
  "Aviation": 38901, 
  "ch-@@": 7600, 
  "Cin@@": 26619, 
  "übernommen": 2211, 
  "E-Shops": 19502, 
  "Ausländer": 13162, 
  "Publikum": 4904, 
  "otro@@": 49789, 
  "gekostet": 20314, 
  "flüssige": 40984, 
  "Gesellschaften": 2857, 
  "Arbeitsumfeld": 38103, 
  "bil@@": 7279, 
  "alog@@": 23253, 
  "umliegende": 28856, 
  "wells": 58768, 
  "Gesellschafter": 26641, 
  "hinwegsetzen": 49790, 
  "import@@": 51688, 
  "Construction": 63683, 
  "gehöri@@": 62268, 
  "earth@@": 68672, 
  "Entkoppelung": 42370, 
  "beeinträchtigt": 6672, 
  "Ost": 13861, 
  "tigkeits@@": 18051, 
  "zerstreuen": 36508, 
  "pracht@@": 51824, 
  "bemän@@": 31199, 
  "mouth": 37698, 
  "Before": 67413, 
  "Omni@@": 35005, 
  "Sonnenschir@@": 70697, 
  "ausbreitet": 36374, 
  "Selbständigkeit": 31083, 
  "ਡ@@": 82037, 
  "Zoll": 10243, 
  "terrorists": 81196, 
  "zialitäten": 38476, 
  "zzles": 57545, 
  "into": 43637, 
  "-Browser": 31084, 
  "komplexere": 42188, 
  "befürworten": 4786, 
  "intu": 77780, 
  "welle": 11357, 
  "Wissenschaftliche": 50774, 
  "Sachverhalt": 19679, 
  "aa@@": 64684, 
  "Luftfahrtunternehmen": 19474, 
  "ausbreiten": 27619, 
  "Ausschau": 31588, 
  "Monta@@": 34366, 
  "liziert": 25900, 
  "sightseeing": 73598, 
  "Anlegestelle": 45009, 
  "Trainings": 19910, 
  "afraid": 80906, 
  "Kreditkartennummer": 51012, 
  "schwei@@": 15006, 
  "vorschreibt": 28309, 
  "spac": 75486, 
  "entsch@@": 34281, 
  "obsol@@": 55211, 
  "Verteiler": 36236, 
  "gases": 63882, 
  "Mahler": 59020, 
  "Charme": 5794, 
  "edu@@": 63112, 
  "Kundenbetreuung": 32132, 
  "downloadable": 76410, 
  "User": 5778, 
  "spas": 73573, 
  "weine": 20844, 
  "gitar@@": 51531, 
  "Daniel@@": 45415, 
  "zufriedenstell@@": 50775, 
  "CT@@": 17690, 
  "manische": 35638, 
  "Ausgang": 6914, 
  "ap-@@": 40265, 
  "Dienststellen": 8236, 
  "theken": 52036, 
  "Ber@@": 3453, 
  "Verstoß": 9951, 
  "ани@@": 40327, 
  "l@@": 855, 
  "jacke": 33731, 
  "Befehl@@": 35366, 
  "Graben": 37404, 
  "Spezifikationen": 13969, 
  "Contest": 36509, 
  "Journ@@": 47315, 
  "Amnesty": 22420, 
  "tücher": 40062, 
  "Resolution": 7125, 
  "considerable": 81198, 
  "ministerin": 21026, 
  "fades": 54403, 
  "tschechischen": 8063, 
  "Mexik@@": 44570, 
  "思@@": 79542, 
  "kasch@@": 44350, 
  "Bedien@@": 7702, 
  "möchte": 90, 
  "Memorandum": 35593, 
  "Appartementh@@": 51773, 
  "Filmfestival": 53095, 
  "leicht": 884, 
  "schlendern": 42914, 
  "Alpin@@": 34915, 
  "seriellen": 42001, 
  ".at": 32265, 
  "Antiquitäten": 33326, 
  "mau@@": 38308, 
  "organ@@": 21027, 
  "faden": 36867, 
  "lizieren": 23763, 
  "Eleganz": 7856, 
  "Rentabilität": 16698, 
  "Sofia": 16211, 
  "wuchs": 8818, 
  "einschlägigen": 9125, 
  "Distribut@@": 66367, 
  "influence": 76788, 
  "Bartels": 35619, 
  "Catalogue": 73841, 
  "diverse": 7334, 
  "Rechnungshofs": 11348, 
  "chat": 53645, 
  "Hüterin": 21720, 
  "Sierra": 8436, 
  "bewusstsein": 19908, 
  "Parkett": 34058, 
  "Rhein-Main-@@": 55213, 
  "beitrag": 15355, 
  "räumen": 4955, 
  "obigen": 22861, 
  "Friedrichshain": 57083, 
  "CANoe": 58015, 
  "cushi@@": 79108, 
  "uranium": 81200, 
  "Kompens@@": 42649, 
  "conceptions": 82061, 
  "mächtig": 16137, 
  "Iron@@": 45108, 
  "和": 79109, 
  "Visums": 42752, 
  "gefördert": 2414, 
  "δ@@": 31200, 
  "revision": 59021, 
  "Paketes": 34522, 
  "präsentiert": 2656, 
  "bungalows": 64809, 
  "Julius": 23102, 
  "Materialien": 2454, 
  "herkömmliche": 17508, 
  "reglem@@": 33947, 
  "Phrasen": 44014, 
  "suppression": 73488, 
  "perverse": 58898, 
  "reinsurance": 81706, 
  "Paketen": 12072, 
  "Interessierten": 29996, 
  "線": 77782, 
  "lang": 1151, 
  "lane": 61276, 
  "land": 2178, 
  "weitreichende": 13554, 
  "lana": 62731, 
  "踌@@": 81202, 
  "produkt": 8610, 
  "Leipzig": 9271, 
  "unveröffent@@": 45195, 
  "gesicherten": 18028, 
  "restlichen": 9743, 
  "Radar": 43823, 
  "lant": 70278, 
  "lans": 17232, 
  "graben": 16067, 
  "propagieren": 39579, 
  "Ferdin@@": 65730, 
  "Abdeckung": 22642, 
  "lassung": 25068, 
  "EZB": 3944, 
  "vielschichtigen": 45047, 
  "Kopenhagener": 13998, 
  "pres@@": 11418, 
  "ang@@": 4690, 
  "Wöl@@": 32266, 
  "silber": 46042, 
  "Experten": 2511, 
  "aushaltsp@@": 55715, 
  "Jim": 31314, 
  "Tabletten": 39993, 
  "toten": 25781, 
  "Erwerbsbevölkerung": 47559, 
  "Happ@@": 53376, 
  "schulische": 50526, 
  "agues": 71142, 
  "wiegt": 19956, 
  "Registri@@": 24594, 
  "istic": 61695, 
  "Notice": 69173, 
  "bilanz": 11334, 
  "Nütz@@": 54029, 
  "schämen": 36598, 
  "istik": 15671, 
  "börse": 24192, 
  "istin": 18198, 
  "verwendete": 9051, 
  "Encoder": 54192, 
  "S-@@": 3015, 
  "ö@@": 2535, 
  "Jürgen": 22334, 
  "storniert": 18569, 
  "strände": 45010, 
  "anzeige": 20864, 
  "unverhäl@@": 79112, 
  "resources": 70701, 
  "versary": 78552, 
  "uploaded": 74307, 
  "treibende": 20031, 
  "press@@": 28487, 
  "Organ": 9439, 
  "proizvo@@": 61742, 
  "Par@@": 2346, 
  "ermäßigten": 23254, 
  "liegend": 34201, 
  "zuerhalten": 74308, 
  "Islam@@": 18570, 
  "sc@@": 8567, 
  "fundierte": 15378, 
  "Legislaturperiode": 13334, 
  "Web-Site": 28878, 
  "Luftfeuchtigkeit": 34635, 
  "petitions": 73902, 
  "Clin@@": 31974, 
  "beginnend": 16095, 
  "Stellungen": 47316, 
  "Entschließungsentwurf": 16723, 
  "Fünf@@": 21028, 
  "Markt": 487, 
  "SV@@": 18571, 
  "alin": 37405, 
  "Themenbereichen": 44571, 
  "harbor": 81203, 
  "landmines": 83525, 
  "höher@@": 40630, 
  "メ@@": 76993, 
  "bestück@@": 48269, 
  "worüber": 10477, 
  "gerten": 17286, 
  "befassten": 48270, 
  "Easy-@@": 68034, 
  "destabil@@": 26082, 
  "Handeln": 2873, 
  "Nachrichten@@": 8544, 
  "Sl@@": 21712, 
  "camer@@": 78554, 
  "Petitionsausschusses": 17849, 
  "Möbeln": 13654, 
  "häufige": 26723, 
  "125@@": 61500, 
  "Cunha": 33842, 
  "Kontextmenü": 28800, 
  "insolvent": 66801, 
  "besuchten": 13711, 
  "notwendigen": 1400, 
  "gerüstet": 14935, 
  "Einzelhandel@@": 51854, 
  "synchron@@": 44779, 
  "Mosambik": 25659, 
  "Liebling@@": 22848, 
  "video": 20652, 
  "notwendiges": 36096, 
  "notwendiger": 16999, 
  "ె@@": 81204, 
  "Jugen@@": 30066, 
  "dynamics": 76038, 
  "Bereich": 181, 
  "Transformation": 17994, 
  "rements": 81205, 
  "Rückzug": 10872, 
  "5": 362, 
  "Kunstwerke": 14641, 
  "Technologie-@@": 28258, 
  "ገ@@": 77784, 
  "-of-@@": 65272, 
  "Abänderung": 20712, 
  "multimedia": 67878, 
  "Telegra@@": 54030, 
  "Aid@@": 61696, 
  "Ais@@": 46659, 
  "Blockade": 14089, 
  "demokraten": 52037, 
  "Rezeption": 3486, 
  "erforderlich": 551, 
  "Emissions@@": 5723, 
  "erfunden": 16649, 
  "verträge": 9994, 
  "gesell@@": 22691, 
  "chefs": 31951, 
  "berüch@@": 53145, 
  "dation": 47594, 
  "Privatsphäre": 5197, 
  "weit@@": 9227, 
  "gefahren": 8841, 
  "KYMD@@": 81207, 
  "ри@@": 19090, 
  "krise": 5588, 
  "accommod@@": 73489, 
  "Occup@@": 67566, 
  "Nai@@": 42505, 
  "seil@@": 31885, 
  "atorial": 74309, 
  "Müttern": 28408, 
  "Att@@": 59914, 
  "schwe@@": 30609, 
  "Medikamenten": 12357, 
  "erfrischen": 35357, 
  "Begründer": 38155, 
  "ationsk@@": 13518, 
  "wiederholte": 20608, 
  "Nemetschek": 59714, 
  "Recycling": 15982, 
  "Protein@@": 45416, 
  "gleichzeitig": 407, 
  "fetch": 57387, 
  "Höflichkeit": 24945, 
  "Mühlen": 45196, 
  "weltberühmte": 37257, 
  "Suchmaschinen@@": 32990, 
  "nutritional": 81210, 
  "mussen": 65414, 
  "dson": 74310, 
  "maker": 44780, 
  "Category": 69702, 
  "Athlon": 59715, 
  "Greenwich": 53276, 
  "geschah": 9166, 
  "deten@@": 66137, 
  "Judith": 61853, 
  "Wettbewerb": 944, 
  "Tito": 58687, 
  "Spielerkonto": 47498, 
  "willkommen": 1670, 
  "tick@@": 27524, 
  "wand@@": 8790, 
  "Keramik@@": 18838, 
  "Tuvok": 63518, 
  "streng@@": 23455, 
  "Kosten-": 51269, 
  "getrennt": 4994, 
  "Stammzellen@@": 67694, 
  "Laufzeit": 9834, 
  "wohltuende": 35978, 
  "Menschheit": 5009, 
  "joy@@": 69354, 
  "Solo": 40470, 
  "confidence": 79117, 
  "spräsidenten": 50527, 
  "skirche": 46660, 
  "bingen": 73490, 
  "propose": 80414, 
  "längerfristig": 29369, 
  "erzeugung": 12337, 
  "Pul@@": 11172, 
  "Siegel": 26198, 
  "EU@@": 5134, 
  "eser@@": 28555, 
  "EB@@": 11498, 
  "Sieges": 52038, 
  "Sieger": 12368, 
  "NATO": 3580, 
  "AdLINK": 45417, 
  "Wedding": 66751, 
  "steh@@": 13480, 
  "Kräft@@": 34400, 
  "entfernung": 35979, 
  "Endkunden": 29903, 
  "projektes": 37544, 
  "nie@@": 44953, 
  "pfe": 29216, 
  "Kronplatz": 48027, 
  "ा@@": 74311, 
  "fortzuführen": 22157, 
  "-Roman": 71640, 
  "weiterzuentwickeln": 16210, 
  "Schott@@": 68049, 
  "vö@@": 49512, 
  "effektiveren": 33413, 
  "Patag@@": 57550, 
  "pft": 42104, 
  "ernt": 66692, 
  "hygienischen": 42189, 
  "Mariahil@@": 61501, 
  "Frühstücksbuffet": 3713, 
  "projekten": 7483, 
  "customer": 70976, 
  "Madam": 75385, 
  "Steuersatz": 44781, 
  "zusammenführen": 43290, 
  "Meth@@": 31488, 
  "Milosev@@": 54160, 
  "clients": 67874, 
  "Schlau@@": 60274, 
  "abgetan": 52302, 
  "offizi@@": 62504, 
  "stahl@@": 42371, 
  "dritte": 2541, 
  "Lebensfreude": 36957, 
  "Stück@@": 14090, 
  "erwar@@": 17774, 
  "befürchten": 9332, 
  "stoffs": 37121, 
  "etti": 17526, 
  "bereit@@": 10416, 
  "etto": 16262, 
  "Massenvern@@": 67123, 
  "hervor@@": 7109, 
  "Rückgabe": 19873, 
  "DSL-@@": 44617, 
  "lock": 20078, 
  "loch": 18330, 
  "örtliche": 14197, 
  "ette": 3458, 
  "promotional": 73945, 
  "wußte": 31789, 
  "zuschicken": 52039, 
  "Berufsbildung": 22176, 
  "US-Dollar": 7231, 
  "gegenseitig": 6677, 
  "stoffe": 4211, 
  "etts": 18609, 
  "begehrte": 49780, 
  "rods": 61078, 
  "Tierschutz": 14238, 
  "ameters": 74805, 
  "deck@@": 10222, 
  "e.com": 16035, 
  "teilnimmt": 21071, 
  "weiblichen": 14249, 
  "ämon@@": 52304, 
  "Bestandteile": 9417, 
  "angenehm@@": 36097, 
  "Remot@@": 61290, 
  "chos": 58867, 
  "zeug@@": 23936, 
  "senken": 3814, 
  "Europawahlen": 14979, 
  "ez@@": 13990, 
  "comedy": 76791, 
  "intelligent": 23339, 
  "RiT": 81213, 
  "Haftung": 2916, 
  "Kasper@@": 69175, 
  "amerika": 60484, 
  "herunterladen": 3536, 
  "Färbung": 48271, 
  "auszuprobieren": 30906, 
  "Hyperlink": 45610, 
  "Rati@@": 24648, 
  "Kundenorientierung": 40292, 
  "Vivi@@": 48767, 
  "thotel": 31201, 
  "Red": 7720, 
  "gemessenen": 48778, 
  "widerspiegeln": 8923, 
  "geübt": 22158, 
  "Zurückhaltung": 14004, 
  "Gospel": 61079, 
  "Kontinente": 27388, 
  "CN@@": 13991, 
  "transeuropä@@": 61890, 
  "democracy": 74807, 
  "manpower": 79119, 
  "Mutter": 3943, 
  "einzuleiten": 8114, 
  "charm": 75985, 
  "traditionsreiche": 39667, 
  "gleich@@": 3790, 
  "One": 12000, 
  "Meci@@": 63519, 
  "last-@@": 66884, 
  "geräumige": 8250, 
  "Alpes-@@": 70919, 
  "60-@@": 28106, 
  "gedacht": 4085, 
  "fruchtbare": 21868, 
  "Zerschlagung": 38980, 
  "ichtig": 66726, 
  "lack@@": 19199, 
  "Drink": 12947, 
  "Pfeilers": 20653, 
  "Friedrich-@@": 59912, 
  "muth": 61080, 
  "insight": 81217, 
  "Lif@@": 66498, 
  "Story": 21621, 
  "Geldern": 13768, 
  "plädiere": 24710, 
  "Platin": 48028, 
  "Versuch@@": 15443, 
  "europäisch-@@": 50036, 
  "directs": 77785, 
  "-Rei@@": 13784, 
  "erende": 10336, 
  "entstand": 4582, 
  "interoperable": 69703, 
  "plädiert": 24021, 
  "kammern": 34282, 
  "ELD@@": 68456, 
  "Reisende": 9879, 
  "wundern": 20229, 
  "Scientific": 53646, 
  "Vorruh@@": 41669, 
  "Messdaten": 49000, 
  "speziellen": 1940, 
  "spi@@": 16794, 
  "uh@@": 53348, 
  "ländische": 30435, 
  "Brooks": 64337, 
  "Cabinet": 68201, 
  "Diversi@@": 54294, 
  "Fragen": 246, 
  "spezielles": 10788, 
  "spezieller": 11845, 
  "liebe@@": 44201, 
  "iger@@": 28622, 
  "sow@@": 62505, 
  "derivative": 66885, 
  "油": 81219, 
  "Home": 10029, 
  "Erfüll@@": 66646, 
  "wundert": 41331, 
  "auflö@@": 46482, 
  "morgen": 986, 
  "Vec@@": 33172, 
  "Sender": 11821, 
  "staat": 6010, 
  "恵@@": 81221, 
  "Register": 9407, 
  "Autor@@": 11023, 
  "umhin": 18297, 
  "Anzieh": 82183, 
  "Gewicht": 3114, 
  "Passwörter": 18268, 
  "Senden": 22863, 
  "Works": 36510, 
  "Tabelle": 5635, 
  "realize": 74808, 
  "ीय": 82188, 
  "vorsor@@": 44383, 
  "Makler": 36984, 
  "Zut@@": 17626, 
  "deinstal@@": 58440, 
  "Flecken": 23629, 
  "Emmanuel": 60275, 
  "beantragen": 7499, 
  "Terroranschläge": 21970, 
  "anzahl": 19200, 
  "denzen": 31886, 
  "Bieter": 37863, 
  "Hoteles": 50528, 
  "ypischen": 40293, 
  "glasses": 79610, 
  "enco@@": 66368, 
  "Fluggastdatens@@": 41670, 
  "breiteren": 15681, 
  "web-site": 73578, 
  "Verbraucherorganisationen": 35716, 
  "Vorbereitungen": 6897, 
  "Ungar@@": 28632, 
  "spe@@": 37435, 
  "läuten": 39826, 
  "Anniversary": 68701, 
  "Wahrschein@@": 50037, 
  "deficiency": 74313, 
  "übernahm": 8895, 
  "irrit@@": 70920, 
  "-Rates": 36347, 
  "off@@": 10467, 
  "südwestlich": 41509, 
  "totalit@@": 49791, 
  "9.3": 63883, 
  "Sept@@": 58354, 
  "Viren": 9368, 
  "CAMP@@": 40812, 
  "Wechsel@@": 8976, 
  "ssing": 67273, 
  "matrix": 56476, 
  "geschmackvoll": 8140, 
  "eintritt": 10468, 
  "Meeting": 20118, 
  "boutique": 68202, 
  "Coupé": 46483, 
  "bod@@": 58016, 
  "Gange": 13617, 
  "errichtete": 19400, 
  "南": 75387, 
  "gek@@": 7282, 
  "umzuwandeln": 20315, 
  "biometrische": 45197, 
  "schwach": 8430, 
  "bekennen": 16138, 
  "bedauer@@": 45611, 
  "gedei@@": 60077, 
  "model": 58689, 
  "schwierigsten": 18804, 
  "EID@@": 46044, 
  "Teig": 44015, 
  "EBWE": 37261, 
  "Vielen": 15475, 
  "Verbots": 19466, 
  "trete": 30610, 
  "Jean": 10484, 
  "welches": 1060, 
  "Teil": 230, 
  "herab@@": 15290, 
  "mangelhaften": 37470, 
  "-10": 60711, 
  "schlän@@": 50038, 
  "welcher": 1475, 
  "crun@@": 77787, 
  "Achtung": 1618, 
  "Folklor@@": 52621, 
  "harmonische": 18503, 
  "Verbote": 24239, 
  "forwarded": 79020, 
  "Marktforschung": 38828, 
  "Teleskop": 40859, 
  "Angola": 17233, 
  "umfassend@@": 54361, 
  "Wesentliche": 17314, 
  "transferable": 77788, 
  "could": 73491, 
  "WIFI": 57054, 
  "blichkeits@@": 43291, 
  "weh@@": 49001, 
  "feh@@": 20740, 
  "Jesus": 10485, 
  "älle": 24335, 
  "length": 70279, 
  "ratification": 79121, 
  "ert@@": 15582, 
  "Reb@@": 9322, 
  "achtung": 23456, 
  "3km": 59363, 
  "Ria": 55500, 
  "relays": 76794, 
  "Louisi@@": 69067, 
  "Bemerkungen": 2791, 
  "Schlußfolgerung": 22836, 
  "mittag": 50271, 
  "Hotel": 103, 
  "starken": 2076, 
  "starkem": 17060, 
  "Roo@@": 55215, 
  "urteilung": 70921, 
  "küste": 18052, 
  "ssa": 24398, 
  "scene": 70461, 
  "tot@@": 15571, 
  "damit": 104, 
  "starkes": 6312, 
  "starker": 8150, 
  "scent": 81225, 
  "Genüsse": 47560, 
  "Sprin@@": 44411, 
  "St.-@@": 41840, 
  "Irak": 1533, 
  "eship": 73492, 
  "pandemic": 77778, 
  "allgemeinen": 1221, 
  "programmier@@": 23255, 
  "allgemeinem": 10843, 
  "festival": 16558, 
  "Voraussetzung": 2269, 
  "nt@@": 55635, 
  "osität": 55778, 
  "Machbarkeits@@": 41841, 
  "Plänen": 13054, 
  "emaster": 56635, 
  "Obersten": 17967, 
  "Abe@@": 47981, 
  "allgemeiner": 8977, 
  "allgemeines": 19329, 
  "Wild@@": 6299, 
  "Iraq": 71889, 
  "Fax-": 9044, 
  "Paar": 9826, 
  "Kreis": 7403, 
  "even@@": 45612, 
  "heisst": 12935, 
  "öffnungs@@": 56477, 
  "Bauchspeicheldrü@@": 47318, 
  "ratifizieren": 11979, 
  "überraschende": 35845, 
  "Einmütigkeit": 42372, 
  "Katalonien": 24754, 
  "唸@@": 81227, 
  "Flüssigkeits@@": 44782, 
  "Ewigkeit": 29027, 
  "umsonst": 15008, 
  "RSS@@": 50776, 
  "Taxis": 20145, 
  "heisse": 42851, 
  "Verurteilung": 9410, 
  "clat@@": 76360, 
  "ektur": 56791, 
  "zahler": 49513, 
  "umgestaltet": 33533, 
  "Physiker": 34994, 
  "Golf@@": 5360, 
  "roulette": 70923, 
  "Extru@@": 26651, 
  "Vatanen": 62930, 
  "Barro@@": 25985, 
  "Station@@": 56792, 
  "WH@@": 43104, 
  "Compl@@": 67685, 
  "Finanzlage": 47073, 
  "jüngst": 13349, 
  "Weltkrieg": 5168, 
  "Kuba": 5473, 
  "fif@@": 64764, 
  "eigentliche": 5221, 
  "UCITS": 77791, 
  "Dezember@@": 49002, 
  "Sof@@": 16445, 
  "Schiffs@@": 7807, 
  "false": 41671, 
  "ammon@@": 70702, 
  "worin": 11088, 
  "Glar@@": 57547, 
  "Pass@@": 9762, 
  "Montreux": 37545, 
  "Anschluss@@": 16817, 
  "tonight": 77792, 
  "Secret": 55216, 
  "Vak@@": 57708, 
  "Fangmethoden": 49003, 
  "trainings": 63807, 
  "Verkehrsarten": 50777, 
  "händler": 11238, 
  "atia": 66369, 
  "atic": 27218, 
  "atie": 25540, 
  "dishes": 81066, 
  "Baseball": 45780, 
  "contest@@": 70462, 
  "atik": 11695, 
  "atim": 65022, 
  "atin": 33414, 
  "atio": 53277, 
  "lik@@": 10924, 
  "Thé@@": 66886, 
  "atis": 49004, 
  ".COM": 53572, 
  "ativ": 8326, 
  "Pe@@": 9261, 
  "Veranst@@": 67174, 
  "Niederlanden": 3883, 
  "kenntnisse": 12619, 
  "Alghero": 55379, 
  "universit@@": 36447, 
  "worldwide": 73134, 
  "Progno@@": 54546, 
  "teria": 62506, 
  "Plünderung": 49514, 
  "Verkehrsmitteln": 9253, 
  "fangen": 7923, 
  "Bayreu@@": 69746, 
  "Geschwister": 41842, 
  "tropische": 22957, 
  "Topol@@": 75389, 
  "Erholung": 2810, 
  "terin": 9420, 
  "SLR": 55220, 
  "genügen": 10836, 
  "zurecht@@": 23457, 
  "Swimming-@@": 52622, 
  "Mode": 7670, 
  "amü@@": 60728, 
  "Modi": 30804, 
  "Effek@@": 19963, 
  "zufriedenstellenden": 43105, 
  "abgelenkt": 51013, 
  "Reserve": 7774, 
  "Wörterbücher": 46857, 
  "Ahn@@": 52624, 
  "Korruptions@@": 30463, 
  "placement": 65625, 
  "Papastam@@": 79125, 
  "beziehen": 2254, 
  "prädestiniert": 52041, 
  "GFP": 15954, 
  "bred": 76796, 
  "Padova": 57942, 
  "stabilisierung": 50529, 
  "Spanischen": 26028, 
  "Preisverlei@@": 68519, 
  "Pru@@": 56714, 
  "onau@@": 65626, 
  "behandelnden": 40985, 
  "Darlehen": 8694, 
  "Weiterbehandlung": 44384, 
  "brew": 70463, 
  "gegen@@": 13367, 
  "bres": 60485, 
  "χ@@": 51774, 
  "Ermu@@": 68425, 
  "Überprüfungen": 22495, 
  "stehen": 224, 
  "Trichet": 27389, 
  "Werft": 23819, 
  "rings": 51014, 
  "Scheideweg": 44572, 
  "Goo@@": 33534, 
  "Menschen-": 26089, 
  "schmackhafte": 37406, 
  "Annotator": 50039, 
  "jap@@": 23505, 
  "besuche": 26470, 
  "GMBH": 55542, 
  "Johnston": 61793, 
  "Escrow": 64338, 
  "restrik@@": 33307, 
  "Neop@@": 54932, 
  "basiered": 27063, 
  "taps": 77793, 
  "ature": 68607, 
  "gg@@": 19028, 
  "Schutzes": 5527, 
  "jav": 77794, 
  "Ñ@@": 63095, 
  "Verantwortlichkeiten": 11554, 
  "basieren": 5337, 
  "jar": 47074, 
  "Update": 4531, 
  "jan": 19756, 
  "entities": 74337, 
  "jal": 62735, 
  "jam": 65509, 
  "tape": 68363, 
  "jak": 43639, 
  "II-@@": 18140, 
  "Radio-": 49515, 
  "Vergnügungs@@": 33535, 
  "jad": 66647, 
  "Tscher@@": 47883, 
  "jab": 57904, 
  "hochwertige": 3428, 
  "zucht@@": 37690, 
  "Scho@@": 29580, 
  "Integrationsprozess": 27853, 
  "parano@@": 62102, 
  "Malces@@": 75393, 
  "organisiertes": 35237, 
  "organisierter": 31976, 
  "Komitee": 20486, 
  "pel@@": 21918, 
  "Le@@": 4436, 
  "Mängeln": 21369, 
  "dämmen": 67274, 
  "organisierten": 5470, 
  "obgleich": 5549, 
  "Friedensprozesses": 17168, 
  "Leichtath@@": 49794, 
  "dot@@": 57388, 
  "Rating": 40119, 
  "Schwach@@": 25836, 
  "aer": 46259, 
  "Verarmung": 38902, 
  "aet": 42558, 
  "keiner": 2100, 
  "feldern": 10390, 
  "ganzem": 16609, 
  "Capo@@": 54031, 
  "seitens": 2106, 
  "ganzen": 724, 
  "aes@@": 69027, 
  "Maßnahmen": 178, 
  "Brenn@@": 7560, 
  "Tasse": 21072, 
  "stufe": 8484, 
  "stuff": 71160, 
  "-Lösungen": 8795, 
  "ganzes": 9610, 
  "ganzer": 15523, 
  "straight@@": 79126, 
  "keinem": 3853, 
  "keinen": 435, 
  "Hundert": 31015, 
  "Nordirland": 8863, 
  "iPad": 51015, 
  "Ps": 16399, 
  "Heller": 60080, 
  "trauen": 24649, 
  "kund@@": 15483, 
  "prises": 72190, 
  "Haushaltskonsolidierung": 30436, 
  "frame": 53278, 
  "Bauarbeiten": 26586, 
  "diplomatischen": 8387, 
  "Präpar@@": 39962, 
  "Joachim": 25362, 
  "diplomatischer": 32267, 
  "detwas": 76122, 
  "Wirbel@@": 17000, 
  "Adoption": 23937, 
  "Drogen-": 49454, 
  "vollbringen": 43581, 
  "unterschätzt": 16902, 
  "Interessens@@": 24985, 
  "geführt": 777, 
  "Po": 47885, 
  "PR": 26395, 
  "PS": 8029, 
  "PP": 26985, 
  "absolviert": 19151, 
  "PV": 58195, 
  "destiny": 82167, 
  "PT": 3781, 
  "struppen": 46046, 
  "compar@@": 73495, 
  "nuclear": 73496, 
  "Arbeitsbedingungen": 6156, 
  "Zuliefer@@": 19773, 
  "Suit@@": 59201, 
  "georgische": 46661, 
  "vergla@@": 46662, 
  "PC": 2288, 
  "PA": 14417, 
  "PF": 55902, 
  "PG": 58525, 
  "PD": 27785, 
  "PE": 17751, 
  "Cus@@": 55217, 
  "PI": 27220, 
  "PN": 56636, 
  "PO": 33173, 
  "PL": 3225, 
  "PM": 23438, 
  "Hilfeleistung": 35847, 
  "P3": 66888, 
  "datenschutz@@": 39062, 
  "P1": 62329, 
  "ausreich@@": 73135, 
  "geld@@": 14544, 
  "izz@@": 22487, 
  "obligatorische": 13636, 
  "Flus@@": 24650, 
  "Chi": 50345, 
  "mind@@": 72495, 
  "uttons": 62987, 
  "jeweilige": 6379, 
  "Loops": 50326, 
  "ameri@@": 54404, 
  "timent": 71161, 
  "Berechnung": 7390, 
  "P.": 17084, 
  "Coreper": 70281, 
  "läufige": 37009, 
  "Linksetzung": 36237, 
  "Sorrento": 53146, 
  "concern@@": 81232, 
  "ša": 55077, 
  "angezeigte": 49792, 
  "Strategie@@": 19834, 
  "unternommenen": 19288, 
  "typ@@": 21895, 
  "gleiches": 13519, 
  "gleicher": 6702, 
  "gleichem": 21586, 
  "Yun@@": 63178, 
  "gleichen": 754, 
  "莹@@": 82316, 
  "sletter": 79175, 
  "Bequem@@": 69889, 
  "halfen": 38772, 
  "然@@": 77588, 
  "wil@@": 9319, 
  "icus": 57239, 
  "zinsen": 52754, 
  "Glockenturm": 38609, 
  "Maril@@": 59511, 
  "aufgeteilt": 9513, 
  "einmütig": 37259, 
  "Polizeibehörden": 44710, 
  "Vergemeinschaftung": 28879, 
  "Demokraten": 4670, 
  "Haltestellen": 25306, 
  "Ask@@": 55903, 
  "Gemeinschaftsprogrammen": 49005, 
  "beschreibung": 13247, 
  "gang@@": 13571, 
  "Ý@@": 67235, 
  "geändert": 1377, 
  "gespräch": 23506, 
  "realisierbar": 28198, 
  "Alcoa": 38241, 
  "handlung": 20460, 
  "erlebt": 3319, 
  "trägliche": 40120, 
  "Yu@@": 21417, 
  "parag@@": 76799, 
  "rus@@": 34523, 
  "sch-@@": 14493, 
  "Novum": 39714, 
  "eingeführten": 16754, 
  "Macartney": 53903, 
  "erlebe": 50040, 
  "-Sens@@": 48584, 
  "ners": 13852, 
  "eux": 36621, 
  "Alex@@": 29798, 
  "rieren": 16670, 
  "zeit@@": 4043, 
  "pop-up": 77080, 
  "Klä@@": 59915, 
  "Website-@@": 24946, 
  "wunderschönen": 3335, 
  "Bindeglied": 36868, 
  "hydr@@": 67031, 
  "venge@@": 81236, 
  "prinzips": 36743, 
  "Sacrédeus": 61083, 
  "STOXX": 60081, 
  "Hostels": 2926, 
  "Zap@@": 31377, 
  "gemeinschaftlicher": 21796, 
  "über@@": 529, 
  "edel@@": 20388, 
  "umgegangen": 23013, 
  "Andro@@": 25484, 
  "maß@@": 10668, 
  "Vorgeschichte": 37081, 
  "vorgaben": 21971, 
  "Number": 53037, 
  "OECD": 13853, 
  "Böhmen": 45198, 
  "basierendes": 46682, 
  "öf@@": 55218, 
  "vorsorge": 28880, 
  "mom@@": 32390, 
  "ös@@": 13956, 
  "ы@@": 18172, 
  "gemeinschaftlichen": 3649, 
  "arote": 68847, 
  "entlegenen": 39063, 
  "Kunstverein": 58018, 
  "pragmatisch": 27700, 
  "Besichtigungen": 27307, 
  "Humank@@": 58356, 
  "Piper": 59364, 
  "HAD@@": 61279, 
  "gewußt": 44221, 
  "psychische": 19793, 
  "娃": 81106, 
  "behaupten": 3404, 
  "Einkaufen": 26642, 
  "Fuel": 64508, 
  "Personen-": 29803, 
  "fäden": 47561, 
  "Regelung": 1625, 
  "beleben": 15387, 
  "exik@@": 74028, 
  "denial": 76801, 
  "veran@@": 22692, 
  "Dun@@": 12041, 
  "Beamten@@": 24735, 
  "greifen": 4969, 
  "EU-Länder": 15093, 
  "richtigerweise": 37985, 
  "Regular": 67568, 
  "ept@@": 36523, 
  "samstags": 30805, 
  "FLO@@": 61966, 
  "Straftat": 20178, 
  "r.@@": 57240, 
  "betre@@": 22496, 
  "feminine": 68035, 
  "amkeit": 52286, 
  "Serf@@": 68520, 
  "usern@@": 69890, 
  "₤": 81241, 
  "veg@@": 52112, 
  "preci@@": 74316, 
  "Großraum": 51554, 
  "Diplomatie": 10040, 
  "Unschul@@": 28442, 
  "Decken": 18053, 
  "ebo@@": 24080, 
  "Deckel": 31288, 
  "Gelatine": 49006, 
  "regelungen": 9596, 
  "übri@@": 42373, 
  "Vergleichsseiten": 19658, 
  "view@@": 34203, 
  "partei@@": 10873, 
  "Vorar@@": 64803, 
  "füllung": 16955, 
  "identity": 72192, 
  "sorge": 36145, 
  "audit": 66752, 
  "Immobilienanzeige": 17464, 
  "korre@@": 36314, 
  "39.@@": 64339, 
  "off": 15524, 
  "Klicks": 29488, 
  "Yog@@": 32971, 
  "anzieht": 41783, 
  "Viren@@": 29504, 
  "Pöl@@": 55078, 
  "ausgedrückt": 7521, 
  "ofs": 24966, 
  "mathematische": 36985, 
  "phal": 74317, 
  "PRO@@": 10724, 
  "Scro@@": 31791, 
  "oft": 516, 
  "Artists": 50779, 
  "Einen": 34677, 
  "Wahlverfahren": 50272, 
  "audio": 67275, 
  "1.25": 70704, 
  "sä@@": 9579, 
  "vorteil": 33415, 
  "Programm-@@": 39193, 
  "sselt": 62932, 
  "halbwegs": 50034, 
  "funk@@": 16864, 
  "interkulturelle": 34585, 
  "Vossloh": 56853, 
  "Taxi@@": 29067, 
  "foothills": 82258, 
  "Ort@@": 25602, 
  "Jab@@": 48938, 
  "Ri@@": 3142, 
  "Gräu@@": 67276, 
  "Lac": 35230, 
  "geschossen": 25837, 
  "griechische": 7484, 
  "Ausmaße": 18157, 
  "web": 20326, 
  "weg": 1803, 
  "vorschlagen": 4056, 
  "Ausbildungen": 45953, 
  "wed": 71892, 
  "wei": 52440, 
  "weh": 29799, 
  "wen": 7978, 
  "wem": 10223, 
  "verwechseln": 21870, 
  "Paddington": 40986, 
  "wer": 631, 
  "Verde": 29997, 
  "vegetarische": 39154, 
  "verwechselt": 26257, 
  "nten": 10984, 
  "K": 2859, 
  "sorgt": 2497, 
  "Wachstum": 871, 
  "practise": 76047, 
  "Analysis": 54620, 
  "KK@@": 46858, 
  "Verdi": 58357, 
  "tics": 31202, 
  "photo": 15815, 
  "beurteilt": 9618, 
  "auseinanderzusetzen": 28801, 
  "ungsh@@": 6017, 
  "archeological": 82697, 
  "Generalsekretariat": 48030, 
  "Head@@": 23256, 
  "Kat@@": 6355, 
  "Skip@@": 57709, 
  "tice": 60341, 
  "TEN-T": 70465, 
  "tich": 35367, 
  "Tauern": 45199, 
  "Kag@@": 58526, 
  "tick": 70282, 
  "pier": 65140, 
  "Lav": 73581, 
  "Mask@@": 42673, 
  "tico": 21988, 
  "emme": 59202, 
  "nichtig": 37230, 
  "Führ@@": 16362, 
  "Giro@@": 50356, 
  "emma": 66370, 
  "leader": 59348, 
  "Einkaufsstraßen": 26358, 
  "ra@@": 1697, 
  "liebe": 1495, 
  "emmt": 33537, 
  "Micro@@": 10041, 
  "Agents": 61084, 
  "Klett@@": 52306, 
  "Finanzier@@": 24194, 
  "Piraten": 29267, 
  "become": 76802, 
  "Golfer": 37864, 
  "liebt": 15834, 
  "sendes": 36375, 
  "Ausflugs@@": 23392, 
  "ulating": 81154, 
  "庆@@": 81245, 
  "𢥲@@": 77797, 
  "grids": 77798, 
  "SYST@@": 66355, 
  "Textilsektor": 42427, 
  "Anhänge": 29201, 
  "gezahlt": 9783, 
  "geseh@@": 39064, 
  "fluss": 8373, 
  "ligh@@": 51184, 
  "Arbeitsbereich": 27942, 
  "Kontr@@": 56823, 
  "moralische": 7541, 
  "gymnastics": 79583, 
  "ERG@@": 43106, 
  "chin@@": 25603, 
  "flush": 70283, 
  "ern@@": 3205, 
  "verfälscht": 42939, 
  "Nomin@@": 20988, 
  "傷": 84356, 
  "recognition": 77800, 
  "Partien": 46779, 
  "drittgrößte": 33540, 
  "Bernstein": 57927, 
  "Ã@@": 42004, 
  "sanktion@@": 38773, 
  "erstreck@@": 38493, 
  "Stereot@@": 34524, 
  "Defi@@": 64509, 
  "Gültigkeits@@": 59024, 
  "Sloven@@": 64036, 
  "Savi@@": 66648, 
  "winzigen": 34092, 
  "passion": 70466, 
  "Tibet@@": 29998, 
  "Sortim@@": 34637, 
  "Umweltziele": 46859, 
  "biology": 77801, 
  "avig@@": 58813, 
  "autonomen": 17848, 
  "verfall": 44017, 
  "Markteinführung": 25958, 
  "drücken": 4263, 
  "Gary": 35742, 
  "Martin@@": 36409, 
  "Utopia": 64766, 
  "entnehmen": 8787, 
  "Utopie": 30907, 
  "asiens": 34164, 
  "Wiederherstellung": 5219, 
  "tica": 15045, 
  "abdecken": 15061, 
  "Scheibe": 23495, 
  "ministr@@": 70284, 
  "lifestyle": 71641, 
  "gelesen": 4174, 
  "anständige": 48516, 
  "Trupp@@": 59025, 
  "】": 69705, 
  "VON": 29197, 
  "Gedicht": 43632, 
  "Moskau": 6175, 
  "langer": 4408, 
  "langem": 4867, 
  "《": 79132, 
  "langen": 1854, 
  "Biodiver@@": 69516, 
  "」": 76048, 
  "『": 70535, 
  "dicht@@": 26396, 
  "、": 76256, 
  "gänge": 8270, 
  "flair": 66371, 
  "documentary": 79133, 
  "VOY": 29546, 
  "geniale": 48904, 
  "swimming": 72194, 
  "spark": 36777, 
  "genannten": 1038, 
  "letters": 69517, 
  "Schwächen": 9195, 
  "å@@": 10597, 
  "bewus@@": 67702, 
  "bruderschaft": 70705, 
  "STOP": 52862, 
  "针@@": 81248, 
  "Schreyer": 22104, 
  "trag@@": 9067, 
  "E-Mails": 7037, 
  "Ö@@": 3347, 
  "alumin@@": 65849, 
  "Versicherungsunternehmen": 32769, 
  "COND@@": 68521, 
  "Sofitel": 38478, 
  "browser": 45311, 
  "Kreditinstitute": 45712, 
  "genanntes": 46860, 
  "Spam@@": 23649, 
  "orientalischen": 45613, 
  "Mexiko": 4417, 
  "Brand@@": 7009, 
  "privater": 8568, 
  "geräum@@": 33622, 
  "gipfel": 14169, 
  "Û@@": 74318, 
  "peac@@": 72498, 
  "Dr@@": 14826, 
  "Consu@@": 41774, 
  "ppen@@": 17287, 
  "much": 70468, 
  "undurch@@": 13145, 
  "gob@@": 60619, 
  "gegebene": 19539, 
  "Fotze": 27943, 
  "privaten": 1173, 
  "privatem": 19957, 
  "Aufstellungs@@": 58196, 
  "Füll@@": 15988, 
  "einheit": 6512, 
  "Jubil@@": 60186, 
  "kman": 73139, 
  "aufdecken": 47818, 
  "yarns": 81249, 
  "tson": 61921, 
  "Meca": 57711, 
  "Megapixels": 77803, 
  "Mindes@@": 22123, 
  "ject": 61987, 
  "Contract": 64071, 
  "Winzer": 33773, 
  "zwischenstaatliche": 25144, 
  "Unic@@": 34995, 
  "geile": 17634, 
  "Megapixeln": 38781, 
  "Healthcare": 63322, 
  "Mexican": 73067, 
  "fry": 76793, 
  "zw@@": 6847, 
  "fragmentation": 81833, 
  "anted": 80261, 
  "Myanmar": 19889, 
  "Provokationen": 42551, 
  "zwangsweise": 41905, 
  "excitement": 81250, 
  "placed": 77509, 
  "D3@@": 62292, 
  "Vorder@@": 14374, 
  "Milcher@@": 29904, 
  "problem": 5032, 
  "gebil@@": 23340, 
  "vernachlässigen": 18213, 
  "enson": 59140, 
  "Schadenspunkte": 27141, 
  "treten": 1693, 
  "Executive": 9301, 
  "gemischte": 25881, 
  "gemis@@": 67047, 
  "enteam": 47562, 
  "Wijsen@@": 73906, 
  "arro@@": 61504, 
  "Direktzah@@": 68037, 
  "tnach@@": 46047, 
  "Kabinen": 31713, 
  "onation": 61697, 
  "Nato": 42754, 
  "vines": 76612, 
  "ম@@": 78757, 
  "Darwin": 38208, 
  "Herkunfts-": 39964, 
  "Kick": 54934, 
  "Ernähr@@": 27565, 
  "Gäste": 857, 
  "Risikoanalyse": 52042, 
  "Georgien": 5030, 
  "Conc@@": 48272, 
  "diamet@@": 55219, 
  "7,5": 26144, 
  "を@@": 74319, 
  "evolution@@": 44027, 
  "Moratoriums": 44019, 
  "details": 21145, 
  "materi@@": 21139, 
  "Konzern@@": 9107, 
  "Corp.": 59528, 
  "vergleichbare": 13862, 
  "illusion": 72819, 
  "Structure": 66889, 
  "Schlich@@": 28020, 
  "February": 68515, 
  "repeat": 79742, 
  "polizei": 19242, 
  "töten": 10933, 
  "palast": 26397, 
  "worker": 70936, 
  "sprä@@": 24195, 
  "multinationale": 17413, 
  "outlets": 76860, 
  "ausgewählter": 34863, 
  "Vorhersagen": 31749, 
  "U": 3984, 
  "ULL": 65293, 
  "Chefkoch": 46048, 
  "multinationals": 81251, 
  "dischen": 7285, 
  "tötet": 24891, 
  "machbar": 16272, 
  "DF@@": 23301, 
  "Oze@@": 32479, 
  "searches": 74481, 
  "zahlreich": 19622, 
  "verstorben": 50041, 
  "verbreitet": 4685, 
  "Corps": 43640, 
  "insec@@": 81252, 
  "Ehep@@": 58527, 
  "konzept": 6841, 
  "concer@@": 73140, 
  "QuarkCopy@@": 74321, 
  "Zypern-@@": 40462, 
  "paradig@@": 65724, 
  "ets@@": 22550, 
  "Nachteil": 7593, 
  "gardens": 74810, 
  "Deauville": 63114, 
  "gesetz@@": 9625, 
  "Aktien@@": 7257, 
  "dote": 62824, 
  "通@@": 76052, 
  "Spani@@": 69518, 
  "magnetic": 79137, 
  "Kensington": 29754, 
  "Roche": 46121, 
  "London": 1812, 
  "nursery": 81254, 
  "äumen": 16980, 
  "-Krei@@": 72170, 
  "vertrauens@@": 19147, 
  "sfers": 38005, 
  "Metrostation": 25008, 
  "test@@": 15596, 
  "ungerechtfertigten": 47949, 
  "integrity": 77806, 
  "rebr@@": 72172, 
  "Mosel": 56203, 
  "Vorgesetzten": 41630, 
  "anderweitige": 51532, 
  "onus": 45149, 
  "Agu@@": 30173, 
  "einführen": 5405, 
  "farben": 11712, 
  "worte": 23207, 
  "massen@@": 18141, 
  "belangt": 64510, 
  "Patentrecht": 46079, 
  "Erläuterungen": 15444, 
  "Organisation@@": 52756, 
  "Marg@@": 41154, 
  "Einbau": 17527, 
  "dec@@": 30108, 
  "Harold": 63287, 
  "Produk@@": 9050, 
  "ösem": 38904, 
  "ösen": 13747, 
  "Glo@@": 25170, 
  "Moon": 38597, 
  "Sex@@": 15087, 
  "Ruine": 43107, 
  "Vereinbar@@": 61891, 
  "zufriedenheit": 38762, 
  "Pipe": 58693, 
  "Ansiedlung": 32093, 
  "leware": 62192, 
  "buchen": 2227, 
  "Military": 49516, 
  "öser": 27221, 
  "öses": 27222, 
  "底@@": 81259, 
  "psychisch": 46484, 
  "Castill@@": 71642, 
  "Af@@": 42712, 
  "lustigen": 35119, 
  "250@@": 35413, 
  "progression": 73141, 
  "Verlagerung": 11034, 
  "Quell@@": 8896, 
  "Wiederwahl": 32083, 
  "eiver": 61119, 
  "Einkäufe": 25675, 
  "Paus@@": 46485, 
  "architektonisch": 40874, 
  "Sicherheitsstrategie": 26487, 
  "Olivenbäume": 47077, 
  "Menschenverstand": 17154, 
  "weißer": 27204, 
  "Blütezeit": 46404, 
  "Traum": 5924, 
  "eived": 81260, 
  "莞": 82473, 
  "Papandreou": 58641, 
  "mp3": 51262, 
  "Russlands": 4770, 
  "Dess@@": 53604, 
  "Rechtsprechung": 9176, 
  "gebrau@@": 25250, 
  "erteilten": 30292, 
  "erlaubnis": 47563, 
  "Spritzgieß@@": 36577, 
  "Europaw@@": 81261, 
  "aw": 61948, 
  "ramp": 80104, 
  "überspringen": 35161, 
  "ნ@@": 82983, 
  "mend@@": 68702, 
  "gour@@": 70369, 
  "fortsetzt": 26695, 
  "Hardwar@@": 20906, 
  "Einfluß": 7657, 
  "Moser": 53032, 
  "Materi@@": 25017, 
  "tibetische": 31685, 
  "mitgearbeitet": 28182, 
  "üt": 49008, 
  "drü@@": 27067, 
  "workflow": 73143, 
  "Гјber": 50783, 
  "brauchte": 21085, 
  "Statisti@@": 30362, 
  "Mazda": 60276, 
  "Game": 13946, 
  "Gama": 62737, 
  "beratenden": 32356, 
  "UNO@@": 29999, 
  "profession@@": 28259, 
  "ński": 38905, 
  "Sizilien": 23527, 
  "Nietzsche": 54033, 
  "projec@@": 65733, 
  "aufwerfen": 28108, 
  "Delta@@": 58694, 
  "spunkt": 17478, 
  "Zweifels@@": 64574, 
  "jewei@@": 53776, 
  "vertretenden": 35719, 
  "Datenschutz@@": 6546, 
  "th@@": 1665, 
  "Aik@@": 53905, 
  "tain@@": 45826, 
  "protection": 68039, 
  "Einlagen": 26258, 
  "Berufe": 15127, 
  "qualitäts@@": 17336, 
  "Verhalten": 2350, 
  "steckt": 7116, 
  "stresses": 81263, 
  "qua": 31805, 
  "Festnahmen": 44784, 
  "Jazz": 10556, 
  "standorte": 30000, 
  "Wahr@@": 20230, 
  "ier@@": 2229, 
  "innehaben": 35496, 
  "während@@": 74322, 
  "cano@@": 71895, 
  "Spruch": 46486, 
  "Little": 28321, 
  "arznei@@": 54802, 
  "YST@@": 50108, 
  "tiefgreif@@": 30368, 
  "zunehmender": 15931, 
  "vá": 57241, 
  "Partner-@@": 47396, 
  "Nachrichten": 2834, 
  "Produktionskosten": 19565, 
  "INTER@@": 25959, 
  "bru": 76054, 
  "Hormon@@": 18199, 
  "Bank@@": 2610, 
  "Vorauszahlung": 26325, 
  "Geschle@@": 63520, 
  "Braun": 38742, 
  "bro": 56309, 
  "Ständigen": 25145, 
  "archaeological": 76752, 
  "bri": 69180, 
  "flo@@": 14936, 
  "bre": 25604, 
  "bra": 30806, 
  "tzt": 44471, 
  "vielfältig": 12948, 
  "plot": 69708, 
  "Tanker": 52207, 
  "Topolánek": 58846, 
  "zeilen@@": 53906, 
  "oods": 69893, 
  "Acht": 8169, 
  "nine": 84211, 
  "mitglied": 14752, 
  "bundles": 74800, 
  "uniqu@@": 67876, 
  "ד": 76808, 
  "⁄": 71283, 
  "Geltung": 11169, 
  "mon@@": 4001, 
  "heg@@": 40816, 
  "Umweltbedingungen": 45013, 
  "besuch": 15672, 
  "er-": 9008, 
  "Elysées": 44223, 
  "Kontrollkästchen": 47564, 
  "echer@@": 47319, 
  "willst": 8945, 
  "einfließen": 16011, 
  "Untersuchungskommission": 51533, 
  "Franc@@": 36744, 
  "gewertet": 25838, 
  ".de@@": 43501, 
  "Chianti": 19364, 
  "separaten": 12237, 
  "Industrieanlagen": 42940, 
  "rigenten": 69353, 
  "შ@@": 76809, 
  "Sockel": 37460, 
  "Behälter": 20758, 
  "Schweinef@@": 56166, 
  "hist@@": 60712, 
  "Aceh": 46286, 
  "verharren": 49902, 
  "separater": 35238, 
  "separates": 27944, 
  "Gegen@@": 3570, 
  "conditioned": 76055, 
  "undenheit": 63521, 
  "Ie-@@": 68040, 
  "Ruhr@@": 39352, 
  "ert": 1882, 
  "1990": 4642, 
  "1993": 4572, 
  "1992": 4283, 
  "1995": 2964, 
  "1994": 3762, 
  "1997": 2242, 
  "ers": 1066, 
  "1999": 1315, 
  "1998": 1931, 
  "Gebrau@@": 35239, 
  "ungsper@@": 33073, 
  "erz": 38479, 
  "versorgen": 8628, 
  "ere": 1373, 
  "annib@@": 62784, 
  "Handelsh@@": 54935, 
  "Initiative": 807, 
  "era": 8013, 
  "containment": 76810, 
  "mages": 72284, 
  "ern": 571, 
  "ero": 12248, 
  "eri": 34639, 
  "scripting": 73502, 
  "ON@@": 9899, 
  "5,000": 61682, 
  "BODY": 72276, 
  "Abb": 34996, 
  "renovierte": 8275, 
  "Anlagenbau": 42005, 
  "Abe": 38309, 
  "渲@@": 81266, 
  "Augen@@": 6830, 
  "Ralph": 46049, 
  "chirurg@@": 41125, 
  "Ausmaß": 3576, 
  "impair": 74323, 
  "f-@@": 8533, 
  "totalen": 29455, 
  "Abu": 13481, 
  "ausgefüllt": 17108, 
  "Blen@@": 52970, 
  "Zielvorgabe": 44385, 
  "eloqu@@": 69651, 
  "vorgezogen": 20618, 
  "Glück@@": 19365, 
  "gültig": 5430, 
  "谷@@": 79143, 
  "verborgen": 21713, 
  "recovery": 74811, 
  "Verlegung": 24652, 
  "carriers": 74324, 
  "provide": 76056, 
  "Finanzmarkt": 35497, 
  "kir@@": 22609, 
  "nuts": 75180, 
  "OpenSSL": 63522, 
  "breitgefäch@@": 37407, 
  "Zuhör@@": 39521, 
  "像": 82327, 
  "Zivilbevölkerung": 11485, 
  "Stadthotel": 40798, 
  "Pizz@@": 23750, 
  "jeure": 75394, 
  "alcohol@@": 81268, 
  "Segment": 12739, 
  "Europaabgeordneten": 22173, 
  "Blei@@": 15864, 
  "Allahs": 27270, 
  "bares": 3914, 
  "barer": 3164, 
  "deser@@": 67877, 
  "EU-Russ@@": 54162, 
  "Rückmeldung": 41155, 
  "Dörfchen": 51574, 
  "Taten": 5089, 
  "kohärenter": 41598, 
  "pers@@": 16400, 
  "Lunch@@": 58359, 
  "kontinu": 80343, 
  "annähernd": 14691, 
  "barem": 10392, 
  "Überschwemmungen": 9990, 
  "Schnitte": 52307, 
  "baren": 1466, 
  "Reser@@": 24463, 
  "emann": 26758, 
  "ationist": 74812, 
  "Berichtigungs-": 50274, 
  "Expertent@@": 40632, 
  "Zieles": 45200, 
  "Stunde": 2263, 
  "asiatischen": 7198, 
  "schneider": 42941, 
  "schneidet": 26709, 
  "Technische": 20955, 
  "fa@@": 11170, 
  "Delegation": 2434, 
  "Sphere": 54548, 
  "asiatischer": 45827, 
  "schneiden": 8237, 
  "wertvoll": 15421, 
  "Lé@@": 30807, 
  "Zielen": 2942, 
  "motor-@@": 76057, 
  "Höhen": 17234, 
  "mps": 66891, 
  "Hacker": 37408, 
  "dik@@": 19243, 
  "demographische": 30695, 
  "Bestehens": 27786, 
  "Anatolia": 74813, 
  "leug@@": 61505, 
  "BAT@@": 59028, 
  "unterschiede": 15151, 
  "lieferungen": 10907, 
  "verfüg@@": 32770, 
  "12.1": 64072, 
  "kammer@@": 46261, 
  "Fahrrad": 9469, 
  "12.5": 70707, 
  "innovative": 2987, 
  "präventiven": 33074, 
  "Caleta": 49858, 
  "NGL-Fraktion": 10708, 
  "verbuchen": 31654, 
  "Geschäftsbeziehungen": 27854, 
  "icher@@": 27536, 
  "herauf@@": 25315, 
  "schrumpfen": 38105, 
  "什@@": 81272, 
  "Bands": 15445, 
  "komponierte": 48518, 
  "tragen": 753, 
  "ớ@@": 75395, 
  "achtel@@": 52044, 
  "trages": 20840, 
  "orum": 43292, 
  "ays": 35559, 
  "Start@@": 6535, 
  "herzlich": 1707, 
  "AX@@": 53943, 
  "AM@@": 6926, 
  "folgerichtig": 36238, 
  "g-@@": 8986, 
  "Kommentar": 7863, 
  "Beschäftig@@": 18977, 
  "rehabil@@": 72820, 
  "onischen": 12529, 
  "üllen": 25261, 
  "Oman": 54803, 
  "safe": 32175, 
  "Loi@@": 55079, 
  "fuss@@": 53648, 
  "Motion": 23448, 
  "Stol@@": 28488, 
  "aufgezeichnet": 19013, 
  "forscht": 36622, 
  "Omar": 49009, 
  "workflows": 75396, 
  "begreift": 34763, 
  "saft": 35368, 
  "Agriturismo": 37013, 
  "navig@@": 57549, 
  "Kodi@@": 33630, 
  "onischer": 46262, 
  "grä@@": 32056, 
  "gemeinnüt@@": 65989, 
  "ach-@@": 56478, 
  "abgeleitet": 19909, 
  "intel@@": 54936, 
  "BSE-Krise": 18305, 
  "Lift@@": 53821, 
  "reasonably": 81274, 
  "Ho@@": 4927, 
  "l": 1001, 
  "ilo": 48210, 
  "ergriff": 44959, 
  "Archaeological": 76059, 
  "Client@@": 24776, 
  "lizations": 71989, 
  "Zahlungsmittel": 23905, 
  "方@@": 77809, 
  "PROGRESS": 43654, 
  "dings": 50042, 
  "Phare": 70070, 
  "Quark@@": 33844, 
  "Hr@@": 35849, 
  "Europaabgeordnete": 43108, 
  "schlossen": 18572, 
  "dumping": 33948, 
  "Typs": 14355, 
  "beeren": 24170, 
  "Außenbeziehungen": 12085, 
  "ausgewogen": 9251, 
  "Maes": 35850, 
  "tsin@@": 21203, 
  "Widersprüche": 14460, 
  "sler": 45014, 
  "gemeinsam": 560, 
  "Gale@@": 64073, 
  "Type": 25196, 
  "Liefer-": 44785, 
  "anbindung": 33140, 
  "skrieg": 47078, 
  "madura": 72821, 
  "Verankerung": 25146, 
  "Naturstein": 51878, 
  "leitete": 14934, 
  "Gastfreundschaft": 7392, 
  "weiter@@": 2776, 
  "trainers": 72502, 
  "andel@@": 64877, 
  "Downtown": 39965, 
  "Monnet": 32357, 
  "Werkstoffe": 23103, 
  "Gründ@@": 52750, 
  "Alge@@": 71643, 
  "צ": 84385, 
  "陳@@": 81276, 
  "zuwider": 32841, 
  "dus": 18308, 
  "Gesundheit": 781, 
  "Meyer": 40817, 
  "Ankar@@": 54937, 
  "avi@@": 15508, 
  "disputed": 81278, 
  "lebte": 9784, 
  "extern@@": 69029, 
  "artier": 71826, 
  "Salzburg": 7665, 
  "Joshua": 62738, 
  "orchester": 25251, 
  "Abtei": 30334, 
  "ographi@@": 58198, 
  "Primera": 58696, 
  "Maori": 64796, 
  "Taiwan@@": 54549, 
  "thermischen": 31289, 
  "Servic@@": 6508, 
  "Villen@@": 42552, 
  "adjour@@": 75398, 
  "emph@@": 63884, 
  "Dex@@": 60258, 
  "Widerspruch": 3503, 
  "menade": 73911, 
  "Zeilen": 10790, 
  "Parade": 33416, 
  "veranschau@@": 69709, 
  "amer@@": 53342, 
  "chtungen": 34587, 
  "leder": 24353, 
  "vorbereiten": 7750, 
  "diskredi@@": 30808, 
  "renew": 77811, 
  "Quadratmeter": 19503, 
  "vorbereitet": 3119, 
  "gewartet": 13373, 
  "professionell": 10789, 
  "Abklingzeit": 47821, 
  "Abchasien": 26323, 
  "Amendments": 76811, 
  "fortbestehen": 36987, 
  "Fortschritts@@": 28021, 
  "Veran@@": 64211, 
  "render": 60083, 
  "auslösen": 10864, 
  "金@@": 76544, 
  "abgestimmtes": 43402, 
  "schätzungen": 43109, 
  "Staaten": 296, 
  "Versandverfahren": 48031, 
  "Reyn@@": 55647, 
  "Staates": 3215, 
  "datiert": 34640, 
  "Bademän@@": 70005, 
  "another": 72503, 
  "viertes": 51016, 
  "Manfred": 37409, 
  "Empor@@": 49793, 
  "borgh@@": 74493, 
  "electronic": 56794, 
  "leuchtenden": 39195, 
  "2050": 16856, 
  "völlig": 728, 
  "symmet@@": 33631, 
  "ausgebildete": 17207, 
  "gewinn@@": 12949, 
  "ankommen": 9882, 
  "ogra@@": 21254, 
  "ingen": 9070, 
  "inger": 6681, 
  "Dön@@": 59691, 
  "Harmonie": 9286, 
  "Regelwerk": 20759, 
  "Wärmet@@": 45015, 
  "ekt@@": 16922, 
  "dogs": 70926, 
  "heissen": 21588, 
  "feu@@": 23838, 
  "Schülerinnen": 37762, 
  "TSE": 62560, 
  "emblem": 73144, 
  "pop@@": 32992, 
  "Andersson": 39065, 
  "nachstehend": 16096, 
  "verank@@": 63324, 
  "wastes": 82609, 
  "Leiter@@": 18200, 
  "ª@@": 71577, 
  "strebt": 12812, 
  "要": 81282, 
  "呆@@": 81283, 
  "ess@@": 6348, 
  "Backup": 23156, 
  "ה@@": 70792, 
  "zerne": 37775, 
  "self-contained": 81897, 
  "emi@@": 41156, 
  "genau@@": 19874, 
  "guild": 81284, 
  "Nr.": 1084, 
  "Elb@@": 45419, 
  "vertiefen": 9674, 
  "ሰ@@": 81285, 
  "angeben": 6430, 
  "Haf@@": 13572, 
  "venant": 76060, 
  "Relation": 34874, 
  "Atomkraftwerke": 43521, 
  "Entfremdung": 36239, 
  "beschränkungen": 12001, 
  "Gladi@@": 56310, 
  "ández": 74326, 
  "erhöhungen": 43641, 
  "scans": 68849, 
  "Eisenbahnunternehmen": 29368, 
  "Einfamili@@": 39353, 
  "Q1": 57242, 
  "Steigung": 51017, 
  "CORE@@": 70071, 
  "buchbar": 32291, 
  "portraits": 67705, 
  "FISHLABS": 55221, 
  "Davos": 22497, 
  "göt@@": 49517, 
  "Junta": 35981, 
  "sorrow": 77812, 
  "Diskussion": 958, 
  "wä@@": 11667, 
  "ettierung": 48519, 
  "hervorrufen": 13314, 
  "Maestro": 30931, 
  "prototyping": 79149, 
  "partic@@": 64952, 
  "erfüll@@": 30437, 
  "gkeiten": 31290, 
  "Q.": 64767, 
  "ulative": 65391, 
  "Vormarsch": 32458, 
  "9,5": 52757, 
  "academic": 77813, 
  "Voip@@": 60715, 
  "Umweltverträ@@": 64768, 
  "beauftragten": 20231, 
  "einlösen": 30986, 
  "Sic@@": 63885, 
  "Berès": 30524, 
  "beauftragter": 28633, 
  "rotar@@": 43825, 
  "menüs": 22335, 
  "Loš@@": 58635, 
  "digungs@@": 37865, 
  "cour@@": 46489, 
  "SEO-@@": 53279, 
  "braune": 37708, 
  "Gallery": 21217, 
  "Qs": 62507, 
  "Giganten": 46861, 
  "Qu": 71897, 
  "Qt": 56936, 
  "Artist": 48032, 
  "schu@@": 18029, 
  "Button": 11024, 
  "Lucy": 60884, 
  "idyllische": 29593, 
  "Jubiläums@@": 44574, 
  "Latin": 30908, 
  "stration": 66122, 
  "Luca": 40022, 
  "überarbeiten": 16136, 
  "Lieblings@@": 8601, 
  "icro@@": 69030, 
  "Dämonen": 36511, 
  "Tbilisi": 76814, 
  "waff@@": 30696, 
  "ierer": 23632, 
  "Twelve": 70927, 
  "QS": 47566, 
  "ना@@": 79150, 
  "ansä@@": 59029, 
  "verziert": 33845, 
  "Sanitär@@": 25541, 
  "框": 81287, 
  "Isom@@": 43110, 
  "QA": 64074, 
  "strukturierung": 44731, 
  "Verstärkung": 6639, 
  "jenseits": 8913, 
  "aunt": 64769, 
  "meß@@": 47567, 
  "QF": 71898, 
  "Dogmen": 50530, 
  "Menschlichkeit": 12623, 
  "ieren": 964, 
  "Plag@@": 62739, 
  "reserve": 31489, 
  "Aluminium-@@": 40121, 
  "Ridge": 64212, 
  "Hand@@": 2706, 
  "Astronomie": 40177, 
  "Hausarrest": 36766, 
  "angebliche": 25668, 
  "ergänz@@": 57243, 
  "Menschenrechts@@": 4019, 
  "dump@@": 51018, 
  "Klängen": 35498, 
  "lasst": 18150, 
  "oftmals": 3904, 
  "PAL": 54209, 
  "intergovernmental": 79122, 
  "sozialistischen": 10495, 
  "Santiago": 12174, 
  "ău": 63995, 
  "Veranstaltung": 2820, 
  "Moselle": 71644, 
  "DCI": 56637, 
  "romantischen": 11025, 
  "Photography": 60558, 
  "multilateralen": 8226, 
  "bayerischen": 32772, 
  "Raumschiff": 18566, 
  "rupt@@": 58528, 
  "Nueva": 58199, 
  "romantisches": 30438, 
  "View@@": 61503, 
  "Antennen": 46762, 
  "multilateraler": 31825, 
  "Aufruhr": 34059, 
  "Schien@@": 14678, 
  "Nantes": 54804, 
  "Mallor@@": 60271, 
  "Straftäter": 35211, 
  "behindert": 7737, 
  "Edel@@": 11908, 
  "telefonisch": 9968, 
  "ungspunkte": 23458, 
  "Arbeitsmethoden": 30525, 
  "Reaktions@@": 16273, 
  "gebildeten": 19999, 
  "Fahrt": 3858, 
  "Fri@@": 10109, 
  "Bier": 7844, 
  "downtime": 82656, 
  "Loud": 76061, 
  "kapazität": 8634, 
  "eme": 25147, 
  "katastrophen": 51755, 
  "runs": 72822, 
  "Milos@@": 72064, 
  "ema": 21972, 
  "Steinigung": 43902, 
  "Board@@": 40297, 
  "zunahme": 48033, 
  "emo": 63115, 
  "emi": 60488, 
  "Agent": 16761, 
  "vielmehr": 1695, 
  "glas": 17037, 
  "Schüler": 4527, 
  "rund": 681, 
  "ubar@@": 77759, 
  "nichts": 410, 
  "deal@@": 68850, 
  "Exportsubventionen": 44020, 
  "Medaillen": 46862, 
  "Stadien": 26382, 
  "stir@@": 59917, 
  "Core-@@": 52864, 
  "9.30": 55080, 
  "pur@@": 14756, 
  "oll@@": 8221, 
  "Liban@@": 39668, 
  "Jackson": 12896, 
  "mum@@": 67695, 
  "identifizieren": 7744, 
  "Lobby-@@": 43588, 
  "spätere": 10865, 
  "beeinflußt": 27876, 
  "Domain@@": 26450, 
  "Einträgen": 45645, 
  "で@@": 74816, 
  "Eisbergs": 49274, 
  "ehn@@": 24355, 
  "Cabri": 81290, 
  "brasserie": 78672, 
  "60er": 17150, 
  "Artenvielfalt": 12657, 
  "Malawi": 53288, 
  "techniques": 76063, 
  "erer": 5760, 
  "eres": 5103, 
  "thro@@": 40216, 
  "Monitoring": 16855, 
  "CB@@": 54682, 
  "fundiert": 47568, 
  "Plün@@": 42756, 
  "bereitgestellten": 8170, 
  "empfohlene": 27309, 
  "erledigt": 9687, 
  "Ziehm": 62509, 
  "epide@@": 48034, 
  "verfehlt": 28716, 
  "sprecher": 53214, 
  "ered": 60153, 
  "routin@@": 65024, 
  "awak": 81291, 
  "festzulegen": 3699, 
  "Schweizerische": 48275, 
  "erei": 6504, 
  "eren": 1389, 
  "Philosophie": 4483, 
  "bedürftigsten": 47569, 
  "flexicurity": 76759, 
  "hah": 71402, 
  "Höh@@": 37866, 
  "Domingo": 46263, 
  "S-Bahn": 25820, 
  "wänden": 26398, 
  "diese": 50, 
  "Volks": 50275, 
  "seiten": 6441, 
  "Schlössern": 43111, 
  "hir@@": 38157, 
  "niederländischer": 48521, 
  "legten": 10962, 
  "righ@@": 65276, 
  "niederländischen": 6461, 
  "landes@@": 18082, 
  "Sever@@": 46665, 
  "travellers": 79151, 
  "tations@@": 40147, 
  "-Loch-@@": 61506, 
  "rapporteur": 81292, 
  "Ewing": 61689, 
  "Versand@@": 8413, 
  "climate": 65439, 
  "neigen": 15858, 
  "Nax@@": 65510, 
  "MOS": 59030, 
  "Nam@@": 24576, 
  "፣": 79875, 
  "Embargos": 29634, 
  "Kämpfe": 11713, 
  "mer@@": 3958, 
  "thy": 63097, 
  "zeitschriften": 53649, 
  "MOO": 54211, 
  "Schrauben": 32336, 
  "tackl@@": 81293, 
  "arians": 69975, 
  "Unterrichtung": 15673, 
  "Elektronik@@": 14304, 
  "Telekommunikationssektor": 50352, 
  "hab": 19440, 
  "Erden": 23223, 
  "melo@@": 43287, 
  "tone": 32358, 
  "erman": 62293, 
  "Straft@@": 57712, 
  "Gesamtpreis": 47320, 
  "Lenk@@": 15713, 
  "plä@@": 62452, 
  "gesenkt": 8009, 
  "Stockwerken": 29370, 
  "Hoheits@@": 17465, 
  "tons": 25721, 
  "Verwaltungskosten": 27142, 
  "Zuweisung": 15379, 
  "zierte": 24137, 
  "Ireland": 58848, 
  "US-Regierung": 14891, 
  "OEM@@": 67570, 
  "Westsahara": 18528, 
  "zerstörten": 24053, 
  "telecommunications": 74817, 
  "arch@@": 24602, 
  "徳@@": 81289, 
  "etran@@": 40634, 
  "häfen": 49519, 
  "Fahn@@": 38480, 
  "Kerry": 41672, 
  "Gep@@": 46051, 
  "Country": 18515, 
  "Kiefern@@": 37127, 
  "stitute": 33539, 
  "schö@@": 60717, 
  "Gentoo": 5842, 
  "überarbeiteten": 20146, 
  "Baghdad": 70288, 
  "cz@@": 22693, 
  "Streitmacht": 51512, 
  "ु@@": 75760, 
  "Wohlfahrtsstaat": 48780, 
  "Corbey": 56036, 
  "Belize": 25839, 
  "eingeschlossen": 10496, 
  "Komplikationen": 23157, 
  "download@@": 62486, 
  "Geber@@": 28109, 
  "Archä@@": 21007, 
  "gutschein": 49520, 
  "ausgiebig": 26090, 
  "therly": 73148, 
  "zuvorkomm@@": 36376, 
  "stehlen": 27855, 
  "Bruchteil": 26295, 
  "koordiniert": 7873, 
  "Trä@@": 28409, 
  "Mat@@": 6761, 
  "ehre": 25355, 
  "Wrocław": 55212, 
  "Dialog": 893, 
  "Ahmed": 47510, 
  "Entgegenkommen": 42357, 
  "engen@@": 70783, 
  "üll@@": 61768, 
  "umweltpolitischen": 24711, 
  "win-win": 75794, 
  "überschreiben": 32933, 
  "CIPRA": 63523, 
  "Heinz": 39066, 
  "pragmatischen": 25782, 
  "reciprocal": 81294, 
  "sechzehn": 42554, 
  "vage": 15175, 
  "Erlaubnis": 9665, 
  "Karaoke": 41323, 
  "vernach@@": 72505, 
  "Zwöl@@": 34641, 
  "lings@@": 27292, 
  "gna": 60084, 
  "adise": 77814, 
  "gne": 36241, 
  "häufigste": 33735, 
  "concludes": 81295, 
  "Pre@@": 6579, 
  "fünfzehn": 7759, 
  "cylinder": 81296, 
  "cons": 52625, 
  "COR@@": 25485, 
  "Gesellschaf@@": 38774, 
  "appartement": 55779, 
  "ۆ@@": 81297, 
  "Athens": 47321, 
  "übergreifenden": 13970, 
  "Druckerei": 38481, 
  "Wichtige": 50805, 
  "übergreifender": 39196, 
  "tissue": 79139, 
  "cone": 51019, 
  "conf": 43826, 
  "Massen": 18348, 
  "KR": 42931, 
  "sl@@": 12103, 
  "plom@@": 70708, 
  "Verwir@@": 58529, 
  "Universums": 24125, 
  "Colonia": 60051, 
  "Ägypter": 35982, 
  "ulates": 81298, 
  "isionen": 50045, 
  "angebote": 7396, 
  "überhöh@@": 48035, 
  "skri@@": 12369, 
  "Stop": 24947, 
  "renoviert": 4441, 
  "Dorn@@": 53536, 
  "seiner": 176, 
  "Aufstieg": 9185, 
  "Ägypten": 4205, 
  "liv@@": 54938, 
  "Apa@@": 72823, 
  "Pedi@@": 55780, 
  "Müll@@": 11254, 
  "Hunden": 32125, 
  "beamte": 22850, 
  "Sicherheitsvorschriften": 27310, 
  "fuss": 52626, 
  "TAR@@": 61087, 
  "illary": 76065, 
  "hang": 14144, 
  "Samstag@@": 41332, 
  "hand": 14232, 
  "angeprangert": 31387, 
  "خ@@": 63710, 
  "01.2010": 52838, 
  "Triomphe": 54354, 
  "ban@@": 8918, 
  "Grun@@": 39197, 
  "Herangehensweise": 11431, 
  "felder": 6666, 
  "feldes": 18904, 
  "Abi@@": 51270, 
  "wettbewerbsfähiger": 17944, 
  "XAMP@@": 68523, 
  "1600": 23474, 
  "Produktsicherheit": 29800, 
  "min": 4885, 
  "Konditionen": 13315, 
  "Parma": 47409, 
  "verbucht": 51271, 
  "mia": 56311, 
  "gekämpft": 13196, 
  "Hinrichtungen": 20539, 
  "Subcommittee": 78782, 
  "unterschiedliche": 1601, 
  "Strombo@@": 73149, 
  "abgefragt": 39354, 
  "Köln": 6045, 
  "wettbewerbsfähigen": 15275, 
  "Thunder@@": 66123, 
  "Parlamentspräsidenten": 36745, 
  "betragen": 8626, 
  "პ@@": 83361, 
  "traditions": 76797, 
  "fen@@": 10424, 
  "äußerste": 39827, 
  "redi@@": 42270, 
  "tä@@": 10325, 
  "Modernis@@": 44575, 
  "musikalischer": 42377, 
  "Dni@@": 67672, 
  "Nether@@": 59320, 
  "einzunehmen": 14198, 
  "Werden": 38006, 
  "Staat@@": 11479, 
  "Lorenzo": 27143, 
  "台@@": 73227, 
  "Duft": 15380, 
  "Verteidigungs@@": 6088, 
  "meistern": 11495, 
  "Südsudan": 31291, 
  "kalender": 14730, 
  "Autoh@@": 38676, 
  "abgelaufen": 16536, 
  "anter": 18142, 
  "kredi@@": 36988, 
  "EGNOS": 51588, 
  "Angemessenheit": 37547, 
  "gewinnen": 1675, 
  "reg@@": 5482, 
  "57@@": 50785, 
  "gehensweise": 74328, 
  "sometimes": 81300, 
  "Erwiderung": 44786, 
  "zuweilen": 11833, 
  "concerns": 79155, 
  "Zwischenzeit": 8425, 
  "wälder": 14391, 
  "Mitgefühl": 11720, 
  "antem": 44225, 
  "Clarke": 54589, 
  "Untersuchungen": 2978, 
  "anten": 4609, 
  "06.@@": 20540, 
  "lic@@": 17501, 
  "Witt@@": 30002, 
  "ungsteam": 36282, 
  "Restaurant": 671, 
  "spiegel@@": 49215, 
  "Transc@@": 54972, 
  "dising": 63687, 
  "gewollt": 20267, 
  "én": 38278, 
  "dankbar": 3551, 
  "bedeutendsten": 7368, 
  "Sozial@@": 1964, 
  "Beschäftigungsp@@": 38611, 
  "MASSIVE": 64646, 
  "designers": 70140, 
  "Ticket": 8644, 
  "Wind": 5845, 
  "Wine": 50276, 
  "Web-Seite": 24196, 
  "és": 12010, 
  "smodell": 35983, 
  "Winamp": 53779, 
  "Einzelfällen": 42996, 
  "cooler": 66374, 
  "Krab@@": 51054, 
  "cool": 28345, 
  "Zapati@@": 56312, 
  "öhler": 69304, 
  "Fira": 53529, 
  "Währungs-": 46863, 
  "Bü": 81302, 
  "coolen": 52627, 
  "sparse": 73915, 
  "night": 53407, 
  "Reiseveranst@@": 53408, 
  "Bö": 79158, 
  "Laufwerke": 29961, 
  "Nielson": 20709, 
  "fähigkeit": 3726, 
  "-Bit": 30697, 
  "-Spezial@@": 50532, 
  "beschließt": 14375, 
  "Ökologie": 25018, 
  "welchem": 2855, 
  "Schleswig-Holstein": 45828, 
  "ಶ": 83763, 
  "trainee": 78770, 
  "begnügen": 30527, 
  "Ehesch@@": 43642, 
  "born": 30281, 
  "Italia": 22274, 
  "Öfen": 50277, 
  "borg": 30698, 
  "bore": 73508, 
  "bord": 60489, 
  "Verkehr@@": 13506, 
  "erhöhte": 8584, 
  "Schönheiten": 22958, 
  "Armeniern": 41673, 
  "Ceder@@": 73916, 
  "Clou@@": 66721, 
  "Bolivi@@": 55486, 
  "Kaffe@@": 9334, 
  "korrupten": 34764, 
  "Phi@@": 66252, 
  "Oldtimer": 53650, 
  "Ordin@@": 63426, 
  "Tim": 26451, 
  "zugewiesen": 10177, 
  "asking": 66499, 
  "Tiroler": 16877, 
  "geweiht": 35596, 
  "Lexikon": 52996, 
  "Gerard": 63099, 
  "strada": 52865, 
  "participation": 76817, 
  "Gray": 60086, 
  "Graz": 18908, 
  "Empfän@@": 33062, 
  "Aer@@": 23751, 
  "peel": 76067, 
  "easy-to-use": 79159, 
  "Sortiment": 7799, 
  "Glu@@": 19528, 
  "ikern": 30439, 
  "Grau": 46355, 
  "andeln": 58698, 
  "erstattung": 27537, 
  "nordwestlich": 41333, 
  "Gran": 6902, 
  "鋒@@": 78261, 
  "billigung": 45202, 
  "Dachterrasse": 12467, 
  "Grab": 19654, 
  "5x@@": 62817, 
  "Grad": 3369, 
  "länglich": 44022, 
  "Graf": 25486, 
  "Staatschef": 47322, 
  "vielfäl@@": 31538, 
  "niederschlagen": 31793, 
  "Gestaltungs@@": 19721, 
  "Subsidiaritäts@@": 42378, 
  "verwehrt": 15337, 
  "earbei@@": 31977, 
  "Orten": 4612, 
  "Printing": 58790, 
  "busines@@": 76126, 
  "unerwünschten": 24082, 
  "Wissens@@": 7792, 
  "Ocster": 58699, 
  "book": 29188, 
  "waf@@": 67879, 
  "step@@": 44386, 
  "konnen": 22498, 
  "Klem@@": 23682, 
  "veranschaulichen": 30327, 
  "wasting": 82793, 
  "Kalender@@": 18734, 
  "Abdullah": 37548, 
  "profession": 75880, 
  "NG@@": 24138, 
  "puncto": 23459, 
  "zimmer-@@": 49795, 
  "Diebstahl": 19745, 
  "Feminismus": 50278, 
  "Seriosität": 51021, 
  "Abstimmungsstunde": 12603, 
  "WARE": 72600, 
  "üre": 25783, 
  "Pensions@@": 20571, 
  "langsam@@": 24772, 
  "vorgabe": 54298, 
  "vorrangige": 12571, 
  "GetYourGuide": 39067, 
  "üro": 49796, 
  "sovereign": 81307, 
  "load-@@": 65025, 
  "Ny@@": 17910, 
  "Regency": 53777, 
  "Englisch": 2644, 
  "conservation": 81308, 
  "châ@@": 76475, 
  "Photosmart": 65392, 
  "ürt": 27538, 
  "Danu@@": 70470, 
  "Ann@@": 13888, 
  "ITER@@": 58360, 
  "ʃ@@": 79160, 
  "geschlossen@@": 57085, 
  "diligence": 75405, 
  "Meisterwerk": 29028, 
  "Weltgesundheits@@": 61507, 
  "referendums": 71165, 
  "schweigen": 8705, 
  "Hilfsprogramm": 36731, 
  "Verlängerung": 5519, 
  "Mikrowelle": 20232, 
  "rauch": 58700, 
  "gal@@": 14173, 
  "Belder": 35240, 
  "Romanesque": 74819, 
  "ک@@": 74330, 
  "Optimierungen": 49278, 
  "gewalt": 13626, 
  "Slowakischen": 32557, 
  "lanciert": 44023, 
  "verkleinert": 44145, 
  "ihr@@": 52045, 
  "captive": 79161, 
  "Führern": 20619, 
  "gründlich": 7437, 
  "Hohen": 3022, 
  "Herstellern": 7916, 
  "Sap@@": 37174, 
  "Hoher": 37128, 
  "gemacht": 386, 
  "lügen": 47404, 
  "inmitten": 3001, 
  "Führers": 44227, 
  "Wechsel": 7227, 
  "Eigentumsvorbehalt": 49279, 
  "reichung": 35605, 
  "kästchen": 67249, 
  "Indischen": 26390, 
  "Cream": 66418, 
  "ausgelesen": 52308, 
  "er@@": 235, 
  "Abänderungsanträge": 25197, 
  "Mühl@@": 38399, 
  "äl@@": 6196, 
  "Bauart": 38906, 
  "request": 70198, 
  "Charlotten@@": 69181, 
  "Between": 68041, 
  "kommunistischen": 8251, 
  "anspruchs@@": 25086, 
  "disease": 71404, 
  "geliebten": 32176, 
  "ล": 77817, 
  "15-@@": 17542, 
  "Sch@@": 799, 
  "expertise": 64341, 
  "ronen": 22159, 
  "prayer": 82820, 
  "Mitta@@": 68745, 
  "schlanke": 38482, 
  "Zö@@": 48523, 
  "MEDA-@@": 24464, 
  "1,000": 59918, 
  "Inclu@@": 50786, 
  "fasc@@": 74331, 
  "Entscheidungst@@": 69895, 
  "far@@": 11878, 
  "spürbare": 28260, 
  "wollten": 2846, 
  "fünfte": 15322, 
  "Fix@@": 22786, 
  "tesa": 47617, 
  "Brennstoff@@": 20334, 
  "Staats": 43294, 
  "Tragödien": 19794, 
  "tesy": 72887, 
  "Thur@@": 61892, 
  "test": 10802, 
  "Falle": 1279, 
  "ausgesch@@": 11480, 
  "Erstaunen": 26260, 
  "quot@@": 53409, 
  "klargemacht": 50787, 
  "tu@@": 4323, 
  "funktions@@": 21973, 
  "iPods": 60679, 
  "Flüchtlinge": 3600, 
  "Rückstände": 28110, 
  "Reiches": 17790, 
  "verdeutlicht": 11017, 
  "efe": 27144, 
  "Afghanist@@": 53951, 
  "update": 52997, 
  "improvisation": 72635, 
  "teilgenommen": 6283, 
  "Gaud@@": 60883, 
  "Iberotel": 62936, 
  "occasion": 81311, 
  "later@@": 42818, 
  "exam@@": 68746, 
  "seeing": 77818, 
  "leitungs@@": 20682, 
  "Berichte": 1482, 
  "konkurrenz@@": 22250, 
  "Plasma@@": 26710, 
  "ebox": 60885, 
  "Abba": 59099, 
  "Genießen": 33081, 
  "ez-@@": 58254, 
  "fried@@": 14305, 
  "Saas-Fee": 60875, 
  "spuren": 22551, 
  "Dschi@@": 23683, 
  "Verkauf@@": 11289, 
  "Rechtschreib@@": 49797, 
  "Displays": 25722, 
  "Berichts": 966, 
  "Keller": 12502, 
  "unausweichlich": 32874, 
  "trennen": 5906, 
  "gehörte": 7336, 
  "differ@@": 33286, 
  "Garde": 54287, 
  "songs": 56167, 
  "tribunals": 72010, 
  "concept": 66650, 
  "abgesetzt": 28960, 
  "diplomacy": 79163, 
  "Verhältnis": 2122, 
  "父": 81312, 
  "Berühm@@": 54940, 
  "salmon@@": 74820, 
  "supplement": 78329, 
  "Republic": 60087, 
  "selbstre@@": 55633, 
  "Taktiken": 45478, 
  "bemerk@@": 22499, 
  "zweifellos": 2061, 
  "fortun@@": 75407, 
  "p.m.": 72021, 
  "Republik": 1098, 
  "Informationskampagne": 27390, 
  "Vorraus@@": 49799, 
  "Kie@@": 43463, 
  "Migranten": 8997, 
  "Burg": 5218, 
  "helles": 34875, 
  "Innenminister": 21489, 
  "wirkungsvolle": 27787, 
  "WEU": 34153, 
  "gebundene": 22711, 
  "Burn": 57391, 
  "Schlauch": 48524, 
  "Genehmigung": 3206, 
  "defl@@": 57619, 
  "Lenti@@": 61524, 
  "gige": 19757, 
  "auflösung": 24079, 
  "Temper@@": 32773, 
  "SC-@@": 59812, 
  "hellen": 10854, 
  "aland": 58362, 
  "-innen": 43827, 
  "erlauben": 2272, 
  "Anteilnahme": 31490, 
  "estation": 54299, 
  "demonstri@@": 31794, 
  "fertigungen": 55781, 
  "Europa-Mittelmeer-@@": 18298, 
  "Rolex": 57244, 
  "üßt": 64512, 
  "automobiles": 81313, 
  "Weiter@@": 7067, 
  "Artistic": 70801, 
  "airing": 71899, 
  "veranlassen": 9128, 
  "Kyoto-Protokolls": 22160, 
  "Erläu@@": 71561, 
  "Netto@@": 9962, 
  "gue": 26885, 
  "artific@@": 75653, 
  "verspüren": 37260, 
  "turns": 70709, 
  "Terr@@": 36835, 
  "gekennzeichnet": 4133, 
  "gun": 45829, 
  "gum": 71646, 
  "gul": 56481, 
  "alogue": 75330, 
  "ain@@": 12294, 
  "Aussehen": 9250, 
  "gut": 206, 
  "Str@@": 7937, 
  "Szenen": 14339, 
  "Hilfsprogramme": 34642, 
  "FlexRay": 59919, 
  "Gior@@": 63325, 
  "Eid@@": 26632, 
  "": 81316, 
  "cose": 66757, 
  "gef@@": 5302, 
  "formelle": 22460, 
  "ausnahmsweise": 24625, 
  "cosa": 68042, 
  "ship@@": 68204, 
  "ekte": 22422, 
  "CMC": 64342, 
  "ง@@": 74332, 
  "park@@": 16274, 
  "Wasserfälle": 24120, 
  "на": 14959, 
  "Müller": 9633, 
  "cost": 67416, 
  "не": 36377, 
  "": 75408, 
  "Wan@@": 31978, 
  "Wy@@": 27702, 
  "Teilen": 2150, 
  "säure": 37130, 
  "Ziff": 44657, 
  "CMS": 17655, 
  "iors": 67706, 
  "cosy": 72826, 
  "но": 22177, 
  "Eurojust": 18642, 
  "raschen": 11158, 
  "Form": 431, 
  "zuladen": 43644, 
  "lators": 67277, 
  "-Tool": 32301, 
  "Ford": 10546, 
  "Cockpit": 35241, 
  "ermäßigte": 41674, 
  "lerk@@": 49951, 
  "": 74821, 
  "Mitgliedsland": 24577, 
  "rascher": 20389, 
  "oaks": 81317, 
  "verzauber@@": 59529, 
  "Nichtrau@@": 66651, 
  "": 81318, 
  "Renewable": 71900, 
  "Fort": 20268, 
  "giges": 20513, 
  "Dublin-@@": 41238, 
  "Vitam@@": 63886, 
  "Datenschutzbestimmungen": 19758, 
  "Fuhr@@": 30335, 
  "mati@@": 12417, 
  "medizin": 17272, 
  "diensten": 6850, 
  "feld@@": 20354, 
  "Pflanze": 16413, 
  "boten": 16012, 
  "riere": 66303, 
  "mechanische": 13037, 
  "TENs": 72827, 
  "Custom@@": 43286, 
  "Distribution": 5974, 
  "Autobus": 52508, 
  "VMware": 55222, 
  "knowledge": 72223, 
  "sending": 81319, 
  "box-@@": 58200, 
  "Portugal": 2445, 
  "Texte": 2950, 
  "heikel": 36098, 
  "noch@@": 42757, 
  "Durchblutung": 49800, 
  "Pres@@": 5437, 
  "versuch": 19062, 
  "Vertrieb@@": 9456, 
  "defiziten": 40443, 
  "möglich": 208, 
  "Fähn@@": 66758, 
  "sour@@": 64213, 
  "domains": 63887, 
  "Lin@@": 5800, 
  "erbärm@@": 33187, 
  "430": 45422, 
  "spekulieren": 43112, 
  "Element@@": 36153, 
  "Benalmádena": 59365, 
  "ineinander": 30611, 
  "ctions": 71166, 
  "extra": 7979, 
  "Privatstrand": 31686, 
  "Blut@@": 4246, 
  "lusion@@": 72507, 
  "Remo": 62161, 
  "klickt": 17074, 
  "Contact": 39642, 
  "Isaak": 56933, 
  "gefunden": 1006, 
  "Beitrags@@": 24563, 
  "finanzierte": 18361, 
  "Lat@@": 9143, 
  "RS-@@": 40991, 
  "Isaac": 55640, 
  "rün@@": 34408, 
  "Beharrlichkeit": 24240, 
  "künstliche": 16004, 
  "Chats": 41675, 
  "ational@@": 70928, 
  "gelegene": 5630, 
  "antwortung": 70290, 
  "flüge": 10598, 
  "Arbeiten": 1581, 
  "Dies": 19795, 
  "reger": 41159, 
  "Fels": 32972, 
  "Diet": 68774, 
  "Legion": 32136, 
  "Fell": 33846, 
  "Arbeiter": 6551, 
  "Comm@@": 15620, 
  "Feld": 3529, 
  "ipel@@": 70054, 
  "wirtschaftspolitischen": 12708, 
  "bige": 24299, 
  "rainfall": 81320, 
  "zipation": 66124, 
  "beschleunigten": 35369, 
  "refres@@": 77821, 
  "Wirkung": 1991, 
  "Jacob": 37730, 
  "befristete": 27703, 
  "korrekten": 13019, 
  "lea@@": 66759, 
  "Himmel@@": 17925, 
  "reduz@@": 25724, 
  "Minderheitenrechte": 26387, 
  "Tomm@@": 61780, 
  "fizier@@": 29953, 
  "Cov@@": 69519, 
  "Sneaker": 53150, 
  "reagierte": 26012, 
  "abgerufen": 22161, 
  "Ki-moon": 62294, 
  "stelligen": 35612, 
  "Verfügbarkeit": 2259, 
  "zeuger": 26854, 
  "per-@@": 44605, 
  "unnötige": 11934, 
  "acon": 66575, 
  "decken": 5004, 
  "lichter": 27164, 
  "abyte": 54965, 
  "decker": 55641, 
  "Schatten": 6462, 
  "seriösen": 34643, 
  "zeugen": 10875, 
  "strittige": 49953, 
  "Setzen": 31539, 
  "torante": 65026, 
  "trans": 62105, 
  "beantrag@@": 31589, 
  "Archiv@@": 21120, 
  "Selbstvertrauen": 31979, 
  "ERP": 31590, 
  "ummer": 16043, 
  "gewohnt": 9623, 
  "Treviso": 39885, 
  "chip": 54163, 
  "et-style": 81322, 
  "chiv": 54858, 
  "rushed": 81323, 
  "set-@@": 52758, 
  "chin": 61894, 
  "zaht@@": 61280, 
  "h-@@": 28315, 
  "In@@": 1019, 
  "ERN": 43720, 
  "chia": 40035, 
  "schutzmittel": 40464, 
  "occur": 81324, 
  "schrei@@": 10018, 
  "Shows": 17498, 
  "NPCs": 66125, 
  "pret@@": 64649, 
  "Weggen": 76071, 
  "Christi@@": 38204, 
  "abzubauen": 11671, 
  "ray-@@": 51620, 
  "Is@@": 8152, 
  "sillon": 56605, 
  "lounge": 39198, 
  "Standpunkten": 23633, 
  "keineswegs": 4509, 
  "Reben": 45615, 
  "Gent@@": 18938, 
  "ausführte": 24199, 
  "sischen": 22480, 
  "Schir@@": 35499, 
  "AVI": 29938, 
  "Islamisten": 26711, 
  "Frag@@": 46651, 
  "ile": 20670, 
  "energiespar@@": 34997, 
  "-ups": 59920, 
  "Ausrüstungen": 17316, 
  "ψ@@": 74824, 
  "P.@@": 24465, 
  "DN@@": 24683, 
  "britann@@": 69570, 
  "Blö@@": 65854, 
  "adel": 34992, 
  "Hochebene": 33174, 
  "produce": 76072, 
  "Wenz@@": 54551, 
  "Martin": 4552, 
  "Publish@@": 33736, 
  "pe@@": 8935, 
  "Model": 19875, 
  "Modem": 20541, 
  "Keynes": 29853, 
  "Geldpolitik": 9111, 
  "unge@@": 9019, 
  "LAB@@": 48037, 
  "günstigste": 34165, 
  "niedrig@@": 40465, 
  "Dieter": 26327, 
  "grandson": 81327, 
  "Nephiten": 23394, 
  "Unwissenheit": 36624, 
  "vorher@@": 11159, 
  "Shia": 74333, 
  "freund@@": 14903, 
  "duc@@": 33737, 
  "you-@@": 69182, 
  "Neuschwanstein": 62295, 
  "Radio": 5304, 
  "Überstunden": 50788, 
  "behör": 76073, 
  "Computer-@@": 22474, 
  "Gemeinschaftsflotte": 50279, 
  "Ship": 65027, 
  "Seeb@@": 21491, 
  "kurs": 7393, 
  "respek@@": 30909, 
  "QLA": 57463, 
  "polation": 63888, 
  "endet": 5073, 
  "approx": 77822, 
  "Ca": 28254, 
  "stils": 37262, 
  "endes": 3007, 
  "ender": 1655, 
  "äqu@@": 61895, 
  "Mechanical": 67296, 
  "raised": 74848, 
  "betraut": 22423, 
  "verdi@@": 21183, 
  "Jan": 10866, 
  "Re": 43263, 
  "stile": 42193, 
  "Jam": 56512, 
  "tablets": 81328, 
  "api@@": 54036, 
  "Qui@@": 45203, 
  "endem": 7996, 
  "anbieten": 2093, 
  "enden": 610, 
  "otismus": 45616, 
  "Accessoires": 18818, 
  "RT": 56796, 
  "entschuldige": 41334, 
  "wirkungsvoll": 18766, 
  "RP": 57393, 
  "Beschäftigungsquote": 40466, 
  "RS": 29104, 
  "Anregungen": 6270, 
  "resse": 53152, 
  "Privat@@": 2456, 
  "ausser@@": 16886, 
  "entschuldigt": 42006, 
  "alisierung": 3841, 
  "RF": 55642, 
  "Ski-": 26301, 
  "RA": 17627, 
  "RC": 24948, 
  "trenn@@": 21073, 
  "RM": 45016, 
  "EU-Mitgliedstaaten": 3955, 
  "RO": 5372, 
  "RH": 57866, 
  "RI": 16579, 
  "Satur@@": 54683, 
  "RK": 32662, 
  "森@@": 83050, 
  "nom": 53153, 
  "non": 23887, 
  "TRAN@@": 39355, 
  "nod": 72509, 
  "Feindschaft": 49521, 
  "willige": 28717, 
  "nog": 33039, 
  "alist": 23888, 
  "IZ@@": 29371, 
  "sol": 47323, 
  "Ost-": 20597, 
  "-Scott": 81331, 
  "alism": 66653, 
  "Brenta": 55515, 
  "Dok@@": 27311, 
  "not": 17911, 
  "Sicherheits-": 7500, 
  "now": 51440, 
  "neuere": 18837, 
  "alise": 70710, 
  "nor": 68367, 
  "nos": 29456, 
  "道@@": 77823, 
  "unvollständig": 21751, 
  "Menschenrechtsrat": 28262, 
  "itze": 35500, 
  "spielen": 615, 
  "Hollywood": 21171, 
  "drop": 63525, 
  "einigung": 31292, 
  "beings": 81542, 
  "Pocket@@": 58530, 
  "Annul@@": 54552, 
  "magazin": 22904, 
  "lieben": 5567, 
  "Lieferanten@@": 23104, 
  "itzt": 48781, 
  "drom": 45017, 
  "Skin": 51273, 
  "ARPRO": 52866, 
  "Agricultural": 68368, 
  "spieler": 8721, 
  "Jeff@@": 65028, 
  "Passes": 54805, 
  "narr@@": 70473, 
  "stetigen": 30336, 
  "Attersee": 61899, 
  "Museum": 1960, 
  "ächte": 36099, 
  "begraben": 20455, 
  "ungstechnologie": 29357, 
  "Einwohner@@": 55782, 
  "Frühwarnsystem": 44788, 
  "stabilität": 17603, 
  "fs": 6606, 
  "beliebige": 9170, 
  "year": 63526, 
  "wiederaufgenommen": 17466, 
  "naming": 74334, 
  "Dekret": 40992, 
  "monitors": 74335, 
  "Petition": 14233, 
  "си@@": 30797, 
  "Target@@": 57133, 
  "ehnten": 28183, 
  "Helaba": 63455, 
  "ron@@": 8299, 
  "Energiepaket": 47822, 
  "zähle": 25088, 
  "Kontra@@": 20000, 
  "Norwegian": 70561, 
  "León": 48038, 
  "wholeheartedly": 81334, 
  "fy": 38805, 
  "бо@@": 35121, 
  "Tarifa": 10669, 
  "Netzwerks": 14270, 
  "ebuil@@": 64266, 
  "zählt": 2553, 
  "glück": 66760, 
  "Ausrede": 37054, 
  "im@@": 3011, 
  "advantaged": 79521, 
  "selektiv": 33061, 
  "gesorgt": 7316, 
  "Kön@@": 29457, 
  "ин@@": 30251, 
  "諸@@": 77825, 
  "diagnostic": 77826, 
  "mieten": 6548, 
  "Regim@@": 55223, 
  "unwanted": 81335, 
  "ir@@": 2971, 
  "hegemoni@@": 51534, 
  "Pumpen": 22461, 
  "Europe@@": 56039, 
  "fabric": 75384, 
  "on-@@": 3839, 
  "liefert": 3101, 
  "bition": 64650, 
  "Flagge": 11490, 
  "fa": 21726, 
  "Devisen@@": 17132, 
  "ationsh@@": 42647, 
  "Harbour": 15496, 
  "Ministerpräsidenten": 8853, 
  "sierung": 11872, 
  "ro-@@": 22375, 
  "frieden": 28962, 
  "Erik": 49378, 
  "hinausgehende": 37550, 
  "510": 43645, 
  "Erinnerung": 3722, 
  "Thessalon@@": 61699, 
  "altitude": 79165, 
  "Super-@@": 36981, 
  "fe": 4672, 
  "blind": 20942, 
  "gegenstände": 15816, 
  "schließungen": 43464, 
  "hell@@": 13284, 
  "zurückzu@@": 5644, 
  "ff": 6519, 
  "ዓ@@": 76074, 
  "Stainless": 56994, 
  "Schengen-R@@": 64642, 
  "Ч@@": 67707, 
  "Sklaverei": 17155, 
  "Tec@@": 29636, 
  "zweijährigen": 47571, 
  "anonymen": 33847, 
  "Pure": 61509, 
  "bibliothek": 12347, 
  "rine": 58849, 
  "inszeniert": 44228, 
  "ring": 17502, 
  "konzepten": 36512, 
  "rina": 54553, 
  "tomorrow": 77827, 
  "к@@": 8403, 
  "Pubs": 20903, 
  "inie": 24826, 
  "gutgeschrieben": 20436, 
  "Analysen": 6500, 
  "-Rep@@": 37709, 
  "Blottnitz": 54554, 
  "caught": 79177, 
  "aufheben": 20001, 
  "Kosov@@": 51023, 
  "Abruzzo": 67034, 
  "gast": 27650, 
  "Busse": 7984, 
  "Lieutenant": 18767, 
  "Kandidat": 13756, 
  "Formaten": 15157, 
  "aufgenommenen": 26986, 
  "restriktiven": 27392, 
  "Voggen@@": 76075, 
  "beklagt": 26587, 
  "länder": 6660, 
  "daneben": 6347, 
  "a": 280, 
  "Erreichte": 42556, 
  "Majestät": 51583, 
  "Landhaus": 15003, 
  "Feuer": 6962, 
  "brains": 82990, 
  "schlecht": 2927, 
  "Wechselkurs": 15259, 
  "BN@@": 34060, 
  "diebstahl": 51274, 
  "Device": 41005, 
  "Bugzilla": 58531, 
  "soren": 51777, 
  "schi@@": 6501, 
  "Gahrton": 56040, 
  "Poker@@": 9457, 
  "bemerken": 7534, 
  "Vorred@@": 44024, 
  "kriminellen": 14590, 
  "ff-@@": 64075, 
  "png": 54164, 
  "ev@@": 5951, 
  "professionals": 79178, 
  "Brüssel@@": 40123, 
  "Hilfestellung": 19093, 
  "Inselgruppe": 31204, 
  "Komplizen": 49523, 
  "geschmückt": 33563, 
  "geschäftlichen": 14036, 
  "CrypTool": 57086, 
  "ganz@@": 13038, 
  "transferred": 81337, 
  "ec@@": 3945, 
  "applet": 72510, 
  "text@@": 24108, 
  "Asy@@": 54942, 
  "einfel@@": 51535, 
  "Kill@@": 59033, 
  "Applikation": 9540, 
  "missbrauch": 18559, 
  "Settlement": 65029, 
  "Umweltzerstörung": 48782, 
  "vernetzten": 36513, 
  "gli": 65486, 
  "documentation": 76041, 
  "Gär@@": 29105, 
  "Marcos": 45204, 
  "Eugen@@": 54126, 
  "Anfänger": 10122, 
  "Chau@@": 41843, 
  "Demet@@": 68043, 
  "Ratingagenturen": 22251, 
  "schmack@@": 23347, 
  "einnimmt": 13824, 
  "Letztere": 33939, 
  "Deep": 13663, 
  "ー@@": 69359, 
  "Entlohnung": 31089, 
  "Quartier": 23001, 
  "Parlaments@@": 7515, 
  "oleum": 60491, 
  "Dorint": 55784, 
  "Commune": 63712, 
  "Audiodateien": 35427, 
  "freigestellt": 45423, 
  "Kfz-@@": 26146, 
  "kreative": 8164, 
  "Jet@@": 19631, 
  "auswählen": 4766, 
  "Opi@@": 35370, 
  "Energiebedarfs": 50254, 
  "Aneignung": 37710, 
  "hinweise": 35501, 
  "schreibe": 17807, 
  "equipment": 42007, 
  "Seehöhe": 45424, 
  "vereinigten": 36991, 
  "Uigh@@": 69098, 
  "珠@@": 80045, 
  "hinweist": 21255, 
  "äumt": 30441, 
  "healing": 77676, 
  "Kommando@@": 42557, 
  "mitberatenden": 15446, 
  "sü@@": 9803, 
  "雅@@": 81339, 
  "modifizierte": 46867, 
  "lehne": 13864, 
  "Spie@@": 42943, 
  "teach@@": 74336, 
  "äume": 18939, 
  "Grenzkontrollen": 16437, 
  "verzö@@": 17875, 
  "Rad@@": 4526, 
  "biotechn@@": 25725, 
  "Break@@": 31294, 
  "lehnt": 8788, 
  "Pak@@": 26029, 
  "gemeinsame": 541, 
  "Neapel": 11917, 
  "bot@@": 16363, 
  "-Restaurant": 15549, 
  "Kollektiv@@": 24517, 
  "Ensem@@": 66375, 
  "sludge": 84225, 
  "Toren": 23159, 
  "Devise": 36992, 
  "holländischen": 29372, 
  "fremd": 27713, 
  "comple@@": 76504, 
  "Module": 5338, 
  "expliz@@": 42194, 
  "verdächtig": 47921, 
  "CAC@@": 58850, 
  "onium": 69198, 
  "Moduls": 31795, 
  "ausstoß": 38311, 
  "Elektronik-@@": 33287, 
  "ökologisch": 11893, 
  "befand": 10119, 
  "nannten": 25308, 
  "Web": 3325, 
  "Bedeutungs@@": 38907, 
  "Weg": 320, 
  "colum@@": 81340, 
  "Wei": 57868, 
  "scoreboard": 68853, 
  "Wen": 54165, 
  "Galeote": 39525, 
  "Qualitätsmanagement": 28384, 
  "Schnees@@": 46868, 
  "Wer": 22463, 
  "sibly": 81342, 
  "Vergü@@": 74826, 
  "gletscher": 49524, 
  "30-40": 63326, 
  "perfekt": 2958, 
  "満": 81343, 
  "TA@@": 18735, 
  "schlägt": 2660, 
  "Sharing": 58264, 
  "se-@@": 7440, 
  "GRUB": 52111, 
  "dana": 41827, 
  "HSH": 61700, 
  "Mitgliedern": 1929, 
  "Beweg@@": 23752, 
  "ationalen": 34283, 
  "lesbar": 28060, 
  "schläge": 15162, 
  "enriched": 81344, 
  "Konstantin@@": 54166, 
  "Tschechoslowak@@": 68044, 
  "öfen": 17638, 
  "amera": 41844, 
  "stain": 73155, 
  "entsprechen": 1893, 
  "amtier@@": 73921, 
  "datenspeicherung": 74828, 
  "verlegen": 21297, 
  "Luther": 45205, 
  "Africans": 82980, 
  "verkörpern": 30113, 
  "Weltkulturerbe": 17075, 
  "anzuerkennen": 8453, 
  "bilities": 76076, 
  "agentur": 6268, 
  "Legalisierung": 26030, 
  "schreibung": 17415, 
  "Rüst@@": 26328, 
  "Landesgrenzen": 32460, 
  "Weiterverarbeitung": 26521, 
  "SCH@@": 7747, 
  "versammelt": 19977, 
  "Interie@@": 36100, 
  "Kommunikation": 1715, 
  "SYN@@": 55224, 
  "Ausschüsse": 5733, 
  "jeher": 10901, 
  "hing": 41793, 
  "egment": 27691, 
  "Costasur": 23299, 
  "barocke": 36514, 
  "ammlung": 35371, 
  "azo": 66376, 
  "Werften": 24846, 
  "Intellectual": 64770, 
  "Baustellen": 45963, 
  "Bethleh@@": 73156, 
  "gründete": 9148, 
  "21.@@": 18115, 
  "reven@@": 75576, 
  "sprit@@": 19161, 
  "betäub@@": 48220, 
  "DÜ@@": 54167, 
  "licht@@": 15040, 
  "vorhandenen": 3021, 
  "Salz@@": 10354, 
  "EMF": 58532, 
  "EMA": 30810, 
  "EMC": 56041, 
  "burst": 74502, 
  "Tamp@@": 50046, 
  "angebaut": 16055, 
  "aufstrebenden": 18414, 
  "Apps": 53702, 
  "kop@@": 10399, 
  "EMU": 69522, 
  "公": 81346, 
  "Gasversorgung": 40993, 
  "Lotterie": 45617, 
  "ägyptischen": 15176, 
  "EMS": 36101, 
  "dbar": 25542, 
  "oberen": 5839, 
  "Belichtungs@@": 33848, 
  "wahrheits@@": 35243, 
  "attraktive": 7955, 
  "erweiter@@": 22442, 
  "suspects": 81347, 
  "schreien": 37263, 
  "anzugleichen": 39356, 
  "Meisterschaft": 20861, 
  "Ecke": 6502, 
  "Kriegen": 19094, 
  "colours": 81348, 
  "Lithu@@": 81064, 
  "Krieger": 23566, 
  "Krieges": 4547, 
  "wechsel": 5198, 
  "Members": 65030, 
  "NO@@": 15384, 
  "Compan@@": 62887, 
  "berechnet": 4193, 
  "Journalis@@": 39967, 
  "therapies": 79067, 
  "conferencing": 73693, 
  "zweif@@": 70072, 
  "verfügbarer": 44229, 
  "Wert": 784, 
  "Langstrecken@@": 28111, 
  "Kashmir": 69183, 
  "filter": 12276, 
  "Jessica": 53537, 
  "Nächten": 25252, 
  "broch@@": 64136, 
  "AKP-Länder": 20073, 
  "königliche": 33279, 
  "饮@@": 79179, 
  "Tu@@": 6957, 
  "männer": 32359, 
  "Team": 1030, 
  "Kriegsende": 47805, 
  "MI@@": 26645, 
  "parteien": 34645, 
  "ambiente": 47466, 
  "Gesch@@": 6018, 
  "cor@@": 12799, 
  "grimm@@": 62939, 
  "気": 80749, 
  "Stockholmer": 23300, 
  "iglia": 46807, 
  "MF@@": 38909, 
  "sper@@": 20390, 
  "finder@@": 42382, 
  "ł@@": 11393, 
  "Dunkelheit": 24607, 
  "enland": 25345, 
  "Unicode": 35984, 
  "Escape": 62296, 
  "ehrten": 24687, 
  "Screenshots": 25902, 
  "Kongresszentrum": 18257, 
  "Tutorial": 22500, 
  "Handy@@": 16048, 
  "Flugverkehr": 21803, 
  "zab@@": 61701, 
  "amins": 59609, 
  "madness": 76077, 
  "esens": 48264, 
  "ganzheitliche": 22324, 
  "Katastrophen@@": 14142, 
  "jeans": 72829, 
  "esische": 11620, 
  "arsen@@": 53778, 
  "Oberhand": 25817, 
  "exploit": 77737, 
  "bewußtsein": 32360, 
  "aming": 55785, 
  "täglichen": 4257, 
  "perpetrators": 81351, 
  "Bereitschafts@@": 33738, 
  "Sache": 994, 
  "Diversifizierung": 12513, 
  "FEKO": 62743, 
  "emart": 79181, 
  "Disc@@": 56313, 
  "weibliche": 15039, 
  "adt@@": 43829, 
  "Brems@@": 17360, 
  "Gebäude@@": 15260, 
  "tropical": 76820, 
  "Personal": 1370, 
  "Absichtserklärung": 32177, 
  "prüfen": 1326, 
  "outsi@@": 69898, 
  "sinvestitionen": 54807, 
  "Entsendung": 15714, 
  "pomm@@": 51024, 
  "Revisionen": 50280, 
  "erhalte": 20105, 
  "apier": 30910, 
  "transportiert": 10224, 
  "Ţic@@": 75277, 
  "Jugendliche": 5394, 
  "Telekom": 27472, 
  "make-@@": 72830, 
  "Instandsetzung": 44230, 
  "eistung": 23537, 
  "Spybot": 53282, 
  "n@@": 628, 
  "Papier@@": 6609, 
  "Ermessens@@": 36793, 
  "protokoll@@": 44963, 
  "line-@@": 21111, 
  "Südkorea": 10855, 
  "bereiten": 3884, 
  "ide-@@": 43295, 
  "anski": 63851, 
  "Direc": 81176, 
  "Fujimori": 64513, 
  "fines": 77091, 
  "bereiter": 57394, 
  "joke": 77830, 
  "眼@@": 79183, 
  "sigkeit": 45012, 
  "Fiji": 69033, 
  "Außen-": 4330, 
  "Anth@@": 27223, 
  "Pilotprojekt": 26401, 
  "lang@@": 9232, 
  "97-@@": 52047, 
  "Ravenna": 32178, 
  "GNU": 5459, 
  "SON@@": 33019, 
  "metric": 70711, 
  "Betten": 3675, 
  "FS@@": 23889, 
  "Verhältnissen": 18324, 
  "Better": 54555, 
  "polic@@": 55786, 
  "Verhältnisses": 23938, 
  "Arlberg": 36800, 
  "Haustür": 19632, 
  "Gandia": 58022, 
  "ultr@@": 58702, 
  "sivität": 31388, 
  "Bundesrepublik": 8202, 
  "Israel": 1451, 
  "schwarzes": 41163, 
  "develop": 81357, 
  "Treffer": 26402, 
  "Releas@@": 62297, 
  "Citadines": 59172, 
  "alifornien": 69184, 
  "Kenntnis@@": 48278, 
  "einseitig": 10537, 
  "ausgebildeten": 19239, 
  "Hemmnisse": 19045, 
  "Indonesien": 7684, 
  "besitzt": 1861, 
  "Treffen": 1973, 
  "unnels": 53154, 
  "schwarzem": 38230, 
  "schwarzen": 7510, 
  "k@@": 440, 
  "bedarf": 1569, 
  "Feste": 16484, 
  "Wohlbefin@@": 74338, 
  "verschluss": 29547, 
  "pancre@@": 79186, 
  "tzei@@": 32875, 
  "foam": 70744, 
  "bewaffnet": 46668, 
  "anischen": 3676, 
  "Arbeitssicherheit": 49013, 
  "teb@@": 36747, 
  "Degra": 56482, 
  "gefordert": 1529, 
  "ह@@": 75615, 
  "leer": 12047, 
  "Glä@@": 36584, 
  "europaweit": 9076, 
  "Quest@@": 49652, 
  "wärmstens": 49014, 
  "Mafia": 28599, 
  "handbuch": 38261, 
  "Weltöffentlichkeit": 45019, 
  "kontinent@@": 40468, 
  "enttäuschen": 28802, 
  "Sulu": 54350, 
  "Freed@@": 70569, 
  "Oomen-Ruijten": 20375, 
  "gerechte": 5690, 
  "ELDR-Fraktion": 17116, 
  "kri@@": 12999, 
  "hier@@": 14808, 
  "Presti@@": 38484, 
  "SDL": 9652, 
  "aktuelle": 1238, 
  "loy@@": 21204, 
  "SDK": 33531, 
  "taxi": 54556, 
  "Strafgesetz@@": 32970, 
  "Vorspeisen": 44790, 
  "ski-@@": 43881, 
  "Service": 570, 
  "geograph@@": 37711, 
  "Luxus-@@": 26092, 
  "Geräusch": 39526, 
  "taxe": 51903, 
  "Erzeugnissen": 9279, 
  "deh@@": 23986, 
  "Energieeffizienz@@": 30699, 
  "Simbabwe": 7326, 
  "vielversprechende": 38910, 
  "Pump": 61088, 
  "Gasen": 46153, 
  "Zweite": 22959, 
  "Variationen": 21630, 
  "richten@@": 70073, 
  "teilnahmen": 33290, 
  "Vidal-Quadras": 53155, 
  "Agro@@": 30487, 
  "Touren": 6443, 
  "Ha@@": 6137, 
  "Ahti@@": 76822, 
  "sal@@": 7909, 
  "Rechnungen": 12862, 
  "death": 76079, 
  "europ": 70477, 
  "Geschäftsfelder": 42198, 
  "matismus": 59717, 
  "Solana": 9597, 
  "Analyse": 1716, 
  "confirmed": 81358, 
  "herausragender": 27796, 
  "ismus@@": 32663, 
  "versa": 66701, 
  "Deleg@@": 25148, 
  "aleren": 51778, 
  "professionelles": 16029, 
  "professioneller": 13252, 
  "versi": 74832, 
  "Laur@@": 21864, 
  "ami": 18768, 
  "Ehem@@": 26855, 
  "amm": 18840, 
  "VEN@@": 54557, 
  "amo": 41170, 
  "Symbiose": 36407, 
  "ama": 11109, 
  "tivitäten": 36993, 
  "kurse": 7642, 
  "ame": 11286, 
  "coexistence": 79370, 
  "amy": 64884, 
  "allererst": 46265, 
  "makes": 74972, 
  "wohnten": 36994, 
  "inets": 67881, 
  "amp": 11865, 
  "ams": 9754, 
  "hörten": 23395, 
  "sah@@": 26697, 
  "amt": 7864, 
  "unglaublich": 8496, 
  "Marburg": 61702, 
  "Urheberrecht": 11641, 
  "fortune": 76823, 
  "Colum@@": 67418, 
  "sa-@@": 38616, 
  "π@@": 20413, 
  "Brüsseler": 16342, 
  "cubes": 84586, 
  "unspoiled": 81489, 
  "vedere": 76824, 
  "fully": 71506, 
  "Musica": 55111, 
  "kommand@@": 41676, 
  "Batzeli": 62744, 
  "Republi@@": 37380, 
  "gegenseitige": 6202, 
  "Polem@@": 67036, 
  "oble": 64514, 
  "Lissabon-Vertrag": 26987, 
  "verbal": 58851, 
  "abund@@": 76080, 
  "wahres": 18415, 
  "wahrer": 20417, 
  "Parall@@": 30531, 
  "Frank@@": 18610, 
  "search@@": 65736, 
  "Swiss@@": 27788, 
  "Ŀ@@": 83990, 
  "Ī@@": 74834, 
  "ă@@": 32558, 
  "langwei@@": 41511, 
  "wahren": 3692, 
  "Haushalts-": 30337, 
  "mexik@@": 60609, 
  "entschul@@": 53001, 
  "durfte": 13407, 
  "1858": 60493, 
  "1859": 57245, 
  "Vetorecht": 29031, 
  "Symantec": 60281, 
  "versicherte": 42559, 
  "1850": 39890, 
  "Tourisme": 58025, 
  "1852": 58026, 
  "1853": 60592, 
  "1854": 58852, 
  "manipuliert": 24285, 
  "punk@@": 14527, 
  "Reka-@@": 56724, 
  "Verst@@": 23396, 
  "od@@": 6728, 
  "übliche": 11696, 
  "Grippe": 34409, 
  "Nyl@@": 36748, 
  "ACROSS": 57502, 
  "spraxis": 28696, 
  "enzen": 12871, 
  "enzel": 70712, 
  "Löhne": 9427, 
  "GV@@": 50104, 
  "Busquin": 35985, 
  "HI-@@": 39200, 
  "privat@@": 29193, 
  "1975": 12228, 
  "Goth@@": 54808, 
  "bereuen": 52171, 
  "Panorama-@@": 31492, 
  "nisse": 11432, 
  "egeleg@@": 74836, 
  "Leonardo": 17235, 
  "enzer": 35986, 
  "rak@@": 10986, 
  "Konfliktverhütung": 32268, 
  "Glaubens": 16903, 
  "gär@@": 44231, 
  "Tochtergesellschaften": 15497, 
  "ér@@": 21974, 
  "entzück@@": 48040, 
  "Krankenh@@": 48783, 
  "Tet@@": 27394, 
  "angerechnet": 39068, 
  "atisierung": 26789, 
  "Rückschritte": 47824, 
  "backup": 69186, 
  "Intergovernmental": 69695, 
  "einzugreifen": 16381, 
  "oben@@": 52868, 
  "Prozesse": 3295, 
  "begannen": 9798, 
  "Romanti@@": 33632, 
  "Ronda": 36037, 
  "inständig": 39320, 
  "Nachhal@@": 37712, 
  "W@@": 623, 
  "Gewichts": 45121, 
  "trafen": 13905, 
  "Gold": 4310, 
  "stabilisation": 76081, 
  "ር": 81364, 
  "shrinking": 79188, 
  "Etikettierung": 12752, 
  "intervention": 50791, 
  "unheimlich": 48041, 
  "typisches": 15646, 
  "Vill@@": 16495, 
  "hon@@": 21745, 
  "Schnittstellen": 10360, 
  "starb": 9375, 
  "anwender@@": 41164, 
  "Elektro-": 20002, 
  "mit@@": 1525, 
  "Tschechoslowakei": 35122, 
  "specific@@": 76826, 
  "stark": 847, 
  "Raumordnung": 33541, 
  "chinesische": 4309, 
  "viktori@@": 44387, 
  "Check-In": 35123, 
  "stars": 25960, 
  "Stick@@": 25453, 
  "Piave": 55311, 
  "Preman@@": 61896, 
  "eingegebenen": 32461, 
  "büh@@": 45162, 
  "kurzfristiger": 37868, 
  "shower": 71649, 
  "kunft@@": 33078, 
  "tha@@": 63117, 
  "OF@@": 52312, 
  "Euroland": 61089, 
  "livi@@": 59437, 
  "fünf": 743, 
  "Eingabe": 8734, 
  "zei@@": 7102, 
  "Zertifikat": 10225, 
  "know-how": 68854, 
  "igen": 3414, 
  "gesteuer@@": 46159, 
  "podcast": 79189, 
  "kurzfristigen": 11069, 
  "Original": 7712, 
  "Kennzeichnung": 5237, 
  "fraud": 76082, 
  "Verfolgung": 5361, 
  "embedded": 59105, 
  "default": 55787, 
  "äki": 60088, 
  "ΕU": 79190, 
  "Verhaltenskodi@@": 75413, 
  "Belarusian": 80122, 
  "Nieren": 42397, 
  "Aufbewahrung": 22839, 
  "tiv@@": 7055, 
  "belieb@@": 53618, 
  "az.org": 59367, 
  "uch@@": 38691, 
  "Konzernen": 29106, 
  "ungssysteme": 27789, 
  "Arktis": 19759, 
  "Charles": 8336, 
  "vierter": 31493, 
  "600": 3869, 
  "transporters": 73922, 
  "FER@@": 37264, 
  "ho@@": 4301, 
  "stress@@": 46266, 
  "Übel@@": 25606, 
  "unternehmens@@": 24712, 
  "lower@@": 72128, 
  "Vertrau@@": 26329, 
  "ox@@": 16981, 
  "Lieferumfang": 24886, 
  "Ferdinand": 33417, 
  "60.": 32559, 
  "hr@@": 5576, 
  "Magen": 34953, 
  "Erfindung": 12348, 
  "erfolgreich": 1091, 
  "Annex": 65278, 
  "riesig": 37411, 
  "Kofinanzierung": 12221, 
  "einst@@": 19467, 
  "zoll@@": 20106, 
  "Rechnung": 1749, 
  "terminating": 81368, 
  "Chur": 57395, 
  "Bekannte": 43465, 
  "Smi@@": 58534, 
  "Erk@@": 42560, 
  "Gremiums": 34766, 
  "vereto": 60089, 
  "aufführung": 58363, 
  "Engine": 11823, 
  "Sauerstoff": 24861, 
  "ద@@": 81094, 
  "nummern": 15572, 
  "60s": 72511, 
  "Porträt": 38617, 
  "stationen": 11364, 
  "sky@@": 47156, 
  "Installationsprogramm": 33176, 
  "Chá@@": 69900, 
  "Kinderarbeit": 17001, 
  "Minsk": 27225, 
  "registry": 77407, 
  "Entry": 52444, 
  "gefälschten": 28964, 
  "fliegen": 6362, 
  "pool": 10043, 
  "verweist": 8116, 
  "Cascais": 63713, 
  "witsch": 35852, 
  "urgie": 52027, 
  "studio": 19315, 
  "Zeitraums": 13381, 
  "dünne": 30752, 
  "Kultur@@": 1667, 
  "Bru": 74837, 
  "Finanzsystems": 20824, 
  "brochen": 61511, 
  "Energiear@@": 45620, 
  "Anast@@": 68045, 
  "sender@@": 53909, 
  "Plugin": 8925, 
  "Interviews": 14250, 
  "durch@@": 1169, 
  "Zimmer-@@": 28677, 
  "dlichkeiten": 27068, 
  "overseas": 72512, 
  "Party@@": 23890, 
  "Aufbruch": 46267, 
  "Verkehr": 1876, 
  "990": 64200, 
  "Kuala": 37399, 
  "beschloss": 13780, 
  "AU@@": 10641, 
  "änderte": 19125, 
  "Energieeinsparung": 27623, 
  "Stabilitätsmechanismus": 36426, 
  "Soldaten": 4877, 
  "eholders": 72831, 
  "Verhofstadt": 25922, 
  "ги@@": 52789, 
  "metal-@@": 77831, 
  "month": 72832, 
  "wachsenden": 3616, 
  "espiel": 43114, 
  "Neuordnung": 33542, 
  "Professional": 10947, 
  "religious": 81373, 
  "etik@@": 30338, 
  "leite": 54809, 
  "Pflanzenarten": 27456, 
  "fehlt": 3037, 
  "verfügbare": 12137, 
  "Rik@@": 57633, 
  "orische": 23060, 
  "corps": 64500, 
  "Renaissance": 13621, 
  "ه@@": 65855, 
  "zynisch": 37713, 
  "Compet@@": 77833, 
  "freiheiten": 47825, 
  "Pakets": 9960, 
  "Rit@@": 23812, 
  "schrittweisen": 20418, 
  "verweise": 13753, 
  "Pakete": 3172, 
  "volunteer": 77834, 
  "ektions@@": 26820, 
  "oss": 52629, 
  "Inhaftierung": 18173, 
  "Stämmen": 49526, 
  "Dir@@": 36102, 
  "Ghetto": 52287, 
  "20.000": 16039, 
  "ो@@": 79193, 
  "Wiederverkäufer": 50048, 
  "horror": 75416, 
  "Pyth@@": 54684, 
  "solidarische": 41352, 
  "Recru@@": 59921, 
  "26@@": 15833, 
  "fassa@@": 58028, 
  "ziele": 4794, 
  "Cappato": 42199, 
  "decide": 81375, 
  "liges": 11824, 
  "beruhenden": 25019, 
  "ַ@@": 79194, 
  "Service@@": 8377, 
  "Obamas": 16971, 
  "Selb@@": 25903, 
  "Missverständnis": 27449, 
  "Retiro": 62298, 
  "fertigung": 14128, 
  "tivi@@": 28022, 
  "Korruption": 3303, 
  "Stoffes": 48784, 
  "irl@@": 71903, 
  "ausgeschlossen": 2699, 
  "zuzuwenden": 40821, 
  "Canary": 63118, 
  "anzusiedeln": 45622, 
  "evolent": 80137, 
  "Realitäts@@": 43649, 
  "Steuereinnahmen": 21921, 
  "es.com": 42008, 
  "indem@@": 75417, 
  "ồ@@": 76083, 
  "anan": 64515, 
  "Stoffen": 9045, 
  "Hobby@@": 22824, 
  "herum@@": 9952, 
  "Mariah@@": 74339, 
  "Benutzung": 4097, 
  "Algh@@": 77292, 
  "Produkt-": 16097, 
  "Gewässern": 9110, 
  "atore": 66127, 
  "Balkon": 3098, 
  "GUE": 9237, 
  "diment": 69791, 
  "atori": 60886, 
  "Entle@@": 54621, 
  "GUI": 31205, 
  "streets": 79195, 
  "Kolleg@@": 34851, 
  "Binnenmarktes": 3608, 
  "osexu@@": 60090, 
  "GUS": 53156, 
  "Films": 13596, 
  "ators": 10426, 
  "陶@@": 83192, 
  "atory": 62512, 
  "Mangels": 17555, 
  "ar@@": 796, 
  "inert": 73920, 
  "ails": 41165, 
  "Dienstleistungsrichtlinie": 9325, 
  "Patient": 16513, 
  "Mash@@": 64652, 
  "rustik@@": 25356, 
  "infiziert": 21334, 
  "investing": 79196, 
  "mathematischen": 31466, 
  "sachdien@@": 51093, 
  "Lösungs@@": 11879, 
  "führende": 2804, 
  "Elo@@": 54558, 
  "Black@@": 16036, 
  "Camaiore": 60448, 
  "Fingerab@@": 43364, 
  "learned": 76085, 
  "Bildverarbeitungs@@": 39527, 
  "asy": 71974, 
  "Herbst@@": 20470, 
  "Plaza": 5388, 
  "zeichn@@": 31797, 
  "oti@@": 11209, 
  "wettbewer@@": 24646, 
  "Nachbar@@": 10355, 
  "kontinuierlich": 5648, 
  "Produkte": 366, 
  "Reiseziele": 39670, 
  "ballet": 74838, 
  "Bekanntschaft": 51779, 
  "tracks": 57714, 
  "uneven": 81379, 
  "Arabisch": 40996, 
  "utz@@": 12208, 
  "baller": 58029, 
  "Design-@@": 17628, 
  "Produkts": 11171, 
  "subscri@@": 73510, 
  "tismus": 27856, 
  "Espanya": 63155, 
  "šek": 58030, 
  "Biom@@": 21779, 
  "Doll": 45623, 
  "produkts": 34285, 
  "iness": 64749, 
  "losses": 67263, 
  "Ter@@": 6598, 
  "asa": 28112, 
  "Messe@@": 17605, 
  "golfers": 80056, 
  "enstrah@@": 54559, 
  "Führerschein": 20186, 
  "advertising": 71650, 
  "Nev@@": 37475, 
  "Treff@@": 33633, 
  "seriös": 35691, 
  "legen@@": 36626, 
  "Nec@@": 65629, 
  "Joan": 36750, 
  "freelance": 76904, 
  "Grausamkeiten": 44961, 
  "image@@": 65279, 
  "Erweiterungsprozesses": 37265, 
  "forderte": 7707, 
  "drück@@": 20713, 
  "S1": 59718, 
  "S7": 45020, 
  "S5": 60887, 
  "schmu@@": 37132, 
  "Okin@@": 71033, 
  "qu@@": 3398, 
  "onalen": 50535, 
  "S.": 5217, 
  "S-": 44577, 
  "merchants": 80562, 
  "zunutze": 24024, 
  "Tav@@": 44389, 
  "crater": 81381, 
  "aufgibt": 46491, 
  "gebiets": 12021, 
  "Kreditkarte": 3829, 
  "Gas@@": 3139, 
  "fahrungen": 37551, 
  "Bildhau@@": 30174, 
  "ifications": 81382, 
  "verkün@@": 49803, 
  "letztens": 44921, 
  "card@@": 67278, 
  "Olivenöl": 11910, 
  "wöchentliche": 32057, 
  "Editoren": 51780, 
  "streiten": 14848, 
  "TRADOS": 58574, 
  "gebiete": 3276, 
  "Connor": 61897, 
  "basi": 76162, 
  "Visier": 31389, 
  "Intellec@@": 78595, 
  "entgegengesetzten": 45831, 
  "Raster": 37552, 
  "instruc@@": 75601, 
  "schwer@@": 9699, 
  "Limits": 53284, 
  "5-Sterne": 45832, 
  "dion": 66128, 
  "Sp": 59207, 
  "abzuschwächen": 49016, 
  "Su": 60888, 
  "St": 14392, 
  "Them@@": 17912, 
  "Banking": 20760, 
  "gigantischen": 30252, 
  "So": 21837, 
  "Europol": 6675, 
  "Fischfang@@": 36515, 
  "serbische": 21538, 
  "7000": 35988, 
  "ziel@@": 7517, 
  "blut@@": 20457, 
  "krimin@@": 16650, 
  "IU@@": 44118, 
  "Browser": 3864, 
  "lamp@@": 64516, 
  "beruhig@@": 45021, 
  "örtlichen": 6126, 
  "sorgsam": 33291, 
  "imperialistischen": 21922, 
  "forst@@": 20872, 
  "SS": 14588, 
  "SR": 46669, 
  "Fünf": 54560, 
  "SP": 26712, 
  "SW": 46670, 
  "SV": 5740, 
  "psychischen": 18480, 
  "ST": 19520, 
  "SK": 9505, 
  "aufzurufen": 23753, 
  "SI": 31295, 
  "bekämpft": 7890, 
  "SO": 27226, 
  "budgets": 31798, 
  "SM": 42561, 
  "SL": 12849, 
  "SC": 22747, 
  "Umweltkatastrophe": 44791, 
  "SA": 9454, 
  "Straßen": 2784, 
  "SG": 51025, 
  "SF": 28410, 
  "SE": 11406, 
  "SD": 18399, 
  "Widerruf": 41372, 
  "pri@@": 9991, 
  "IBM": 10941, 
  "Auss@@": 51026, 
  "747": 57715, 
  "IBA": 57553, 
  "IBB": 68370, 
  "Sn@@": 28589, 
  "endlosen": 23754, 
  "ACTA": 41677, 
  "Vorfahren": 18201, 
  "Jungfrau@@": 53708, 
  "downloading": 78627, 
  "widersprüchlich": 24812, 
  "Intensivierung": 15696, 
  "phrase": 73924, 
  "arti@@": 32085, 
  "ausgewiesen": 14376, 
  "Kampf@@": 8065, 
  "Guatem@@": 62299, 
  "Counter-@@": 68139, 
  "Einbruch": 26261, 
  "bürokratischen": 12800, 
  "Mindestaufenthalt": 40086, 
  "Opening": 67872, 
  "römische": 15762, 
  "abgegebene": 47082, 
  "extremistische": 41310, 
  "Lieferkette": 33849, 
  "undenkbar": 21053, 
  "Falk": 60282, 
  "weiche": 16738, 
  "Denkm@@": 69361, 
  "Fall": 234, 
  "unglaubliche": 16506, 
  "bürokratischer": 36516, 
  "vorhersehbar": 25840, 
  "assimil@@": 74840, 
  "Colleg@@": 52231, 
  "ieder@@": 27909, 
  "Television": 56639, 
  "esysteme": 46871, 
  "communicating": 81387, 
  "verantwortungsbewusste": 29548, 
  "9001": 10361, 
  "Industriezweig": 38159, 
  "Sni@@": 39671, 
  "volks@@": 17440, 
  "Emirates": 57396, 
  "Wüsten@@": 26078, 
  "scout24.@@": 79201, 
  "horizontal": 30084, 
  "choice": 69187, 
  "stein@@": 6024, 
  "Meditation": 26507, 
  "runden": 7342, 
  "Juschtschenko": 46872, 
  "umsetzen": 3725, 
  "UDP": 59368, 
  "glaubwürdige": 20148, 
  "Sofort@@": 25662, 
  "Mexico": 27473, 
  "high-precision": 84794, 
  "SG@@": 26722, 
  "unterhalb": 7110, 
  "anytime": 79203, 
  "Erwäh@@": 60719, 
  "verteidigt": 9046, 
  "entfernt": 317, 
  "Gerichten": 5881, 
  "Kohlenwasser@@": 30811, 
  "Nachmittag": 5213, 
  "Ausschreibungen": 16672, 
  "Marathon": 23342, 
  "pflichtigen": 32813, 
  "aufbauend": 28634, 
  "exempl@@": 42093, 
  "remnants": 81389, 
  "sha@@": 22960, 
  "Aufforderungen": 35373, 
  "stays": 81332, 
  "Rechtsordnung": 18223, 
  "verbundener": 49280, 
  "widersprechen": 10975, 
  "physisch": 30085, 
  "thermal": 71902, 
  "uung": 23891, 
  "Präsentationen": 11866, 
  "Istanbul": 11731, 
  "Atlas": 30175, 
  "leichte": 5051, 
  "Ärmsten": 20487, 
  "GAP": 4915, 
  "mim@@": 53780, 
  "Hotell@@": 53412, 
  "Ausgangs@@": 8426, 
  "Konsolidi@@": 45206, 
  "systeme": 1674, 
  "His@@": 26523, 
  "Universität": 1869, 
  "Koalition": 9989, 
  "Logon": 48572, 
  "Märkten": 3522, 
  "man-@@": 29549, 
  "meinung": 47827, 
  "Nasen@@": 35753, 
  "Consultant": 56691, 
  "Ägyp@@": 48280, 
  "systems": 2201, 
  "Asset": 18168, 
  "mühsam": 26914, 
  "ehesten": 28762, 
  "Dirig@@": 59922, 
  "ced": 66502, 
  "trotz@@": 40299, 
  "Progressiven": 31544, 
  "nehmer": 17724, 
  "streng": 5499, 
  "Früh@@": 10191, 
  "cen": 32463, 
  "gebogen": 54562, 
  "cel": 63120, 
  "疆@@": 81927, 
  "Bournemouth": 59923, 
  "BG": 17598, 
  "FAM@@": 61513, 
  "MAN": 24212, 
  "Protag@@": 46269, 
  "ces": 19876, 
  "cer": 66378, 
  "nachgekommen": 20458, 
  "Geschäftsordnungs@@": 30612, 
  "ängt": 38981, 
  "Tosc@@": 60494, 
  "Night@@": 35854, 
  "faire": 7998, 
  "Creutz@@": 69034, 
  "Anhaltsp@@": 49840, 
  "therapists": 83102, 
  "Mindeststandards": 20039, 
  "fairs": 75419, 
  "hochqualifizierte": 29801, 
  "unklar": 11514, 
  "bé@@": 62484, 
  "Kontinu@@": 50209, 
  "definieren": 4429, 
  "Flash@@": 22439, 
  "stilis@@": 23015, 
  "teilnehmenden": 9186, 
  "fügte": 20187, 
  "1873": 54406, 
  "barrels": 81394, 
  "Tätigkeiten": 3490, 
  "kritischen": 5332, 
  "Stockhausen": 56484, 
  "Östliche": 43466, 
  "LO@@": 11335, 
  "Zusammenkünfte": 39201, 
  "1871": 49592, 
  "BA": 14190, 
  "Week@@": 65204, 
  "Umsetz@@": 27925, 
  "BSE@@": 52051, 
  "artikulieren": 45428, 
  "Andal@@": 53352, 
  "punitive": 77836, 
  "künstlerische": 11381, 
  "Mittelalter": 11211, 
  "KSM": 61623, 
  "befäh@@": 65143, 
  "Lu@@": 4497, 
  "kritischer": 17656, 
  "Glüh@@": 32207, 
  "vil@@": 16470, 
  "Ey@@": 29269, 
  "esen@@": 27945, 
  "OSZ@@": 71904, 
  "makroökonomische": 17227, 
  "Mas@@": 5589, 
  "Oberland": 53770, 
  "Marmor@@": 15060, 
  "Dingen": 4072, 
  "Küstenstreifen": 48807, 
  "Ef@@": 49017, 
  "7": 723, 
  "Ungarns": 22106, 
  "änge": 9584, 
  "ador@@": 66321, 
  "vorteilhaft": 14199, 
  "thou@@": 69973, 
  "Town": 28297, 
  "flieger": 52668, 
  "mei@@": 15109, 
  "zurückbleibt": 51176, 
  "sphär@@": 35244, 
  "Dieselkraft@@": 44579, 
  "Buchstabe": 15088, 
  "UNIT@@": 62357, 
  "BC": 22540, 
  "betreffende": 9177, 
  "individuell": 3246, 
  "Vallelersundi": 56314, 
  "Korn@@": 22424, 
  "schulungen": 44587, 
  "ˇ@@": 79205, 
  "Natura": 18617, 
  "Priv@@": 25357, 
  "cac@@": 68525, 
  "Curricul@@": 56797, 
  "黮@@": 81397, 
  "phy@@": 33635, 
  "oli@@": 22905, 
  "ज@@": 83827, 
  "Weiterentwicklungen": 47083, 
  "gerufenen": 32561, 
  "Schadener@@": 73101, 
  "ese-@@": 66129, 
  "Brot": 10670, 
  "aschen": 48527, 
  "Nature": 37134, 
  "黡@@": 79207, 
  "Accession": 81398, 
  "evision": 68046, 
  "Tai": 61898, 
  "Juniliste": 25918, 
  "american": 71170, 
  "򮮥": 82178, 
  "sichern": 2003, 
  "Brok": 10803, 
  "Passi@@": 53781, 
  "Brod": 61705, 
  "ов@@": 16582, 
  "Cast@@": 17337, 
  "gereicht": 15261, 
  "Vorbild": 7158, 
  "Samba": 41335, 
  "Strukturfonds": 2616, 
  "Handel": 891, 
  "inter-@@": 64347, 
  "reizvolle": 20944, 
  "warte": 23016, 
  "Unternehmenskultur": 33543, 
  "patriarch@@": 57088, 
  "Businesscenter": 12461, 
  "zili@@": 70292, 
  "Principles": 69867, 
  "Intranet": 34653, 
  "IS-@@": 17031, 
  "condition@@": 78061, 
  "Modalitäten": 14225, 
  "herausgearbeitet": 36379, 
  "ecommerce": 77837, 
  "Git@@": 41336, 
  "Autor": 5053, 
  "Riker": 29154, 
  "Geschmack@@": 37553, 
  "Klar@@": 26452, 
  "räumt": 21589, 
  "Sozialdumping": 21493, 
  "leservice": 67175, 
  "ة@@": 77838, 
  "Olympus": 10557, 
  "effekts": 49293, 
  "anziehen": 28443, 
  "korrek@@": 34464, 
  "station": 6403, 
  "funktionieren": 2625, 
  "Südost@@": 31591, 
  "wußten": 39226, 
  "Malware": 16514, 
  "Assu@@": 65630, 
  "hundred": 80192, 
  "返": 81400, 
  "Gebote": 16139, 
  "Tauf@@": 33023, 
  "trapped": 83254, 
  "Verkün@@": 44792, 
  "reichenden": 25358, 
  "Rechten": 3825, 
  "besei@@": 55644, 
  "1919": 25995, 
  "1918": 22705, 
  "asco": 61090, 
  "promp@@": 54754, 
  "Rußlands": 29599, 
  "EM@@": 5985, 
  "1911": 30701, 
  "aufwand": 10110, 
  "tive": 7401, 
  "beg@@": 7205, 
  "1915": 35374, 
  "1914": 25742, 
  "1917": 26524, 
  "1916": 42671, 
  "poor@@": 72199, 
  "oligo@@": 67020, 
  "≪": 71745, 
  "Residenz": 11442, 
  "gres": 40371, 
  "Zufriedenheit": 6319, 
  "Puer@@": 66895, 
  "Abfolge": 31981, 
  "beh@@": 9081, 
  "Regeneration": 27474, 
  "≠": 81402, 
  "pa@@": 8847, 
  "Bedürfnis": 12395, 
  "gree": 70293, 
  "pflichten": 33079, 
  "deutlichere": 47084, 
  "verdienst@@": 39202, 
  "ґ": 84663, 
  "Spring": 32086, 
  "Zentralregierung": 30532, 
  "gren": 53158, 
  "toward": 81403, 
  "tritt@@": 24578, 
  "grei": 79209, 
  "tri@@": 4817, 
  "Communities": 46271, 
  "ahnhof": 43467, 
  "ücken": 16707, 
  "in-": 21392, 
  "880": 59532, 
  "ichtlin@@": 43296, 
  "Zeitrahmen": 22041, 
  "contraception": 81405, 
  "oppon@@": 64517, 
  "welen": 58034, 
  "restauriert": 14065, 
  "organe": 16401, 
  "Arbeitszeitverkürzung": 48281, 
  "SAR@@": 40909, 
  "Late": 69188, 
  "fehler": 8285, 
  "Window": 42758, 
  "kennzeichnung": 34194, 
  "Durst": 42200, 
  "spannungs@@": 22059, 
  "null": 18868, 
  "organs": 54810, 
  "Konfli@@": 83389, 
  "Grenzregionen": 23801, 
  "apologi@@": 83326, 
  "ausgewogener": 19029, 
  "ausgewogenes": 14042, 
  "qualitativ": 3850, 
  "opt-in": 69362, 
  "Price": 55364, 
  "euch": 1439, 
  "REACH": 15806, 
  "otom@@": 56485, 
  "Bearbeitung": 4048, 
  "Produktionsprozess": 33177, 
  "-Log@@": 26384, 
  "aBDE": 60284, 
  "offensicht@@": 42945, 
  "archa@@": 45429, 
  "Schlüsselelement": 33851, 
  "arkt": 16580, 
  "Solar": 21461, 
  "läufiger": 34287, 
  "ausgewogenen": 6480, 
  "Herausgabe": 28913, 
  "organischen": 18596, 
  "Kontos": 23706, 
  "verschuldet": 39359, 
  "Bau@@": 1232, 
  "sektor": 2619, 
  "Widerstands": 22337, 
  "multilingual": 71905, 
  "Vorsch@@": 11564, 
  "Musikern": 23160, 
  "port-@@": 32361, 
  "Chief": 14356, 
  "aires": 55645, 
  "Sitges": 44390, 
  "Hague": 63911, 
  "organischer": 43650, 
  "fachliche": 19397, 
  "Vatikan": 32269, 
  "bzw": 35855, 
  "enswerter": 25543, 
  "enswertes": 22877, 
  "König@@": 9092, 
  "Viewer": 21724, 
  "Abschlus@@": 25663, 
  "fizierter": 34288, 
  "wind-@@": 73130, 
  "asters": 64077, 
  "einzuwenden": 35375, 
  "27.@@": 22501, 
  "astern": 64771, 
  "Boll@@": 31390, 
  "ablanca": 73035, 
  "Werte": 1128, 
  "angesch@@": 22000, 
  "Vorausschau": 3634, 
  "enswerten": 14809, 
  "Individuums": 38913, 
  "Venture": 22472, 
  "Bedingungen": 493, 
  "weht": 31982, 
  "Erfolg": 634, 
  "NES@@": 55646, 
  "Beauftragten": 29194, 
  "wehr": 49806, 
  "Verbün@@": 63891, 
  "resol@@": 56937, 
  "Nachfra@@": 30530, 
  "ütz@@": 22552, 
  "Kreatur@@": 35588, 
  "erwachsen@@": 65631, 
  "atisches": 19333, 
  "atischer": 17236, 
  "jung@@": 38914, 
  "eering": 75782, 
  "Rez@@": 25309, 
  "Inhaltes": 51003, 
  "fälschlicherweise": 24139, 
  "nehme": 4988, 
  "Fic@@": 43200, 
  "justice": 71172, 
  "Cai@@": 57287, 
  "schlugen": 30107, 
  "smechan@@": 68526, 
  "Cruz": 17188, 
  "French": 59721, 
  "EU-Mitgliedstaat": 35026, 
  "sym@@": 59119, 
  "existierenden": 10405, 
  "quer": 12396, 
  "einkommen": 13915, 
  "abend": 5116, 
  "entren@@": 81410, 
  "ckte": 27313, 
  "bungs@@": 28114, 
  "Plantagen": 49807, 
  "US-Bundes@@": 33741, 
  "Michelle": 59035, 
  "Klonens": 51028, 
  "us@@": 1741, 
  "bereiches": 22228, 
  "Empfehlungen": 1932, 
  "Casaca": 44391, 
  "beeindruckenden": 9770, 
  "Fahrzeug": 5435, 
  "Greco": 61284, 
  "bereichen": 4490, 
  "strum": 50536, 
  "UNESCO-@@": 23397, 
  "combinations": 81411, 
  "Maxime": 40822, 
  "alledem": 30443, 
  "Empfänge": 45022, 
  "konzert": 25577, 
  "vings": 74842, 
  "erbaute": 15763, 
  "煮@@": 83429, 
  "Themen": 766, 
  "ränktes": 40635, 
  "winkeln": 50049, 
  "beruhigen": 13655, 
  "ränkten": 52471, 
  "Schwangerschaft": 15956, 
  "Zentralheizung": 26259, 
  "Weizen@@": 46054, 
  "Afrika-@@": 28115, 
  "konzern": 28489, 
  "Haftbefehl": 13181, 
  "Nissan": 56149, 
  "obi@@": 58703, 
  "sto": 44965, 
  "Paradox": 46055, 
  "Essentials": 63784, 
  "prim@@": 21590, 
  "éon": 52472, 
  "locale": 66254, 
  "Nahrung": 9573, 
  "Mutter@@": 9112, 
  "kitesur@@": 73159, 
  "France": 10445, 
  "Olivenha@@": 34507, 
  "culture": 67176, 
  "面": 81413, 
  "errichteten": 21873, 
  "aufsichtsbehörde": 30395, 
  "Mama": 52053, 
  "aufzufordern": 12902, 
  "n-@@": 13146, 
  "gebrauchte": 26929, 
  "Lösung": 359, 
  "kunft": 29730, 
  "Werkzeu@@": 31495, 
  "berechtigt": 2881, 
  "Ser@@": 5680, 
  "englische": 7986, 
  "erfolg": 31149, 
  "Iraker": 30988, 
  "utopia": 77673, 
  "opped": 76831, 
  "Geschäftsverkehrs": 45023, 
  "FACULTAD": 61900, 
  "Juden@@": 53002, 
  "tolle": 7624, 
  "feststellte": 23507, 
  "oppen": 35312, 
  "dein": 5954, 
  "Eingreifen": 12447, 
  "order@@": 54685, 
  "stagnation": 73926, 
  "Isabella": 62513, 
  "Stückchen": 45834, 
  "jeden": 419, 
  "jedem": 605, 
  "missing": 73161, 
  "wai@@": 62514, 
  "hierdurch": 14057, 
  "sts": 18084, 
  "Überlieferung": 40997, 
  "vielseitig": 18780, 
  "spray": 64348, 
  "spirale": 46185, 
  "Abhol@@": 31472, 
  "jedes": 504, 
  "jeder": 303, 
  "einzelstaatlichen": 6757, 
  "zipper": 69901, 
  "Gregor": 56450, 
  "turbin@@": 54037, 
  "asser@@": 25961, 
  "Erdbeben": 8548, 
  "77@@": 29458, 
  "glied": 58035, 
  "verbietet": 15471, 
  "urbanisation": 84912, 
  "CE-Kennzeichnung": 49018, 
  "minorities": 80235, 
  "Steve": 22377, 
  "Provinzen": 13063, 
  "Hamp@@": 56640, 
  "subsidiar@@": 76832, 
  "assem@@": 68047, 
  "ausschalten": 28993, 
  "Napo@@": 62746, 
  "Handlungsbedarf": 19531, 
  "experimental": 68547, 
  "counsel@@": 81415, 
  "Absenden": 41747, 
  "fenen": 55907, 
  "Veredel@@": 33125, 
  "Entwicklungspolitik": 7875, 
  "Quästoren": 31090, 
  "SIN@@": 45207, 
  "hn@@": 21727, 
  "WARR@@": 81416, 
  "gro@@": 6788, 
  "Datei": 1270, 
  "Booger@@": 75147, 
  "Beschränkungen": 4986, 
  "Abra@@": 57559, 
  "Absender": 26930, 
  "Abonnement": 15791, 
  "indik@@": 37714, 
  "etage": 52510, 
  "289": 62940, 
  "ou@@": 4167, 
  "zurückzieht": 49334, 
  "Pain@@": 33742, 
  "ereign@@": 31688, 
  "schwerwiegenden": 12921, 
  "Mumbai": 43985, 
  "lier@@": 14383, 
  "schwieriger": 5468, 
  "benutzerdefinierte": 38915, 
  "gile": 67513, 
  "Protection": 33178, 
  "Portal": 6127, 
  "schwerwiegender": 30444, 
  "ppchen": 25962, 
  "ebel@@": 40300, 
  "fession": 62108, 
  "Gott": 2334, 
  "Tunn@@": 56042, 
  "indonesischen": 27314, 
  "appetiz@@": 73512, 
  "wohlhabende": 42946, 
  "EST@@": 24816, 
  "Sternenfl@@": 70295, 
  "hilfsberei@@": 68855, 
  "Thematik": 10497, 
  "ada": 6707, 
  "Wegbereiter": 48283, 
  "modelling": 83479, 
  "N": 3505, 
  "Switch": 51783, 
  "Pico": 56963, 
  "lives": 75421, 
  "liver": 69990, 
  "Pick": 62844, 
  "Hassan": 56315, 
  "BAL@@": 61091, 
  "affirmative": 74468, 
  "Naturlandschaft": 30911, 
  "richten": 2366, 
  "Sinnes@@": 37441, 
  "stagniert": 51538, 
  "Congol@@": 83355, 
  "interaktive": 13417, 
  "ausgaben": 7241, 
  "ved@@": 58036, 
  "Nach": 10767, 
  "Fachleuten": 13835, 
  "Hallenbad": 18842, 
  "müsse": 7013, 
  "peti@@": 37715, 
  "Degu@@": 53971, 
  "Maus@@": 20573, 
  "pace": 81671, 
  "tionen": 4225, 
  "287": 58854, 
  "Bewirtschaf@@": 71632, 
  "DHCP": 54109, 
  "richtet": 3710, 
  "adi": 33950, 
  "richter": 18380, 
  "guide": 51539, 
  "pack": 36870, 
  "LEDs": 32725, 
  "geheimen": 16204, 
  "dol@@": 20459, 
  "ël": 45208, 
  "00h": 51029, 
  "Privath@@": 23017, 
  "00m": 57554, 
  "00s": 81417, 
  "Äthiop@@": 53626, 
  "Papayannakis": 45624, 
  "Absatzes": 37869, 
  "Rotarier": 18174, 
  "verursachten": 8854, 
  "payers": 81418, 
  "raffin@@": 23000, 
  "AG": 1121, 
  "einheitliche": 3594, 
  "einher@@": 25149, 
  "communal": 79215, 
  "Esther": 63331, 
  "sump@@": 64518, 
  "grant": 77352, 
  "Luke": 59533, 
  "Verheugen": 9335, 
  "Europäisierung": 51423, 
  "einschränkt": 31689, 
  "Luka": 54686, 
  "issi@@": 55729, 
  "muslimischen": 13267, 
  "Obergrenzen": 26147, 
  "Extraordinary": 74844, 
  "bik@@": 55227, 
  "egel@@": 8832, 
  "geographischen": 12053, 
  "Maske": 21755, 
  "throughput": 79216, 
  "gr@@": 4496, 
  "Reformprozesses": 47573, 
  "Faith": 67438, 
  "awar@@": 64281, 
  "liebhaber": 17556, 
  "Wochenend@@": 27315, 
  "hinab@@": 49808, 
  "U-Bahnstation": 17837, 
  "geschi@@": 68206, 
  "Gemeinschaftshaushalt": 14827, 
  "holte": 21591, 
  "verlässt": 13520, 
  "Frei@@": 2453, 
  "Movies": 53199, 
  "001": 32973, 
  "000": 1156, 
  "Recomm@@": 73162, 
  "erhebliche": 2998, 
  "zerin": 34999, 
  "Zakynthos": 59036, 
  "Sicherheitsrates": 15498, 
  "mobi": 70959, 
  "lib": 45566, 
  "Energieversorgung": 7078, 
  "ר@@": 69730, 
  "verursachte": 12022, 
  "Fan@@": 10009, 
  "-Skri@@": 31548, 
  "Mord@@": 32181, 
  "compilation": 78943, 
  "NBA": 56985, 
  "MX": 57337, 
  "Stabilitätspaktes": 37555, 
  "militär@@": 36011, 
  "ahnen": 16433, 
  "höher": 2658, 
  "bour@@": 42010, 
  "ос@@": 44794, 
  "Seehäfen": 41166, 
  "antine": 67709, 
  "Rechtsstatus": 48528, 
  "Ufer": 6449, 
  "lin": 13129, 
  "Kenntnis": 1477, 
  "Fas@@": 17077, 
  "Steuerzahler": 5538, 
  "lio": 13992, 
  "exploits": 81420, 
  "High": 8410, 
  "rechts": 1507, 
  "Finanzpolitik": 21732, 
  "nachfragen": 40823, 
  "technicians": 81421, 
  "Subvention@@": 67279, 
  "rechte": 2539, 
  "will@@": 29845, 
  "schriftlicher": 17189, 
  "ildert": 53422, 
  "wirklicher": 23200, 
  "Reconstruction": 72835, 
  "ersuchen": 7786, 
  "demag@@": 77845, 
  "makroökonomischen": 14091, 
  "hob@@": 69715, 
  "umps": 64468, 
  "Kaffee-": 36517, 
  "lit": 31952, 
  "Renn@@": 6288, 
  "PIM": 63241, 
  "PIN": 53003, 
  "Klaren": 8619, 
  "informal": 81422, 
  "Strandnähe": 46057, 
  "PIC": 58537, 
  "PID": 64079, 
  "sanft": 18504, 
  "shortcut": 81423, 
  "loqui@@": 53285, 
  "dies@@": 21756, 
  "Landschafts@@": 13285, 
  "Psy@@": 62747, 
  "Commodore": 42383, 
  "Berkeley": 36174, 
  "wy@@": 25904, 
  "terungs@@": 43651, 
  "Brig@@": 42562, 
  "Besitz": 4633, 
  "do-@@": 22643, 
  "Graphic": 63893, 
  "ight": 32087, 
  "beruhen": 5378, 
  "lika": 33529, 
  "capacities": 83516, 
  "showcases": 81640, 
  "rufe": 7751, 
  "toll@@": 53605, 
  "künftigen": 2591, 
  "esion": 78700, 
  "Usern": 30751, 
  "Diesel@@": 20233, 
  "kohärent": 22798, 
  "Marktseg@@": 46068, 
  "Antigua": 56641, 
  "danke": 1065, 
  "Madeleine": 48529, 
  "gbar": 50050, 
  "Byte": 25809, 
  "ruft": 8115, 
  "Auffassungen": 10684, 
  "Anschrift": 18103, 
  "Cancun": 39044, 
  "fahrenstechn@@": 69482, 
  "ASEAN-@@": 31384, 
  "Heim@@": 7618, 
  "engarten": 51784, 
  "ees": 23161, 
  "amon@@": 49407, 
  "eel": 42563, 
  "een": 8998, 
  "anony@@": 55909, 
  "fizierungen": 30253, 
  "taurant": 58538, 
  "ichtungs@@": 28023, 
  "astronom@@": 25529, 
  "Kaffees": 36380, 
  "Gebrauchs": 46876, 
  "pt@@": 16743, 
  "sketch": 79221, 
  "ungestraft": 29195, 
  "cones": 70296, 
  "älen": 24894, 
  "Geschäftsmann": 46493, 
  "Pattern": 64881, 
  "moo@@": 59371, 
  "Flächenstil@@": 46671, 
  "babwes": 79222, 
  "glav@@": 60475, 
  "Vorschläge": 495, 
  "Umweltbelastung": 29196, 
  "Zappalà": 61285, 
  "Promo@@": 15829, 
  "dnissen": 37717, 
  "Laos": 22502, 
  "Herrschaft": 6009, 
  "äler": 44026, 
  "mor@@": 6300, 
  "Butterfly": 65150, 
  "kodex": 25581, 
  "ѓ@@": 72828, 
  "Beschuldigungen": 52258, 
  "schön": 2480, 
  "AMA": 36242, 
  "AME": 52760, 
  "AMD": 40125, 
  "AMG": 62516, 
  "competitions": 77846, 
  "Verarbeitung": 3506, 
  "Davidson": 67561, 
  "quote": 8427, 
  "97@@": 46058, 
  "AMP": 57089, 
  "AMS": 57398, 
  "schriftlichen": 8444, 
  "shotels": 48044, 
  "straße": 4403, 
  "Antlitz": 27704, 
  "folios": 68207, 
  "spannenden": 16364, 
  "Bild": 783, 
  "Strategien": 2265, 
  "erzieh@@": 22204, 
  "mittelfristig": 14458, 
  "Shalit": 55366, 
  "negativen": 4063, 
  "Sicherheitsgur@@": 46877, 
  "Bill": 12338, 
  "Scherz": 51681, 
  "obst@@": 64873, 
  "Union-@@": 63660, 
  "negativer": 31296, 
  "negatives": 32182, 
  "stimmung": 22464, 
  "spannender": 45835, 
  "spannendes": 38618, 
  "Mekka": 35376, 
  "promenade": 20895, 
  "187@@": 56080, 
  "Kell@@": 19796, 
  "岩@@": 81427, 
  "langsamen": 21370, 
  "samkeiten": 60890, 
  "sive-@@": 59037, 
  "langsamer": 15937, 
  "Phänomene": 20340, 
  "ure@@": 26713, 
  "for@@": 5420, 
  "Spendern": 45209, 
  "Distanz": 14130, 
  "Fift@@": 77323, 
  "silence": 74343, 
  "führen": 324, 
  "efel@@": 25964, 
  "Geruchs@@": 50680, 
  "ichtern": 70716, 
  "auskennen": 50934, 
  "Baron": 37718, 
  "anzutreffen": 24083, 
  "vorzulegen": 3432, 
  "würdige": 14070, 
  "Staatlichen": 41167, 
  "Schütz@@": 27624, 
  "vereinbarung": 11212, 
  "Koalitions@@": 35563, 
  "Steh@@": 27790, 
  "Neuerungen": 11462, 
  "tzahl": 25253, 
  "Gershwin": 64349, 
  "würdigt": 40998, 
  "Tä": 78645, 
  "LIMIT@@": 68208, 
  "Arten": 1751, 
  "institut": 22602, 
  "Norman": 38007, 
  "Normal": 62301, 
  "tatsächliche": 7412, 
  "Steg@@": 55367, 
  "Überlegungen": 3259, 
  "Basilika": 19504, 
  "herb@@": 74344, 
  "getra@@": 54565, 
  "G8-Gipfel": 44732, 
  "Koch": 21494, 
  "Raums": 6003, 
  "sich": 29, 
  "Integration@@": 50283, 
  "Β@@": 72200, 
  "swi@@": 27227, 
  "ps@@": 38778, 
  "tes": 727, 
  "Comfort": 20149, 
  "ค": 84711, 
  "PvP-@@": 43575, 
  "komfortable": 3802, 
  "unberührter": 44028, 
  "eingef@@": 22503, 
  "konsolidierung": 55502, 
  "abstrakte": 35662, 
  "standardisierte": 26148, 
  "erlangen": 5147, 
  "arithme@@": 61901, 
  "Präsident": 97, 
  "tobel": 56656, 
  "BS@@": 10945, 
  "injection": 81428, 
  "öpf@@": 18822, 
  "Hob@@": 23860, 
  "nepo@@": 71907, 
  "SUN@@": 57399, 
  "zul@@": 28965, 
  "unberührten": 21943, 
  "hero@@": 43378, 
  "Lay@@": 22758, 
  "Fragestell@@": 54303, 
  "Beibehaltung": 8635, 
  "Textform": 43115, 
  "uer@@": 59256, 
  "verantwortliche": 15725, 
  "Rush@@": 60091, 
  "gerät": 3272, 
  "Laf@@": 56642, 
  "gefüllten": 46059, 
  "Sportanlagen": 41830, 
  "Kratsa-Tsagaropoulou": 57958, 
  "politik": 1104, 
  "skandalöse": 45431, 
  "Szen@@": 14503, 
  "assassin@@": 80299, 
  "Bap@@": 73327, 
  "Siam": 53910, 
  "acro@@": 53286, 
  "Tv": 60891, 
  "Asyl@@": 12397, 
  "auszeichnet": 17416, 
  "accessibility": 74967, 
  "Gerücht": 51275, 
  "Aviv": 31983, 
  "To": 21539, 
  "clean@@": 68017, 
  "Edward": 24241, 
  "dding": 61902, 
  "auszeichnen": 21112, 
  "Ti": 53495, 
  "evocative": 74753, 
  "PRIN@@": 56486, 
  "Redner": 3497, 
  "incen@@": 69363, 
  "Schwerpunkt": 2728, 
  "acceler@@": 79226, 
  "TX": 63029, 
  "TY": 64773, 
  "TV": 2503, 
  "thematisiert": 24466, 
  "TT": 47328, 
  "TU": 27705, 
  "TS": 12264, 
  "TP": 52633, 
  "Siddharta": 52869, 
  "ega-@@": 59038, 
  "TO": 21631, 
  "TL": 56578, 
  "TM": 21113, 
  "glichkeitsp@@": 65393, 
  "tlich": 9785, 
  "Werkzeuge": 5027, 
  "haft": 5409, 
  "TF": 56727, 
  "Versicherung": 9035, 
  "Jaz@@": 64882, 
  "TE": 11621, 
  "erholt": 22205, 
  "Hemm@@": 24140, 
  "TA": 16140, 
  "Customer": 27276, 
  "happens": 77847, 
  "Stanford": 51031, 
  "verfallen": 16751, 
  "23@@": 8826, 
  "wohl": 694, 
  "；": 81208, 
  "beschul@@": 52473, 
  "T1": 63121, 
  "T.": 15199, 
  "Menschenhandel": 7019, 
  "Keim@@": 44795, 
  "Überflut@@": 51032, 
  "leisten": 910, 
  "Schu@@": 12670, 
  "jed@@": 26588, 
  "）": 74904, 
  "＊": 81432, 
  "ausfüllen": 12813, 
  "，": 73514, 
  "－": 73929, 
  "．": 81433, 
  "gänger@@": 59722, 
  "ή@@": 56043, 
  "ausländische": 4874, 
  "e": 485, 
  "jurisprudence": 79229, 
  "Maßnahmenpaket": 23398, 
  "bchen": 31670, 
  "Nennung": 35721, 
  "consoles": 81080, 
  "iller@@": 39069, 
  "Per@@": 3066, 
  "frü": 80310, 
  "Kauppi": 40069, 
  "eville": 61709, 
  "lösen": 1318, 
  "hilosop@@": 66255, 
  "opp@@": 11026, 
  "dän@@": 34289, 
  "estnischen": 52054, 
  "Spezies": 17435, 
  "Ernährungssicherheit": 13182, 
  "Widerstandes": 45626, 
  "oberhalb": 10435, 
  "Tochter@@": 33080, 
  "zögerlich": 30812, 
  "Investitionsbank": 10525, 
  "Gourmet@@": 14430, 
  "Infrastruktur@@": 8946, 
  "standort": 17467, 
  "Novi@@": 60495, 
  "hinweisen": 1331, 
  "fol@@": 10261, 
  "schicht@@": 44392, 
  "two@@": 62942, 
  "compact": 69525, 
  "Beitritts@@": 5781, 
  "Non": 61092, 
  "ück": 18869, 
  "100@@": 13010, 
  "flü@@": 10019, 
  "Nog": 55639, 
  "Schadenersatz@@": 31208, 
  "Ritter@@": 37719, 
  "olische": 34878, 
  "Republiken": 35989, 
  "aussergewöhnliche": 39895, 
  "ereignet": 16724, 
  "Absichtserklärungen": 34062, 
  "Auszubildenden": 48095, 
  "lichkeit": 2335, 
  "Not": 8516, 
  "Nou": 55910, 
  "Nov": 53159, 
  "Now": 46398, 
  "ppeln": 43072, 
  "friendly": 70075, 
  "Nor": 56044, 
  "Regierung": 289, 
  "chts@@": 29033, 
  "Stress": 10759, 
  "les-@@": 55368, 
  "Komponisten": 13929, 
  "KM@@": 18870, 
  "luxuriösen": 10030, 
  "siebzig": 43833, 
  "Fachhochschule": 37674, 
  "spielerisch": 50537, 
  "ER-@@": 33419, 
  "pot@@": 18186, 
  "Solidarität": 1195, 
  "Infrastructure": 57523, 
  "luxuriöses": 29107, 
  "Großen": 5322, 
  "Berufen": 28024, 
  "subver@@": 70655, 
  "Absprachen": 27780, 
  "denomin@@": 69902, 
  "Acquisition": 67711, 
  "südafrikanischen": 30989, 
  "Embryo": 48785, 
  "Charlotte": 44234, 
  "ey-@@": 51033, 
  "zugesch@@": 27336, 
  "資": 81437, 
  "beliebt": 7206, 
  "Interessierte": 34767, 
  "positions": 67420, 
  "-Rück@@": 28172, 
  "invari@@": 69526, 
  "angriff": 26404, 
  "Saga": 50051, 
  "Monopo@@": 36627, 
  "sechs@@": 16346, 
  "standard@@": 20714, 
  "Aktivierungs@@": 32465, 
  "gekennzeichneten": 19126, 
  "Fürst": 36243, 
  "ausführt": 24949, 
  "enforce": 81439, 
  "Selbstmordattent@@": 31458, 
  "bean@@": 17692, 
  "Index": 7283, 
  "touristischen": 7935, 
  "formalen": 18748, 
  "Inder": 34167, 
  "Freiheits@@": 13394, 
  "Haartrockner": 11422, 
  "vas@@": 55229, 
  "jump": 74845, 
  "Camera": 45627, 
  "faßte": 45432, 
  "ò@@": 23131, 
  "Mod@@": 18416, 
  "touristischer": 50539, 
  "vince": 74019, 
  "Patch@@": 35856, 
  "einigt": 44580, 
  "pper@@": 41168, 
  "lück": 50052, 
  "Mönch": 36751, 
  "abläufe": 21632, 
  "neighbour@@": 74347, 
  "s-Ro@@": 76219, 
  "Geburtstag": 10693, 
  "legisl@@": 59723, 
  "Befürworter": 11077, 
  "einige": 157, 
  "Grid": 63036, 
  "Totalit@@": 70411, 
  "Etagen@@": 40472, 
  "troly@@": 55084, 
  "Î@@": 61120, 
  "stru@@": 12982, 
  "schätzen": 3680, 
  "agra@@": 52474, 
  "Steuer": 5746, 
  "Publisher": 30389, 
  "bi@@": 2792, 
  "Freigabe": 14659, 
  "anzukurbeln": 18224, 
  "raff@@": 54408, 
  "Ausbildung": 1430, 
  "fikationen": 27541, 
  "Wohnhäuser": 50053, 
  "verbleibt": 25608, 
  "budd@@": 70932, 
  "Kolonialzeit": 44751, 
  "verdeut@@": 66764, 
  "following": 77769, 
  "zügel@@": 42885, 
  "Fish@@": 48786, 
  "Schiedsrichter": 37200, 
  "signposted": 81441, 
  "glaubhaft": 35125, 
  "vereinbart": 3631, 
  "veranlasst": 10402, 
  "amtierende": 7888, 
  "Scen@@": 65144, 
  "convert": 72516, 
  "genz": 33420, 
  "entn@@": 62517, 
  "Palace": 7033, 
  "黒": 81442, 
  "Anwendungs@@": 5028, 
  "Fell@@": 40051, 
  "gent": 58858, 
  "net.@@": 61093, 
  "gens": 7079, 
  "berühm@@": 38315, 
  "sogar": 361, 
  "Enhes@@": 72839, 
  "Freier": 26827, 
  "bereichs@@": 43652, 
  "erwirtschaftet": 30005, 
  "Inhaber": 6627, 
  "gend": 6305, 
  "gene": 7635, 
  "körperliche": 12018, 
  "Constantin@@": 71408, 
  "patents": 76837, 
  "Tschetschenien": 8408, 
  "Myst@@": 41513, 
  "ء": 72431, 
  "airspace": 81444, 
  "Doctor": 52055, 
  "subsidi@@": 43394, 
  "Assistance": 64351, 
  "manage": 73163, 
  "Melan@@": 39672, 
  "Pionier": 28411, 
  "empfindliche": 24129, 
  "gut@@": 5894, 
  "erhoffen": 30340, 
  "sunn@@": 53004, 
  "Cornillet": 54945, 
  "wür@@": 6654, 
  "華@@": 81445, 
  "Zapp@@": 66429, 
  "Fribourg": 65513, 
  "konzentri@@": 33179, 
  "iration": 79231, 
  "aliforn@@": 61286, 
  "überwachung": 10712, 
  "Herunter@@": 52289, 
  "deskt@@": 70297, 
  "Reiseveranstalter": 23399, 
  "symbolische": 20107, 
  "Pau@@": 15026, 
  "tik": 3909, 
  "Unionsbürger": 12882, 
  "Bou@@": 10111, 
  "Amen@@": 65857, 
  "Steuerung": 3667, 
  "Wellness@@": 9120, 
  "formally": 81448, 
  "stätter": 64655, 
  "konkurri@@": 38160, 
  "Markus": 17468, 
  "advis@@": 72517, 
  "about": 58467, 
  "Jahrestag": 9066, 
  "charming": 79232, 
  "Dj@@": 35857, 
  "Direkt@@": 6938, 
  "Satzung": 17719, 
  "stätten": 10322, 
  "Run@@": 16651, 
  "weitergehende": 18940, 
  "erwähnenswert": 30990, 
  "resize": 74349, 
  "boards": 23528, 
  "fängt": 15983, 
  "Geschenke": 16299, 
  "ر": 59880, 
  "poin@@": 50540, 
  "Polyprop@@": 44611, 
  "е@@": 9108, 
  "lapse": 81449, 
  "eto@@": 60742, 
  "leitenden": 24713, 
  "gebührende": 25726, 
  "Schwar@@": 45024, 
  "fänge": 40479, 
  "easier": 79233, 
  "incremental": 77401, 
  "Birmingham": 23132, 
  "VIII": 33293, 
  "Caravan": 60620, 
  "Patientinnen": 45628, 
  "hinterfragen": 31373, 
  "ص": 83382, 
  "verfahrens": 6105, 
  "stiegs@@": 33294, 
  "All-In-One": 72203, 
  "Beschäftigten": 5930, 
  "fung@@": 55911, 
  "linkt": 72555, 
  "Israeli": 68209, 
  "Notfall@@": 14092, 
  "links": 1633, 
  "dokumentiert": 10610, 
  "Vortrag": 10942, 
  "Karriere": 6277, 
  "tseller": 74846, 
  "PayPal": 18212, 
  "entscheid": 41631, 
  "Nou@@": 39673, 
  "ations-": 14875, 
  "234": 56999, 
  "Mr.": 23839, 
  "pulling": 75179, 
  "ieves": 66896, 
  "getauscht": 27021, 
  "Israels": 6294, 
  "geziel@@": 38281, 
  "Giard@@": 72518, 
  "Reifen": 15715, 
  "Karos@@": 31690, 
  "Eindämmung": 14510, 
  "Apartament@@": 70076, 
  "auftaucht": 29108, 
  "bewach@@": 27395, 
  "Tsvangi@@": 63715, 
  "empfehlen": 1851, 
  "idemissionen": 66379, 
  "SCO@@": 56643, 
  "Böden": 15395, 
  "Beitritt@@": 29109, 
  "Wit@@": 15094, 
  "sentiments": 79274, 
  "genügt": 7289, 
  "verlor": 14630, 
  "Energief@@": 38487, 
  "Reservation": 42947, 
  "Gebäck": 26911, 
  "Beauty-@@": 47574, 
  "Lionel": 58539, 
  "Tha@@": 18258, 
  "wickelt": 34290, 
  "führ@@": 9827, 
  "Strategi@@": 39360, 
  "Bushill-@@": 77852, 
  "überdurchschnittlich": 40824, 
  "peeling": 67712, 
  "Direktion": 28412, 
  "ires": 37492, 
  "Erde": 2032, 
  "Mrs": 72236, 
  "wiederhol@@": 17765, 
  "politisch": 1987, 
  "Beitritts": 12339, 
  "Randzi@@": 72597, 
  "tland": 64883, 
  "Mrd": 29802, 
  "ired": 81453, 
  "EU-Erweiterung": 24867, 
  "merklich": 40473, 
  "eufer": 61904, 
  "angesichts": 578, 
  "hinauslaufen": 30086, 
  "ḷ": 82616, 
  "Umständen": 2205, 
  "gesetzgeberischen": 40636, 
  "sigen": 22868, 
  "streifen": 17085, 
  "flege": 30006, 
  "Arzneimittel@@": 14552, 
  "Guard": 38916, 
  "Arrangements": 21838, 
  "fill@@": 71798, 
  "siger": 53911, 
  "favourites": 77853, 
  "Versprechungen": 17361, 
  "gibts": 36032, 
  "akzeptierten": 27896, 
  "insofern": 3311, 
  "interruption": 80759, 
  "kursen": 20420, 
  "gratulieren": 2534, 
  "Verschuldung": 14800, 
  "Activ@@": 41632, 
  "fälle": 6789, 
  "Suanzes-Carpegna": 60722, 
  "vorgelegten": 4410, 
  "klassi@@": 14987, 
  "usch@@": 39783, 
  "krist@@": 45997, 
  "limit@@": 67686, 
  "mehrheit": 25021, 
  "Glasgo@@": 66256, 
  "ms@@": 17457, 
  "dorfer": 47829, 
  "costume": 79234, 
  "fällt": 1820, 
  "Ord@@": 21901, 
  "gion": 28718, 
  "pol@@": 6993, 
  "63@@": 50794, 
  "Nichteinhaltung": 18202, 
  "Distri@@": 24927, 
  "Vorfälle": 13534, 
  "sagen@@": 21371, 
  "freigegeben": 11433, 
  "asi@@": 6729, 
  "RAC": 63332, 
  "ourn@@": 67177, 
  "thank@@": 75424, 
  "RAL": 37870, 
  "RAM": 15895, 
  "objektiv": 10133, 
  "innovativsten": 35000, 
  "Jähr@@": 48286, 
  "RAI": 58135, 
  "RAW": 32974, 
  "nordöstlichen": 52056, 
  "ser@@": 1743, 
  "Genossen@@": 57716, 
  "Seri@@": 23460, 
  "backpackers": 79235, 
  "bin": 193, 
  "emark@@": 45375, 
  "Avail@@": 70480, 
  "asch@@": 20079, 
  "iertesten": 37267, 
  "-Station": 44581, 
  "sammelten": 56913, 
  "dź": 65146, 
  "articulation": 77855, 
  "frontal": 65514, 
  "klassischen": 3816, 
  "Kosmetik": 31887, 
  "progres@@": 31800, 
  "gewaltsam": 28333, 
  "ffle": 59039, 
  "wohnte": 24950, 
  "socks": 73516, 
  "Sohn@@": 72840, 
  "Eisenbahnverkehrs": 52280, 
  "gelt": 13446, 
  "Venus": 35325, 
  "Wörtern": 29906, 
  "Seminars": 44970, 
  "erleiden": 13953, 
  "instrumenten": 38316, 
  "projekte": 5006, 
  "kilometres": 81446, 
  "Layer": 24579, 
  "Products": 34064, 
  "laun@@": 53242, 
  "Tinten@@": 25091, 
  "INBEGRIFFEN": 39819, 
  "university": 74847, 
  "enk@@": 2246, 
  "bräuchten": 36995, 
  "Insi@@": 50285, 
  "projekts": 23061, 
  "taschen": 23634, 
  "TD@@": 47830, 
  "Käufer": 4271, 
  "erschwert": 10226, 
  "Statistics": 71908, 
  "attachments": 76078, 
  "ener@@": 22644, 
  "Schlach@@": 25198, 
  "Bertrand": 58364, 
  "Resolutionen": 18225, 
  "Karne@@": 44475, 
  "stigem": 59536, 
  "stigen": 19760, 
  "übertra@@": 49862, 
  "unterstützte": 9574, 
  "stiger": 63334, 
  "stiges": 34065, 
  "Tele@@": 29281, 
  "Dire@@": 65139, 
  "multiple-@@": 81460, 
  "transitions": 81461, 
  "Wettbewerbsvorteile": 32563, 
  "Gegenleistung": 17528, 
  "wartet": 5895, 
  "zione": 38317, 
  "CEE": 60094, 
  "zubehör": 27228, 
  "hervorragenden": 3650, 
  "sprinzip": 24356, 
  "Wol@@": 13483, 
  "CEO": 11496, 
  "bewegt": 4783, 
  "mazed@@": 42204, 
  "gelb": 22587, 
  "Anreize": 5288, 
  "thoch@@": 42184, 
  "gepackt": 35597, 
  "CET": 38009, 
  "CES": 64352, 
  "1.4@@": 55241, 
  "usability": 77856, 
  "hervorragender": 11655, 
  "hervorragendes": 14643, 
  "charakterisiert": 20188, 
  "termine": 31993, 
  "cause": 76092, 
  "exo@@": 64353, 
  "Brüdern": 27396, 
  "einsparungen": 50795, 
  "everhäl@@": 44348, 
  "interc@@": 80173, 
  "Fernseh-": 49339, 
  "mois@@": 81464, 
  "Gästeh@@": 55789, 
  "Hauptbahn@@": 40059, 
  "heirat@@": 36924, 
  "ế": 77338, 
  "daf@@": 53287, 
  "Europ@@": 8578, 
  "LAU@@": 58365, 
  "hihostels.com": 55369, 
  "Irr@@": 24300, 
  "Aurora": 49471, 
  "facetten@@": 39361, 
  "heime": 35494, 
  "kommunale": 31091, 
  "Barceloneta": 56168, 
  "demjenigen": 43946, 
  "Blasen": 30535, 
  "Vilam@@": 75342, 
  "Vorschrift": 14283, 
  "bestmögliche": 10791, 
  "determining": 84776, 
  "Formosa": 58343, 
  "Owen": 58381, 
  "stiftung": 19127, 
  "timer": 55307, 
  "times": 32363, 
  "Ruhe@@": 18417, 
  "timen": 68372, 
  "geln": 6492, 
  "zuzüglich": 24580, 
  "timed": 77857, 
  "59-@@": 58484, 
  "Kontakten": 12983, 
  "Reproduktion": 19201, 
  "praxis": 21714, 
  "festhält": 30613, 
  "Fett": 22799, 
  "Südostasien": 20620, 
  "Prophet": 30194, 
  "Wiesen": 15401, 
  "ästhetischen": 21594, 
  "MEN@@": 41706, 
  "KEY@@": 52761, 
  "Ide@@": 16402, 
  "Pufferüber@@": 57058, 
  "lebhafte": 21976, 
  "Mehrwertsteuer@@": 12687, 
  "Alternativ@@": 17817, 
  "folge": 9749, 
  "Präambel": 31814, 
  "Ced@@": 56487, 
  "Contracts": 69717, 
  "ritts@@": 38917, 
  "orthop@@": 69036, 
  "sozio@@": 46495, 
  "Wirtschaftspartner@@": 65858, 
  "Staatsangehörigen": 22961, 
  "Vermittlung": 6223, 
  "erschienen": 7413, 
  "Frau": 119, 
  "folgt": 1224, 
  "Fachrichtungen": 50971, 
  "ankle": 77858, 
  "Marketing-@@": 16904, 
  "survi@@": 79237, 
  "forderten": 16624, 
  "unerträglich": 27229, 
  "Zustellbetten": 8064, 
  "Gemeinschaftspat@@": 58540, 
  "Staus": 34291, 
  "big": 15518, 
  "parap@@": 74725, 
  "Bildergalerie": 51788, 
  "untrennbar": 20683, 
  "Kabel@@": 10804, 
  "och@@": 20527, 
  "lists": 64081, 
  "Zurück@@": 12188, 
  "Arbeitsteilung": 30176, 
  "Staub": 15836, 
  "Hausnummer": 49528, 
  "막@@": 81467, 
  "beipflichten": 25727, 
  "liste": 4493, 
  "Fliesen": 32525, 
  "Hauptanliegen": 21256, 
  "unterwerfen": 18623, 
  "Ungerechtigkeiten": 32147, 
  "zag@@": 31691, 
  "Instrumente": 1470, 
  "überdachte": 35859, 
  "Urlaub": 1111, 
  "bedienungs@@": 45434, 
  "groes@@": 37268, 
  "verbinden": 3078, 
  "ungestör@@": 49281, 
  "Gastgeber@@": 35860, 
  "Erlass": 18488, 
  "pun@@": 42948, 
  "ss": 7225, 
  "Djibouti": 70934, 
  "при@@": 31287, 
  "Schale": 34854, 
  "zugeben": 8184, 
  "Aserbaidschan": 14980, 
  "verbindet": 3301, 
  "ruiniert": 39830, 
  "Tok@@": 26194, 
  "Zukunftsperspektiven": 52206, 
  "sp": 50643, 
  "boykot@@": 39070, 
  "zeitgemäß": 34654, 
  "Unfall": 9528, 
  "Flying": 37557, 
  "algorith@@": 37136, 
  "Mittelmeerraum": 6315, 
  "behaupt@@": 71409, 
  "spezifischen": 2317, 
  "TRIPS": 64973, 
  "Kilometer": 2921, 
  "su": 19202, 
  "Kaninchen": 46272, 
  "Interview": 9113, 
  "Editions": 60497, 
  "Münzen": 9291, 
  "CLE@@": 62304, 
  "Inland": 15777, 
  "Administrator": 14284, 
  "besto@@": 61386, 
[...]
